<pad>	0
<unk>	0
<start>	0
<end>	0
،	-3.53016
▁في	-3.5529
.	-3.63068
▁من	-4.04736
ا	-4.41265
▁علي	-4.4823
▁	-4.49893
▁ان	-4.57692
ة	-4.58037
▁و	-4.68204
▁ب	-4.74998
▁"	-4.76324
▁الي	-4.87167
ه	-4.96004
▁ال	-5.02689
▁ل	-5.12329
ها	-5.1583
"	-5.18562
ات	-5.33628
ي	-5.35044
▁عن	-5.39351
ت	-5.42412
ين	-5.46437
▁التي	-5.60113
▁مع	-5.62183
/	-5.64734
▁وال	-5.69735
ية	-5.73736
▁الذي	-5.76193
▁(	-5.76854
▁«	-5.77201
".	-5.80873
▁لل	-5.81395
)	-5.83914
ون	-5.89292
»	-5.90243
▁ا	-5.93856
▁بعد	-5.94649
ن	-5.97917
د	-6.02891
ب	-6.03032
▁ما	-6.06139
▁بال	-6.07204
ال	-6.08426
م	-6.13145
▁اليوم	-6.13344
ع	-6.13853
▁ي	-6.17189
▁ت	-6.18028
هم	-6.20618
▁م	-6.22593
وا	-6.2929
▁خلال	-6.30663
ح	-6.33266
▁بين	-6.34745
▁لا	-6.42272
▁الم	-6.4312
ان	-6.4369
▁هذا	-6.4531
▁انه	-6.45375
▁او	-6.49101
▁هذه	-6.54286
▁لم	-6.64507
▁الالمانية	-6.65086
▁رئيس	-6.65389
ز	-6.67895
▁ف	-6.69254
▁الرئيس	-6.71263
▁وقال	-6.74297
▁المتحدة	-6.75075
▁المانيا	-6.7574
ف	-6.76339
▁دبي	-6.77025
▁قبل	-6.77877
▁العام	-6.7798
▁قد	-6.80411
ج	-6.8079
:	-6.8107
نا	-6.82898
▁امس	-6.83422
▁الالماني	-6.85064
▁عام	-6.87776
▁كما	-6.87794
▁ذلك	-6.88923
▁ع	-6.93927
▁منذ	-6.94595
▁كان	-6.94886
ش	-6.94902
▁اي	-6.96227
ك	-6.9634
▁غير	-6.97725
"،	-6.98586
▁الف	-7.0141
▁الماضي	-7.01669
س	-7.01853
▁ن	-7.03726
▁اكثر	-7.0493
▁الا	-7.064
▁بن	-7.07675
▁كل	-7.08895
▁قال	-7.0927
▁العالم	-7.11959
▁جديدة	-7.127
▁وت	-7.14236
▁اعلنت	-7.14408
▁حيث	-7.1445
▁وزير	-7.14529
▁وفي	-7.15902
▁كورونا	-7.16681
▁الحكومة	-7.1777
ص	-7.18213
▁وي	-7.19145
▁الاول	-7.19374
▁وذلك	-7.19545
▁حول	-7.19933
▁مدينة	-7.20755
▁عدد	-7.21252
▁حتي	-7.22446
▁لكن	-7.23317
▁فيما	-7.2431
▁هو	-7.24356
▁الاتحاد	-7.26084
ر	-7.26504
▁محمد	-7.26804
ته	-7.27152
و	-7.27816
▁امام	-7.29142
▁بشكل	-7.29317
▁اول	-7.30182
▁وا	-7.30242
▁بسبب	-7.30558
▁الثاني	-7.31098
▁عاما	-7.32163
▁ايضا	-7.32186
▁وزارة	-7.32803
▁تم	-7.3326
خ	-7.33438
▁سي	-7.33666
▁الخارجية	-7.33848
▁اعلن	-7.34849
▁الامارات	-7.35162
▁ضد	-7.36149
غ	-7.36615
▁القدم	-7.36725
▁انها	-7.38456
▁سوريا	-7.38457
▁مجلس	-7.39131
يا	-7.41292
▁الاوروبي	-7.41887
▁عبر	-7.42071
▁الدولي	-7.42209
▁مليون	-7.42528
▁الشرطة	-7.43772
▁نحو	-7.44573
▁يوم	-7.44839
▁ح	-7.45048
▁ابوظبي	-7.45675
▁الولايات	-7.45773
▁واضاف	-7.47315
▁الجمعة	-7.47985
▁كانت	-7.48234
▁بان	-7.4874
▁اخري	-7.49013
▁الاحد	-7.4922
ما	-7.501
▁الخميس	-7.50107
▁شركة	-7.50601
▁فريق	-7.51086
▁الدولة	-7.51605
▁الاثنين	-7.52082
▁الاولي	-7.52376
▁وكان	-7.53282
▁الثلاثاء	-7.53527
▁وهو	-7.53711
▁بعض	-7.53723
▁الاربعاء	-7.5546
ض	-7.56093
▁موقع	-7.5615
تها	-7.56523
▁السعودية	-7.56979
▁السبت	-7.57213
▁ست	-7.57643
▁يمكن	-7.58402
▁الامن	-7.58632
»،	-7.58673
▁هي	-7.58838
▁الوزراء	-7.60203
ط	-7.6036
▁المقبل	-7.60494
▁وم	-7.61237
▁د	-7.61378
▁البلاد	-7.61977
▁ومن	-7.63316
▁لكرة	-7.63422
اء	-7.63685
في	-7.64236
ل	-7.65898
▁دون	-7.65913
▁له	-7.66554
▁الان	-7.66938
▁ك	-7.67012
▁باسم	-7.67182
▁فان	-7.6778
؟	-7.67789
▁العمل	-7.67818
▁هناك	-7.68113
▁والم	-7.68267
▁ترامب	-7.68488
▁احد	-7.69477
▁بشان	-7.70667
تين	-7.71066
لا	-7.71415
▁العامة	-7.71774
▁وقت	-7.72579
▁منطقة	-7.72789
▁اذ	-7.72989
▁وقالت	-7.73775
▁ميركل	-7.74408
▁ضمن	-7.75163
▁س	-7.75879
▁اجل	-7.76911
▁الجيش	-7.77955
▁الامريكية	-7.77957
▁مصر	-7.78484
▁اوروبا	-7.78863
▁قوات	-7.79578
▁شخص	-7.81156
▁تنظيم	-7.81198
▁الصحة	-7.81797
▁قالت	-7.81905
▁السابق	-7.82365
▁اخر	-7.8274
▁اصابة	-7.83177
▁السلطات	-7.83491
▁العاصمة	-7.83751
▁وان	-7.83914
▁مثل	-7.84394
▁عملية	-7.84457
▁السوري	-7.84458
▁الشارقة	-7.85106
▁ايران	-7.85118
▁الوقت	-7.85257
▁الفريق	-7.87145
بي	-7.8748
▁دول	-7.87783
▁بيان	-7.88212
▁الامريكي	-7.88609
▁الدول	-7.88738
▁فيها	-7.89401
▁داخل	-7.90464
▁حالة	-7.90737
▁حزب	-7.9094
▁تركيا	-7.91074
▁بها	-7.91193
▁لها	-7.91329
-	-7.91648
▁عبد	-7.9195
▁ثلاثة	-7.923
▁لدي	-7.92341
▁الدوري	-7.93178
▁دولة	-7.93241
▁شمال	-7.93378
▁اكد	-7.94324
▁كبير	-7.94682
▁الاسلامية	-7.9479
▁وكالة	-7.94841
▁ش	-7.95117
سي	-7.95221
▁بحسب	-7.95792
▁مساء	-7.96182
هيئة	-7.96203
▁الشيخ	-7.96316
▁كاس	-7.96389
▁الامم	-7.96451
▁لي	-7.96591
▁الدولية	-7.96614
▁اذا	-7.96702
▁اكبر	-7.96979
▁العربية	-7.97021
ام	-7.97054
▁المصري	-7.97068
▁يكون	-7.97346
▁تحت	-7.97449
▁الامر	-7.97848
▁اسرائيل	-7.98164
▁اللاجئين	-7.98218
▁اطلاق	-7.98237
▁برلين	-7.98484
دي	-7.98733
▁فيروس	-7.98789
▁ادارة	-7.99378
▁دي	-7.99404
▁الوطني	-7.99637
▁يتم	-8.00123
▁الاجتماعي	-8.00368
▁وكانت	-8.00429
▁صحيفة	-8.005
▁المنطقة	-8.00541
▁محكمة	-8.01194
▁الداخلية	-8.01505
▁رويترز	-8.01512
تي	-8.01578
▁نادي	-8.01638
▁الجديد	-8.01798
ار	-8.01962
هما	-8.02027
▁الت	-8.02238
▁روسيا	-8.02515
▁الجاري	-8.02731
ني	-8.02796
اس	-8.03253
▁سنوات	-8.03473
▁المستجد	-8.03575
▁عدم	-8.03604
▁فقط	-8.03869
▁شخصا	-8.04653
▁القوات	-8.05048
▁المنتخب	-8.05078
ق	-8.05272
▁بي	-8.05405
▁العراق	-8.05459
▁العالمية	-8.05485
▁درهم	-8.05963
▁الاسبوع	-8.06034
▁وهي	-8.06286
)،	-8.0633
▁3	-8.0634
▁كبيرة	-8.06383
▁الدفاع	-8.06483
▁عند	-8.06563
▁وب	-8.06712
▁كانون	-8.07029
▁الاخيرة	-8.07211
▁عليها	-8.07509
▁الانسان	-8.07573
▁تشرين	-8.07643
▁مركز	-8.07684
▁وسط	-8.07725
▁مجموعة	-8.07881
▁والتي	-8.09243
▁جميع	-8.09292
▁نهاية	-8.09471
▁المركز	-8.09795
اف	-8.1012
▁عدة	-8.10162
▁الحزب	-8.10831
▁19	-8.10923
▁الفرنسي	-8.11218
▁مقتل	-8.12095
▁جديد	-8.12746
▁وفاة	-8.12879
▁به	-8.13363
▁بفيروس	-8.13405
▁دولار	-8.149
▁الاميركي	-8.15079
▁حسب	-8.15166
▁وقد	-8.15858
▁عمل	-8.16232
▁عليه	-8.16355
▁ولم	-8.16498
▁وفق	-8.1722
▁خاصة	-8.17404
▁10	-8.17619
▁دوري	-8.17881
▁السورية	-8.18048
▁الثانية	-8.18648
▁الجديدة	-8.18661
▁جنوب	-8.18908
▁وجود	-8.19096
▁المجتمع	-8.19101
▁العربي	-8.19259
▁قتل	-8.19512
▁اثناء	-8.19652
▁بايرن	-8.19935
▁قرار	-8.19943
▁عندما	-8.20409
▁شرطة	-8.20437
▁التواصل	-8.2049
▁حين	-8.207
▁الاف	-8.20778
▁ايام	-8.20892
▁لن	-8.21792
▁الاميركية	-8.22049
كورونا	-8.22211
▁المحكمة	-8.22379
▁بينما	-8.22897
▁-	-8.22912
▁ولا	-8.2292
▁تكون	-8.23174
▁/	-8.23233
▁المجلس	-8.23565
▁شهر	-8.23836
▁مشروع	-8.23894
▁المعارضة	-8.24007
▁حكومة	-8.24458
▁الع	-8.24486
وي	-8.24505
▁مدير	-8.24577
▁استخدام	-8.24581
▁الانتخابات	-8.24723
▁منظمة	-8.25142
▁اطار	-8.25617
▁البرلمان	-8.25681
▁ص	-8.26001
▁الموسم	-8.26067
▁الله	-8.26175
▁20	-8.26243
▁بهدف	-8.26529
يات	-8.26729
▁الاسرائيلي	-8.27108
▁ر	-8.27199
▁الاوروبية	-8.27846
▁جانب	-8.27868
▁اب	-8.27892
▁فيه	-8.28439
▁الشهر	-8.28551
▁الاردن	-8.28597
▁المستشارة	-8.28679
▁حاليا	-8.2872
▁بعدما	-8.29003
لي	-8.2906
▁15	-8.2912
من	-8.29381
▁تلك	-8.29447
▁اثر	-8.2967
▁مصادر	-8.30018
▁التركي	-8.30031
▁اشهر	-8.30031
وس	-8.30043
▁اتفاق	-8.30138
▁نائب	-8.3037
▁ام	-8.30683
▁الخاصة	-8.3081
▁مباراة	-8.31154
▁12	-8.31332
▁المباراة	-8.31599
اع	-8.31716
▁يورو	-8.31886
▁رغم	-8.31961
▁لاعب	-8.32605
▁ذكرت	-8.32945
▁الدراسة	-8.33827
▁مارس	-8.34067
اي	-8.3413
▁وسائل	-8.34211
▁بل	-8.34295
▁اعمال	-8.34599
▁اليمن	-8.34692
▁النظام	-8.34822
▁نظام	-8.35625
▁للم	-8.3567
▁دور	-8.3609
▁المصرية	-8.3633
▁برنامج	-8.36486
▁نفسه	-8.36982
اب	-8.37066
▁الحالي	-8.37564
▁مستوي	-8.37609
▁فقد	-8.37666
▁افضل	-8.37748
▁زايد	-8.37761
▁بت	-8.37786
▁طريق	-8.38296
رويترز	-8.38311
▁المدينة	-8.38325
▁الاطفال	-8.38408
▁وضع	-8.38431
▁الهجوم	-8.38556
▁4	-8.38805
▁دراسة	-8.40007
▁مؤتمر	-8.40088
هن	-8.40239
▁مقابل	-8.40621
▁ولكن	-8.40658
▁5	-8.40859
▁شرق	-8.40933
«	-8.41159
▁واشنطن	-8.41324
▁ولاية	-8.41355
ور	-8.41549
▁ليس	-8.41881
▁تحقيق	-8.41929
▁بلاده	-8.4195
ذ	-8.41996
▁كشفت	-8.42085
▁مناطق	-8.42611
ول	-8.42634
▁مدريد	-8.42701
▁ميونيخ	-8.42931
▁المتحدث	-8.43186
▁اذار	-8.43713
▁الديمقراطي	-8.44312
▁مواقع	-8.44562
▁11	-8.44651
▁والذي	-8.44676
▁الحرب	-8.44739
▁ثم	-8.44944
▁خ	-8.4518
▁قطاع	-8.45242
▁كرة	-8.45538
▁فترة	-8.45674
ئ	-8.45716
▁عقب	-8.45773
تهم	-8.45913
▁الاصابة	-8.46136
▁صاحب	-8.46537
▁اشخاص	-8.4669
اق	-8.46857
▁بانه	-8.46943
▁مما	-8.46969
▁الحدود	-8.47103
كوفيد	-8.47423
يين	-8.47802
▁الانباء	-8.47858
▁العالمي	-8.47867
دو	-8.47942
▁هجوم	-8.48331
▁راس	-8.48556
ث	-8.486
▁بطولة	-8.48949
▁راشد	-8.49019
▁الماضية	-8.49186
▁عمليات	-8.49283
▁واحد	-8.49311
▁باريس	-8.49319
▁تقدم	-8.4944
▁مصدر	-8.49483
▁منها	-8.49949
▁فرنسا	-8.49964
▁حركة	-8.50096
▁الاتفاق	-8.50223
▁الانترنت	-8.50228
▁عشر	-8.50266
▁اكدت	-8.50307
▁يجب	-8.50856
▁الاقل	-8.50968
▁تسجيل	-8.51286
▁طلب	-8.51342
▁السعودي	-8.51683
▁كشف	-8.51821
لمدة	-8.51978
▁اربعة	-8.51998
▁دونالد	-8.5209
▁بما	-8.52196
▁العديد	-8.52205
▁حل	-8.52322
▁اما	-8.52453
بر	-8.52746
▁الكثير	-8.5312
▁اجراءات	-8.53126
▁مرة	-8.53154
▁السلام	-8.53421
▁نقل	-8.53593
داعش	-8.5369
▁تقرير	-8.53884
▁لت	-8.53915
▁مايو	-8.53921
▁الروسي	-8.54058
كل	-8.5436
▁الاسباني	-8.54416
▁ظل	-8.5485
مر	-8.55094
▁ابريل	-8.55562
▁النار	-8.55715
▁وفقا	-8.55733
▁ارتفاع	-8.55773
▁ايار	-8.5578
▁ثلاث	-8.55794
▁حزيران	-8.55809
▁دعم	-8.56008
▁عقد	-8.5606
▁برشلونة	-8.5616
▁الصحية	-8.56357
▁اعادة	-8.56546
▁المملكة	-8.56831
▁الن	-8.56942
▁القانون	-8.57047
▁نيسان	-8.57054
▁ط	-8.57145
▁التركية	-8.57173
▁لجنة	-8.57191
▁يذكر	-8.57646
▁نشر	-8.57664
▁التحالف	-8.57932
▁المالية	-8.57966
▁حال	-8.58014
1	-8.58079
▁احمد	-8.5809
▁14	-8.58298
▁30	-8.58338
▁محافظة	-8.58668
▁مليار	-8.58805
تس	-8.59161
▁المناطق	-8.59302
▁صباح	-8.59428
▁اجراء	-8.59477
▁ز	-8.59633
هذه	-8.60033
▁الاشخاص	-8.60049
▁جدا	-8.60349
▁بينهم	-8.60412
▁تعرض	-8.60726
يف	-8.60859
تر	-8.61167
▁لان	-8.61287
▁خمسة	-8.61318
▁الشرق	-8.61593
لو	-8.61759
▁النادي	-8.61802
▁الفترة	-8.61934
▁اعلان	-8.61997
▁وعلي	-8.62046
الم	-8.62052
▁تطبيق	-8.62204
▁الاعلام	-8.62274
▁مسؤول	-8.6229
▁يناير	-8.62526
▁جامعة	-8.62768
▁الاوسط	-8.62781
وب	-8.62938
▁طالب	-8.62942
▁يونيو	-8.62996
يس	-8.63177
▁حوالي	-8.6321
ظ	-8.63409
▁الفلسطينية	-8.63463
▁ليبيا	-8.63498
▁حقوق	-8.63567
▁الجولة	-8.63717
▁قضية	-8.63742
▁اللجنة	-8.63831
▁واضافت	-8.64031
اني	-8.64069
مكافحة	-8.64201
▁تقديم	-8.64537
▁6	-8.64585
▁بداية	-8.64587
▁اردوغان	-8.64692
▁سابق	-8.64829
▁البريطانية	-8.6509
▁العمر	-8.65161
▁نتائج	-8.6518
▁وقف	-8.65265
▁حملة	-8.65306
دة	-8.65503
در	-8.65771
▁الحياة	-8.65811
جر	-8.65862
جي	-8.66067
▁دورتموند	-8.66198
▁الصين	-8.66381
▁السياسية	-8.66386
▁نفس	-8.66416
▁ساعة	-8.66566
▁مختلف	-8.6668
▁اللجوء	-8.6668
▁لوكالة	-8.66931
▁18	-8.67266
▁تنفيذ	-8.6733
الدولة	-8.67406
▁بلد	-8.67723
▁غرب	-8.67775
▁اكتوبر	-8.67789
▁التابعة	-8.67884
▁نسبة	-8.67916
يه	-8.6793
▁13	-8.67981
▁تصريحات	-8.68076
▁الحكومية	-8.68127
▁غزة	-8.68556
▁بدات	-8.68778
▁الوطنية	-8.68779
▁نوفمبر	-8.68793
▁منتخب	-8.68891
▁العسكرية	-8.69067
▁16	-8.69296
▁بالنسبة	-8.69331
▁مكان	-8.69512
▁والا	-8.69659
▁برس	-8.69724
▁الوضع	-8.7011
▁اللي	-8.7012
▁نقطة	-8.70188
▁ريال	-8.70209
▁حماية	-8.7021
ست	-8.7032
مان	-8.70381
▁نجم	-8.70492
(	-8.70624
▁المرحلة	-8.70799
▁دعا	-8.70828
▁اخرين	-8.70868
▁جو	-8.71057
مدينة	-8.71189
▁الفا	-8.71237
▁زيادة	-8.71315
▁ملايين	-8.71457
ير	-8.71519
▁سبتمبر	-8.71747
▁دفع	-8.71924
▁احدي	-8.72067
▁الخاص	-8.72185
▁جاء	-8.72573
▁الازمة	-8.72691
▁ذكر	-8.72852
يل	-8.73056
▁الخليج	-8.73202
▁الاسد	-8.73239
كي	-8.73353
فا	-8.73475
▁المسيحي	-8.73576
▁الشباب	-8.73853
▁الشركة	-8.73903
▁بناء	-8.73916
▁الثالث	-8.73954
▁التعاون	-8.74011
▁الفرنسية	-8.74233
▁اس	-8.743
▁افريقيا	-8.74354
▁فتح	-8.74611
ري	-8.74655
▁الالكتروني	-8.74757
▁الايراني	-8.74876
اط	-8.74934
▁الناس	-8.74943
▁قام	-8.74952
▁بيانات	-8.75153
▁واوضح	-8.75267
▁افادت	-8.75359
▁الموقع	-8.75365
▁الارهاب	-8.75456
▁وبعد	-8.75604
▁ايلول	-8.7565
رغم	-8.75685
▁دائرة	-8.75738
▁بدء	-8.75739
▁المنظمة	-8.75767
▁24	-8.75822
▁ق	-8.75859
▁الاعمال	-8.75908
▁مكتب	-8.75987
▁ابطال	-8.76025
▁الطاقة	-8.76188
▁واكد	-8.76244
▁اوباما	-8.76271
▁امر	-8.76321
▁ديسمبر	-8.7638
▁مجال	-8.76529
▁نتيجة	-8.76678
▁الاتحادية	-8.76724
▁رفض	-8.76859
▁العراقية	-8.76874
▁النووي	-8.76974
▁بريطانيا	-8.77196
▁اجتماع	-8.77231
▁وقع	-8.77279
▁بدا	-8.77366
▁طائرة	-8.77445
▁العين	-8.77601
▁17	-8.77664
▁سن	-8.77873
▁انتشار	-8.78043
▁الجوية	-8.78073
▁حكم	-8.78372
▁الملك	-8.78454
▁اهداف	-8.78484
▁ذات	-8.78504
▁مؤسسة	-8.78523
▁قرب	-8.78621
▁الروسية	-8.78768
▁لو	-8.79334
4	-8.79524
▁الهيئة	-8.79551
▁قطر	-8.79593
تم	-8.79637
▁القرار	-8.79694
▁المجموعة	-8.7982
▁الحكم	-8.79904
▁العلاقات	-8.79965
▁عرض	-8.80007
▁المواطنين	-8.80041
▁العليا	-8.80086
▁است	-8.80179
▁عمان	-8.80263
▁حالات	-8.80287
▁اقل	-8.80305
▁اعضاء	-8.80401
▁الاسرائيلية	-8.80674
▁واحدة	-8.80679
▁العسكري	-8.80709
5	-8.80854
وف	-8.80868
▁ج	-8.80911
▁المن	-8.80982
انغيلا	-8.81012
▁مطار	-8.81015
يد	-8.81047
▁زي	-8.81081
▁الغربية	-8.81203
▁نهائي	-8.81277
▁الدقيقة	-8.81429
▁اتحاد	-8.81548
▁هدف	-8.81667
▁الساعة	-8.81668
▁الانجليزي	-8.81838
▁ادي	-8.81872
▁السياسي	-8.81947
▁زيارة	-8.8223
▁الامنية	-8.82236
▁خارج	-8.8227
▁2	-8.82301
▁تموز	-8.82417
▁مدرب	-8.82547
▁تونس	-8.82696
▁مختلفة	-8.82741
▁1	-8.82742
▁قائمة	-8.83017
▁اسم	-8.83043
▁مهمة	-8.83183
▁فبراير	-8.83186
▁ازمة	-8.83328
▁بنسبة	-8.83364
▁المحلية	-8.8337
▁لكنه	-8.83461
▁تقارير	-8.83665
▁يبدو	-8.83783
▁البحر	-8.8381
▁الطائرة	-8.83867
▁اطلقت	-8.84004
▁يوليو	-8.84009
▁المدرب	-8.84046
▁رجل	-8.84148
ود	-8.84253
▁2017)	-8.84478
▁فرانس	-8.84529
▁الشركات	-8.84585
▁الش	-8.8462
▁القاهرة	-8.84712
▁الاجراءات	-8.8481
▁افاد	-8.8482
▁يعد	-8.8484
▁النساء	-8.84844
▁7	-8.84996
رو	-8.85195
▁غ	-8.85295
▁ستة	-8.85353
▁العنف	-8.8557
▁الاسلحة	-8.85688
▁اللاعب	-8.85694
لم	-8.857
▁المقرر	-8.85777
▁25	-8.85864
▁ممكن	-8.85905
▁الايطالي	-8.86039
▁الالمان	-8.86129
▁وذكرت	-8.86173
▁معلومات	-8.86431
▁الدور	-8.86765
▁المهاجرين	-8.86961
▁عسكرية	-8.87067
▁المعلومات	-8.87085
▁الابيض	-8.87104
▁الاخير	-8.8714
▁نصف	-8.8717
▁بذلك	-8.87209
▁وتابع	-8.87315
▁سيارة	-8.87333
با	-8.87338
▁مقر	-8.87472
اش	-8.87556
وم	-8.87657
▁قانون	-8.87943
▁ار	-8.88044
▁لبنان	-8.88095
▁حد	-8.88112
▁مشيرا	-8.88239
▁الق	-8.88256
▁حظر	-8.88275
).	-8.88298
▁الج	-8.88447
تان	-8.88557
▁مدي	-8.88563
▁العملية	-8.88858
يو	-8.88923
▁مواجهة	-8.8897
▁الحصول	-8.8904
▁اضافة	-8.89187
▁البحث	-8.89238
▁اثار	-8.89272
▁شباط	-8.89658
▁امن	-8.89718
▁انهم	-8.89845
▁لما	-8.90033
▁الك	-8.90162
▁الشعب	-8.90219
7	-8.90222
▁لهم	-8.90325
▁للمر	-8.90345
انحاء	-8.9035
▁الانسانية	-8.90548
▁50	-8.90578
▁المشاركة	-8.9065
▁غدا	-8.90663
فر	-8.90828
▁المسلحة	-8.90874
▁رد	-8.90981
▁المسلمين	-8.91019
▁الرسمية	-8.91301
؛	-8.91308
▁مش	-8.91386
▁الخ	-8.91427
▁مت	-8.91505
▁وجه	-8.91742
▁القبض	-8.91789
كر	-8.91795
▁محاولة	-8.91905
▁اغسطس	-8.91945
▁محادثات	-8.92154
▁عمر	-8.92206
▁للامم	-8.92476
▁الاراضي	-8.92667
▁شركات	-8.92671
هل	-8.92709
▁2018)	-8.92797
▁عشرة	-8.92919
الي	-8.92944
▁خصوصا	-8.92963
▁وزراء	-8.92964
▁الارض	-8.93038
▁تشكيل	-8.93082
▁افراد	-8.93411
▁عشان	-8.93423
▁هجمات	-8.93456
▁وبحسب	-8.9346
▁سان	-8.93478
▁سنة	-8.93901
▁متحدث	-8.94061
▁حق	-8.94128
2	-8.94233
قر	-8.94444
وق	-8.94866
مة	-8.95085
▁بينها	-8.95086
▁الفوز	-8.95118
▁قدم	-8.95123
▁وده	-8.95165
زي	-8.95183
3	-8.95239
▁دخول	-8.95403
▁بانها	-8.95583
▁مباريات	-8.95942
▁النجم	-8.95987
▁تناول	-8.96016
▁امنية	-8.96289
▁تطوير	-8.9636
▁سقوط	-8.96465
▁المقبلة	-8.96559
▁كانوا	-8.96592
▁بالاضافة	-8.96611
▁بغداد	-8.96614
▁الاشتراكي	-8.96668
▁بالفيروس	-8.96987
يب	-8.97107
▁ساعات	-8.97279
▁تعزيز	-8.97347
▁التنظيم	-8.97365
▁اعداد	-8.97523
▁المانية	-8.97531
صل	-8.97628
▁ولي	-8.97666
▁مضيفا	-8.97744
▁الرياضي	-8.97909
▁السمو	-8.98166
▁السيارات	-8.9831
▁الح	-8.9846
▁الاخري	-8.98468
▁بدون	-8.98556
سن	-8.98627
▁100	-8.98667
▁بالتعاون	-8.9876
▁وما	-8.9879
▁الس	-8.9882
▁بتهمة	-8.99008
▁21	-8.99221
▁ضرورة	-8.99224
▁البريطاني	-8.99254
▁الر	-8.99255
اري	-8.9935
▁مكتوم	-8.9935
دل	-8.99358
▁القدس	-8.99358
▁التوصل	-8.9939
▁مجددا	-8.99403
▁مقارنة	-8.99612
▁فرض	-8.99776
▁الاعلي	-8.9978
وت	-8.99814
بل	-8.99852
▁طويلة	-8.99909
▁يتعلق	-8.99975
▁الاسلامي	-9.00124
امكانية	-9.00274
▁موسكو	-9.00405
▁عناصر	-9.00504
▁رفع	-9.00578
▁الاقتصاد	-9.0062
▁عبدالله	-9.00623
▁الاقتصادية	-9.0072
▁جهاز	-9.00742
▁مستشفي	-9.00747
▁جراء	-9.00781
▁الثالثة	-9.00876
▁2020	-9.0097
▁وسي	-9.01015
▁لقاح	-9.0106
▁الاهلي	-9.01085
شر	-9.01196
▁كي	-9.01383
▁حاكم	-9.01423
▁المراة	-9.01727
▁الرسمي	-9.01745
▁الجسم	-9.01793
▁بحق	-9.01795
▁العراقي	-9.0182
▁حرب	-9.01872
▁البيت	-9.01933
▁شهدت	-9.02138
مشاركة	-9.02189
▁8	-9.02275
▁التقرير	-9.02386
▁تصل	-9.02481
▁ول	-9.02535
▁النهائي	-9.02541
▁بيد	-9.02704
▁وصل	-9.02737
▁خط	-9.02945
يت	-9.02957
▁افغانستان	-9.03192
جو	-9.03201
▁قائلا	-9.03847
▁بالم	-9.0385
▁القطاع	-9.03859
▁اسبوع	-9.04025
▁تلقي	-9.04129
▁خدمات	-9.04256
▁تراجع	-9.0432
▁عشرات	-9.04339
▁تعد	-9.04385
▁معرض	-9.04402
▁هؤلاء	-9.04579
▁وتم	-9.04652
▁الطبية	-9.047
▁خطة	-9.04755
▁اسيا	-9.04774
▁الكبري	-9.04791
▁2018	-9.04804
▁9	-9.04876
▁الطرق	-9.04983
▁يت	-9.05005
▁عربية	-9.05053
▁رجال	-9.05098
▁ابو	-9.0519
▁2013)	-9.05229
▁واشار	-9.05247
▁امراة	-9.05343
▁اعلي	-9.05597
▁خطوة	-9.05692
▁dw	-9.05799
▁بلغ	-9.05833
▁الامير	-9.05963
بة	-9.05989
▁السودان	-9.06272
▁اعتبارا	-9.06294
▁وذكر	-9.06298
▁بالمائة	-9.06589
يز	-9.06625
▁خمس	-9.06897
فت	-9.06906
ؤ	-9.0693
▁التعليم	-9.06953
▁استمرار	-9.06953
▁الشمالية	-9.07039
▁كبيرا	-9.07055
▁مؤخرا	-9.07073
▁الدكتور	-9.07081
▁الدم	-9.07354
رق	-9.07439
رة	-9.07531
يون	-9.07535
▁القيادة	-9.07634
طي	-9.07768
▁انتخابات	-9.07893
▁مطلع	-9.07928
▁حفل	-9.08018
▁قائد	-9.08073
▁سلسلة	-9.08101
▁اغلاق	-9.08127
▁سجلت	-9.08171
▁تاريخ	-9.08188
▁النفط	-9.08349
▁اصابات	-9.08462
▁المؤتمر	-9.08642
▁المياه	-9.08717
▁الباحثون	-9.08717
▁المائة	-9.08852
▁دمشق	-9.08902
▁بهذا	-9.08996
وز	-9.09001
تو	-9.09014
▁22	-9.09101
▁سوق	-9.09204
▁اظهرت	-9.09256
-19	-9.09375
▁المع	-9.09383
▁البيان	-9.0946
لة	-9.09534
▁سكان	-9.09756
▁اجهزة	-9.10108
▁صلاح	-9.10201
اك	-9.10268
▁السلطة	-9.10328
▁حادث	-9.10341
▁علاج	-9.10364
▁لقاء	-9.10447
▁مجلة	-9.10474
▁عيد	-9.10478
▁شبكة	-9.10604
▁اليمني	-9.10791
▁الفلسطيني	-9.1082
▁الطريق	-9.10821
رس	-9.10866
غو	-9.10946
▁المدارس	-9.11049
▁لندن	-9.11173
دا	-9.11203
▁الادارة	-9.114
بو	-9.11403
▁جائزة	-9.1144
▁الجنوبية	-9.11473
▁بوتين	-9.11505
حت	-9.11519
▁خطر	-9.11558
▁التحقيق	-9.11565
▁باستخدام	-9.11736
▁والت	-9.11841
▁قررت	-9.1186
حة	-9.11907
▁عضو	-9.11918
▁رقم	-9.11942
▁جهة	-9.11955
▁رسميا	-9.11977
▁ده	-9.1198
▁منافسات	-9.12012
يق	-9.12058
▁طهران	-9.12059
▁المدير	-9.12089
6	-9.12287
▁يقوم	-9.12299
اج	-9.12343
▁سجل	-9.12529
▁فعاليات	-9.12591
جا	-9.12608
▁الالكترونية	-9.12695
▁نقاط	-9.12745
▁اربع	-9.12942
▁تعمل	-9.13048
رت	-9.13057
▁23	-9.13118
▁وكذلك	-9.13135
▁البيانات	-9.13336
▁فعل	-9.13528
▁وجاء	-9.13718
▁الصحي	-9.13746
▁الهدف	-9.13783
دين	-9.13794
▁القضية	-9.13856
▁تحديد	-9.13895
▁الدين	-9.13957
رز	-9.14089
▁اسعار	-9.14227
▁الوزارة	-9.14363
▁السفر	-9.14409
ولاية	-9.14517
▁اطلق	-9.1459
▁سبب	-9.14621
▁حسبم	-9.14632
▁وحتي	-9.14651
▁يؤدي	-9.14775
▁سيكون	-9.14788
▁الرياضية	-9.14789
▁خلفية	-9.1484
بت	-9.15026
▁الخيمة	-9.15077
▁قيادة	-9.15251
▁مبادرة	-9.15392
▁لحقوق	-9.15406
▁اصحاب	-9.15491
▁الوزير	-9.15599
▁ثاني	-9.156
▁اعلام	-9.15624
▁الام	-9.1566
صناعة	-9.15686
▁وقعت	-9.15875
▁يعرف	-9.15877
▁انتاج	-9.15935
▁مانشستر	-9.16001
▁صحفي	-9.16025
▁اهم	-9.16301
▁جائحة	-9.1643
▁قمة	-9.16434
▁البلد	-9.16467
▁خليفة	-9.16517
▁لقب	-9.16535
غير	-9.16555
▁يقول	-9.16785
كم	-9.16883
▁الص	-9.16901
او	-9.1691
▁اهمية	-9.17069
▁وصول	-9.17175
▁منهم	-9.17221
▁القاعدة	-9.17223
▁فوز	-9.17282
▁الهجرة	-9.17356
سل	-9.17437
▁المفاوضات	-9.17463
لن	-9.17478
دار	-9.17499
▁جهود	-9.17569
▁البطولة	-9.17606
جل	-9.17618
رد	-9.17652
▁الكرة	-9.17719
نس	-9.17902
▁التجارية	-9.17909
▁المت	-9.18053
▁مراكز	-9.1812
▁المتوسط	-9.18127
▁نظيره	-9.18167
▁سوي	-9.18199
▁تويتر	-9.18291
مي	-9.18572
▁ميسي	-9.1859
▁فريقه	-9.18594
t	-9.18626
دبي	-9.18629
▁يزال	-9.18638
▁مطالب	-9.18705
▁نهيان	-9.18757
▁المغرب	-9.18807
▁قرر	-9.18814
▁الاكثر	-9.18874
▁المرصد	-9.19199
لت	-9.19203
▁المصدر	-9.19283
▁يبلغ	-9.19291
كس	-9.19419
▁ظهر	-9.19421
▁للغاية	-9.19475
▁لكل	-9.19779
▁تعليق	-9.19794
▁المدني	-9.19933
جد	-9.20006
▁40	-9.20111
▁بلدية	-9.20112
▁تسبب	-9.20113
▁الرجل	-9.20114
▁يعني	-9.20145
▁المزيد	-9.20252
▁انقرة	-9.20307
اوي	-9.20358
▁الحادث	-9.2045
▁فاز	-9.20462
زم	-9.20493
▁الايرانية	-9.20528
▁مئات	-9.20591
▁الاتحادي	-9.20643
قت	-9.20675
▁بلغت	-9.20742
▁اليه	-9.20762
▁المتوقع	-9.20856
▁الصحيفة	-9.20881
▁حذر	-9.20893
▁حياة	-9.20915
غر	-9.20916
▁بيع	-9.21006
▁لدعم	-9.21083
▁البعض	-9.21151
▁البرازيلي	-9.21186
▁كيف	-9.21238
▁الاحمر	-9.21267
▁اقامة	-9.21279
▁جري	-9.21327
▁شباب	-9.21366
▁جلسة	-9.21465
▁كافة	-9.21501
اتها	-9.21547
▁طفل	-9.21608
▁المواد	-9.21634
▁التابع	-9.21692
ادارة	-9.217
▁اليمنية	-9.21723
▁مباشرة	-9.21757
▁تطلق	-9.21781
▁يوما	-9.21879
▁الخدمات	-9.21901
▁ايطاليا	-9.21916
▁شاب	-9.21958
▁فال	-9.22102
▁يصل	-9.22115
▁خدمة	-9.22159
حي	-9.22204
▁فرص	-9.22241
▁عهد	-9.22344
▁لمواجهة	-9.22357
▁بايدن	-9.22382
▁مؤكدا	-9.22447
▁المستقبل	-9.22519
i	-9.22556
▁تت	-9.22594
▁الرئاسة	-9.22627
▁الشرقية	-9.22667
▁راي	-9.22708
زيادة	-9.22768
▁الفيروس	-9.22883
▁ليست	-9.22898
نت	-9.2296
▁فوق	-9.22983
▁تاثير	-9.23017
مت	-9.23042
راف	-9.23056
▁فرصة	-9.23059
▁الطيران	-9.2307
ولي	-9.23073
▁تحمل	-9.23182
منطقة	-9.2334
▁ليفربول	-9.23341
قة	-9.23389
▁سورية	-9.23423
▁القضاء	-9.23446
▁جماعة	-9.23554
▁الواقعة	-9.2357
تك	-9.23647
▁العلماء	-9.23684
▁السيطرة	-9.23773
▁بقيمة	-9.23784
▁اسابيع	-9.23788
▁2019)	-9.23897
تا	-9.23899
▁صفوف	-9.24173
▁التنفيذي	-9.2429
▁رسالة	-9.24377
▁الاصابات	-9.24377
▁بمناسبة	-9.24378
▁الرياض	-9.24446
▁ياتي	-9.24565
▁واسعة	-9.24579
▁عنه	-9.24601
▁القلب	-9.24701
▁الهجمات	-9.24742
▁2014	-9.24926
▁تجمع	-9.24929
▁خاص	-9.25021
▁النواب	-9.25092
▁يعتبر	-9.25167
▁دعت	-9.25193
▁مرسي	-9.2522
▁السكان	-9.25237
▁خبراء	-9.25275
▁تمكن	-9.2532
▁الرابع	-9.25447
مارس	-9.25468
8	-9.25596
حل	-9.25864
▁قوله	-9.259
جم	-9.25905
بار	-9.26021
ائية	-9.26184
▁2015)	-9.26243
▁بالسجن	-9.26249
▁تن	-9.26423
▁زعيم	-9.26501
▁بحث	-9.26508
طريقة	-9.26575
▁الفجيرة	-9.26609
▁نشرت	-9.26628
▁معظم	-9.26642
▁شيء	-9.26643
يم	-9.26878
▁موعد	-9.26938
▁اعوام	-9.27034
▁السيسي	-9.27046
▁اللبناني	-9.27062
▁الجزيرة	-9.27109
▁صورة	-9.27298
▁جنيف	-9.27324
▁سبعة	-9.27372
▁جديدا	-9.27414
لل	-9.27425
▁نقلت	-9.27643
▁الرجال	-9.277
▁رمضان	-9.27757
▁ونقلت	-9.27812
▁الوصول	-9.27825
▁تدريب	-9.27935
▁قناة	-9.28048
▁منتصف	-9.2808
▁يعمل	-9.28188
▁البلدين	-9.28271
▁رونالدو	-9.28383
▁بطل	-9.28424
▁اسلحة	-9.28424
▁اولي	-9.28497
▁لهذا	-9.28515
▁وراء	-9.28617
▁عجمان	-9.28635
▁العلاج	-9.28742
▁النزاع	-9.29064
▁سياسية	-9.29075
▁الائتلاف	-9.2918
▁النيابة	-9.29214
▁قوية	-9.29225
اعادة	-9.29228
صار	-9.29278
▁لمكافحة	-9.29343
▁للرئيس	-9.29368
▁سياسي	-9.2938
▁طيب	-9.29441
▁اللاعبين	-9.29565
عاد	-9.29595
▁تقوم	-9.29617
▁كامل	-9.29724
▁اتخاذ	-9.29763
▁طائرات	-9.29768
▁درجة	-9.29783
▁فيديو	-9.29807
غل	-9.29829
▁اصبح	-9.29848
▁27	-9.29953
▁الفلسطينيين	-9.29985
▁26	-9.29997
▁تجري	-9.3004
بق	-9.30082
▁عالم	-9.3012
▁اجمالي	-9.30126
▁جانبه	-9.30442
▁عودة	-9.30495
▁الخبراء	-9.30667
▁مو	-9.30675
دير	-9.30708
عة	-9.30762
▁المشروع	-9.30775
▁2021	-9.30783
كون	-9.30826
صح	-9.30887
مثل	-9.3118
▁حقق	-9.312
▁ربما	-9.31254
▁لكنها	-9.31266
كو	-9.31387
▁تشهد	-9.3141
▁انطلاق	-9.31418
▁النظر	-9.31482
▁نيويورك	-9.31515
▁الايام	-9.31719
▁افتتاح	-9.3177
فة	-9.31773
▁الغ	-9.31786
▁الامين	-9.31866
▁يكن	-9.31911
▁الدورة	-9.31913
▁شكل	-9.31921
▁وحسب	-9.31933
▁المحلي	-9.31962
▁للا	-9.31967
▁المكتب	-9.32061
▁ابرز	-9.32094
▁اطفال	-9.32123
وع	-9.32193
▁نفسها	-9.32194
▁يد	-9.32338
نة	-9.32414
▁البافاري	-9.32423
سا	-9.32521
▁ون	-9.32551
▁مهرجان	-9.32585
اث	-9.32626
▁ارهابية	-9.32654
▁البالغ	-9.32671
▁الاجتماعية	-9.3271
00	-9.32826
▁ملعب	-9.32916
▁السابقة	-9.32917
بن	-9.3301
تل	-9.33101
▁مالية	-9.33103
▁يقدم	-9.33177
▁اشارة	-9.33181
▁تغيير	-9.33185
▁حي	-9.33198
▁الهند	-9.33212
▁الحوثي	-9.33308
▁القادم	-9.33346
▁الاعلان	-9.33408
▁الجنسية	-9.33418
▁توفير	-9.3345
▁28	-9.33543
▁فرق	-9.33574
▁كوفيد	-9.33585
▁وهذا	-9.33659
0	-9.33823
▁سيتم	-9.33833
▁مفاوضات	-9.34004
▁حصل	-9.34004
▁الكبير	-9.34094
▁حصيلة	-9.34108
▁الفني	-9.3417
▁العمال	-9.34315
▁2011	-9.34384
▁كوريا	-9.34441
▁الغذائية	-9.34476
▁محاكمة	-9.3449
▁صالح	-9.34497
▁بر	-9.34499
▁الدعم	-9.34542
دون	-9.34598
يك	-9.34644
▁كثيرا	-9.34729
▁مستقبل	-9.34876
▁سمو	-9.34898
▁الحوثيين	-9.34909
▁تماما	-9.34941
▁الاجتماع	-9.35124
▁القومي	-9.35173
▁جون	-9.352
▁وبين	-9.35212
▁ومع	-9.35251
▁حدود	-9.35329
s	-9.35468
مار	-9.35533
▁سعيد	-9.35607
▁الوكالة	-9.35648
▁لصالح	-9.3567
▁مشيرة	-9.35671
▁اسباب	-9.35726
كت	-9.35746
▁محطة	-9.35761
▁بشار	-9.35774
▁التونسي	-9.3584
▁الشاب	-9.35913
▁جي	-9.36019
▁رسمية	-9.36148
▁العودة	-9.3618
▁ثمانية	-9.36187
▁وزيرة	-9.36268
▁هل	-9.36363
خر	-9.36422
▁مرض	-9.36474
▁قامت	-9.36503
▁عسكري	-9.36589
▁ضيفه	-9.36641
▁ورغم	-9.36693
▁هنا	-9.367
فل	-9.36701
▁فيلم	-9.36846
▁وصف	-9.3688
▁يري	-9.36905
شي	-9.37058
تش	-9.37126
ذا	-9.37263
▁مر	-9.37337
▁العقوبات	-9.37359
▁ووفق	-9.37364
▁غد	-9.37386
▁سيتي	-9.37432
▁انفجار	-9.37489
▁الرابعة	-9.37579
▁قيمة	-9.37624
▁التلفزيون	-9.37689
كا	-9.37696
▁النتائج	-9.37702
▁يعود	-9.37731
▁بجروح	-9.37889
▁اتفاقية	-9.37908
▁خارجية	-9.37923
▁توفي	-9.37989
▁اقليم	-9.38078
▁المسؤول	-9.38162
▁الحالية	-9.38311
▁التعامل	-9.38317
▁الذكية	-9.38403
▁بقيادة	-9.38418
▁السجن	-9.38442
▁حجم	-9.38497
▁تزال	-9.38515
▁تدخل	-9.38547
▁منزل	-9.38597
9	-9.38621
موجة	-9.38703
▁وس	-9.38708
يح	-9.38751
▁المشتركة	-9.38776
▁مراجعة	-9.38809
▁المصابين	-9.38821
▁ضحايا	-9.38839
▁صور	-9.38905
▁منح	-9.39001
▁اوكرانيا	-9.39095
▁وقوع	-9.39132
▁خلف	-9.39349
▁صحة	-9.39423
▁الحاكم	-9.39474
وه	-9.39498
▁ظهور	-9.39518
▁للت	-9.39526
▁2014)	-9.39602
▁التصويت	-9.39823
▁الخامس	-9.39835
▁واست	-9.39835
▁قيام	-9.39911
▁المح	-9.39927
▁الحركة	-9.39963
▁تابعة	-9.39976
▁2012	-9.40029
▁وليس	-9.40137
تنا	-9.4014
▁السوق	-9.40213
▁الماني	-9.40233
▁يشار	-9.40253
مو	-9.40281
▁الاماراتي	-9.40302
جامعة	-9.40302
▁تفاصيل	-9.40338
▁تعتبر	-9.40442
▁البحرية	-9.40576
▁اقتصادية	-9.40589
▁المدنيين	-9.40603
▁موقف	-9.40608
%	-9.40687
▁سير	-9.40697
▁المرض	-9.40736
▁القوي	-9.40742
▁المستوي	-9.40762
▁جزيرة	-9.40817
الامارات	-9.40825
▁كيري	-9.40834
▁صرح	-9.40858
▁الرئاسية	-9.40887
▁مد	-9.40904
▁لذلك	-9.40912
▁اخيرا	-9.40939
▁استقبال	-9.41002
▁المقابل	-9.41035
ذي	-9.41075
▁انتهاء	-9.41082
▁2016	-9.41115
▁التوالي	-9.41157
▁لتنظيم	-9.41211
▁قوة	-9.41299
▁المفوضية	-9.41336
سر	-9.41421
▁المحادثات	-9.41449
▁طريقة	-9.41659
▁لاجئ	-9.41662
▁القيام	-9.41729
▁دقيقة	-9.41826
▁مشاركة	-9.41894
▁60	-9.41946
▁للحكومة	-9.41948
▁يعاني	-9.41974
▁غض	-9.42143
▁السوريين	-9.42145
▁حسن	-9.42178
▁موسم	-9.42187
را	-9.42388
راد	-9.42448
▁قضت	-9.42496
وية	-9.42534
▁الامراض	-9.42538
▁اشار	-9.42571
▁كبار	-9.42593
▁رجب	-9.42632
▁العمليات	-9.4266
▁سواء	-9.42667
▁استئناف	-9.42712
▁معهد	-9.42778
▁حوار	-9.4283
هر	-9.42874
دت	-9.43
▁المستشفي	-9.43025
عيد	-9.43055
▁استطلاع	-9.43059
اذا	-9.43079
▁المساعدات	-9.43198
حق	-9.43254
▁قتلوا	-9.43258
▁رحلة	-9.43353
▁الارهابية	-9.4337
▁المر	-9.43391
▁المركزي	-9.435
▁المتهم	-9.43642
▁الاقتصادي	-9.43648
▁تواجه	-9.43794
▁تضم	-9.43818
▁الدرجة	-9.43827
▁سا	-9.43828
▁التوتر	-9.43867
▁السنة	-9.43928
▁خطط	-9.43993
▁فما	-9.44132
▁اصل	-9.44165
▁المدن	-9.44199
علي	-9.44212
لحصول	-9.44256
▁الدستور	-9.44288
20	-9.44581
▁تعرف	-9.44685
▁علم	-9.44749
▁لعام	-9.4479
جن	-9.44855
▁مرحلة	-9.44871
▁البرتغالي	-9.44911
▁تبلغ	-9.44935
ارت	-9.45004
بطولة	-9.45029
▁النوم	-9.45042
▁الكشف	-9.45045
▁تل	-9.45122
▁مهاجم	-9.45261
▁الالاف	-9.45288
▁مبني	-9.45292
▁السيارة	-9.45408
▁يواجه	-9.45415
فن	-9.45456
زل	-9.45456
▁نتنياهو	-9.45458
قد	-9.45518
▁المخ	-9.45591
▁الادعاء	-9.45592
▁العرب	-9.45711
▁لصحيفة	-9.45716
▁البرازيل	-9.45732
▁علاقة	-9.45754
▁الليبي	-9.45764
▁مزيد	-9.45801
▁البرنامج	-9.45832
▁قاعدة	-9.45878
ئة	-9.45878
▁انقاذ	-9.45916
▁الديمقراطية	-9.45975
▁المعارض	-9.46045
▁صحافي	-9.46045
▁رئيسة	-9.46086
▁بصورة	-9.46223
▁200	-9.46253
▁اصدرت	-9.46312
▁قادة	-9.46323
50	-9.46382
▁مرور	-9.46428
▁عقوبات	-9.46527
▁امارة	-9.46535
▁الطفل	-9.46535
▁الثلاثة	-9.46648
▁تبدا	-9.46657
▁يحمل	-9.46706
▁الاجانب	-9.46734
▁ه	-9.46781
▁اختيار	-9.46794
▁مقابلة	-9.46873
▁الاخوان	-9.46906
▁استهدف	-9.46924
▁يؤكد	-9.46964
▁واصيب	-9.47005
▁مسؤولون	-9.47249
▁الفضاء	-9.47269
فارق	-9.47277
▁اسفر	-9.47302
▁اعتبر	-9.47336
▁عددا	-9.47337
▁اسبانيا	-9.47342
▁غياب	-9.47381
▁الطلبة	-9.474
▁اعتقال	-9.47466
غا	-9.47531
▁الاخر	-9.47574
نق	-9.47608
▁تصريح	-9.47729
▁مالي	-9.47757
▁للاتحاد	-9.4781
بين	-9.47998
▁اف	-9.48002
▁المجال	-9.48039
حر	-9.48051
الشؤون	-9.48068
▁رئاسة	-9.48087
▁وبي	-9.48142
▁خلالها	-9.4819
▁متن	-9.48232
▁دولية	-9.48265
▁الحكومي	-9.48271
▁مل	-9.48286
قل	-9.4829
▁معه	-9.48407
شت	-9.48455
مل	-9.48483
▁كو	-9.4849
▁يزيد	-9.48549
جز	-9.48605
▁يريد	-9.4862
▁سياسة	-9.48706
▁فوزه	-9.48708
▁تعلن	-9.48773
▁الطعام	-9.48813
▁29	-9.48928
▁الاستخبارات	-9.49011
تويتر	-9.4906
▁سلمان	-9.49154
ميل	-9.49172
▁بلقب	-9.49204
▁حكومية	-9.49385
▁مرات	-9.49408
▁ري	-9.49414
▁النووية	-9.49643
▁الحر	-9.49676
▁دخل	-9.49681
بات	-9.49719
▁تقول	-9.49726
القرب	-9.49804
بان	-9.49814
▁يجري	-9.49854
▁الراي	-9.49962
▁الصراع	-9.49981
▁الاطباء	-9.49986
وش	-9.49996
▁تجاه	-9.50027
▁عنها	-9.50064
▁الارجنتيني	-9.50077
▁سائق	-9.50088
▁الجمعية	-9.50145
▁نطاق	-9.50154
▁الل	-9.50183
▁مواد	-9.50257
▁المالي	-9.50435
ستر	-9.50442
▁السنوات	-9.50465
غن	-9.50504
▁تسجل	-9.50512
وان	-9.50549
▁كون	-9.50554
ترا	-9.50658
▁البشرية	-9.50733
▁جوية	-9.50772
اصابة	-9.50791
مع	-9.50801
شرطة	-9.50827
▁البر	-9.51017
▁الاردنية	-9.51095
▁مدار	-9.51096
▁يشكل	-9.51101
▁الارهابي	-9.51195
▁منع	-9.51219
▁اعرب	-9.51242
وزارة	-9.51273
▁الطوارئ	-9.51379
▁سبيل	-9.51414
▁كال	-9.51587
▁الجوي	-9.5165
▁وصلت	-9.51651
▁برئاسة	-9.51695
ائل	-9.51717
▁صنعاء	-9.51752
▁وانه	-9.51801
سو	-9.51836
▁بالفعل	-9.51839
▁تحدث	-9.51875
▁بو	-9.51877
▁بشدة	-9.51916
▁الحوار	-9.51948
وض	-9.51978
▁انتقادات	-9.51985
داد	-9.51993
▁اداء	-9.52004
▁الجهاز	-9.52017
▁الامارة	-9.52118
▁اليها	-9.52124
▁الجزائر	-9.52151
▁اصيب	-9.52229
▁يوميا	-9.52273
▁31	-9.52296
▁المتظاهرين	-9.52353
▁مواطن	-9.52418
▁القمة	-9.52452
ائي	-9.5251
قي	-9.52548
▁الاسبانية	-9.52565
كان	-9.52603
▁طبية	-9.5268
▁شتاينماير	-9.52709
خفض	-9.52729
▁احتمال	-9.52831
▁شن	-9.52837
▁الحرارة	-9.52864
▁الالعاب	-9.52909
▁الصادرة	-9.52933
▁عباس	-9.53017
▁الغاء	-9.53034
▁يعتقد	-9.5306
▁تقريبا	-9.53067
▁مشترك	-9.53142
▁يوجد	-9.5322
▁يساعد	-9.53246
▁والعشرين	-9.53336
شق	-9.53342
▁الرئيسي	-9.53343
الت	-9.5335
▁توقف	-9.53358
▁جمع	-9.53387
▁مؤكدة	-9.53426
▁التزام	-9.53576
عل	-9.53586
ميز	-9.53626
ائع	-9.53629
▁والتعليم	-9.53661
ادي	-9.53671
▁الحالات	-9.53687
▁الخامسة	-9.5369
▁حساب	-9.53702
▁نوع	-9.53882
▁بالمئة	-9.54071
▁المسؤولين	-9.54097
▁حذرت	-9.54164
مين	-9.54184
▁السادس	-9.54201
▁2015	-9.54253
▁وافاد	-9.54261
▁ماس	-9.5427
▁منصب	-9.54277
▁صوت	-9.54305
▁السياسة	-9.54355
▁سيارات	-9.54382
يان	-9.54407
▁اخرون	-9.54411
▁حديثة	-9.54428
▁ورئيس	-9.54449
ائها	-9.54492
▁باب	-9.54497
▁استهدفت	-9.54506
▁تش	-9.54513
▁القتلي	-9.54624
▁تر	-9.5468
▁تشكل	-9.54695
فصل	-9.54767
اته	-9.54774
▁تظهر	-9.54801
▁الليبية	-9.54806
▁واوضحت	-9.54831
▁مي	-9.54852
▁ماكرون	-9.54967
▁درجات	-9.54983
▁مساعدات	-9.55094
▁حدوث	-9.55157
▁جرائم	-9.55221
▁محمود	-9.55226
▁اصدر	-9.55311
▁باي	-9.55333
▁واعلن	-9.5537
▁الاصطناعي	-9.55423
▁للاجئين	-9.55424
تز	-9.55493
▁شبه	-9.55535
▁الكبيرة	-9.55575
▁المهاجم	-9.55583
▁باراك	-9.55626
▁اللقاء	-9.5563
▁الصغيرة	-9.55658
▁الالتزام	-9.55683
وج	-9.55745
▁مدن	-9.55779
اقة	-9.55838
-19»	-9.55938
▁السفير	-9.55954
▁مرشح	-9.55971
اقامة	-9.5598
▁قتيلا	-9.56054
▁جرت	-9.56065
▁احدث	-9.56078
▁جزء	-9.56082
▁حلب	-9.56128
▁مديرية	-9.56157
▁كم	-9.5616
▁العدد	-9.56242
شا	-9.56253
▁فحص	-9.56291
▁دير	-9.56296
▁الاطراف	-9.56352
▁مبارك	-9.5638
▁وفد	-9.56484
p	-9.56487
▁تمديد	-9.56491
▁ويقول	-9.56511
▁ستكون	-9.56516
▁شارك	-9.56516
▁الاكبر	-9.56542
▁الشخصية	-9.56641
▁النقل	-9.56647
▁وست	-9.56682
▁الواقع	-9.56699
▁استاد	-9.56725
وفي	-9.56758
نو	-9.56804
دور	-9.56812
▁امريكية	-9.56938
▁دار	-9.56939
▁بحلول	-9.56954
▁تسعي	-9.5702
بري	-9.57023
▁النهائية	-9.57059
▁الوحدة	-9.57083
▁بروكسل	-9.57088
▁شهد	-9.57099
▁تعتزم	-9.57138
طب	-9.5716
▁مادة	-9.5726
▁العثور	-9.57314
▁الاحتجاجات	-9.57319
الا	-9.57338
▁طلبات	-9.57344
عي	-9.57344
▁الفيديو	-9.57349
سام	-9.57477
▁الاساسية	-9.57485
▁البرلمانية	-9.57538
▁تساعد	-9.57553
▁الغاز	-9.57563
لعب	-9.57575
▁2013	-9.57576
▁النصر	-9.57601
زو	-9.57663
▁الجهود	-9.57666
▁المشاركين	-9.57687
▁الط	-9.57707
▁يمثل	-9.57737
▁متهم	-9.57791
▁اثنين	-9.57805
▁فرانكفورت	-9.57823
▁امني	-9.57932
▁الاعضاء	-9.57948
▁مخاطر	-9.58037
▁تشير	-9.58062
▁اعلامية	-9.58095
▁المشتبه	-9.58159
▁اوروبية	-9.58163
▁الاطلسي	-9.58213
▁سوري	-9.58249
▁صحية	-9.58352
تقدم	-9.58388
o	-9.58394
شو	-9.58466
▁رفضت	-9.58575
▁السن	-9.58582
دعم	-9.58602
▁فجر	-9.5861
▁اكتشاف	-9.58628
▁ضغط	-9.5863
▁صغيرة	-9.58657
▁بدلا	-9.58667
▁برامج	-9.58672
▁القرن	-9.58702
▁الجريمة	-9.58716
▁البيئة	-9.5873
▁جمعية	-9.5876
ائه	-9.58924
ريب	-9.58953
▁فر	-9.59092
▁بور	-9.59093
مجموعة	-9.59166
▁يشارك	-9.59171
قم	-9.59284
طائر	-9.5936
صف	-9.59385
▁التجاري	-9.59392
فير	-9.59409
▁الجهات	-9.59491
▁مسابقة	-9.59515
▁محل	-9.59616
▁بيت	-9.59638
▁خطيرة	-9.59663
▁الاجهزة	-9.5974
▁طرح	-9.59807
▁جنود	-9.60052
وك	-9.60063
▁ضبط	-9.601
عين	-9.60166
ابريل	-9.60248
اتهم	-9.60264
▁وحدة	-9.6031
▁الصادر	-9.6031
▁تتعلق	-9.60384
▁بدبي	-9.60395
▁الضحايا	-9.6044
▁مس	-9.60631
▁ثانية	-9.6066
▁تعرضت	-9.60662
▁توقع	-9.60718
▁قسم	-9.60731
▁تهدف	-9.60755
▁الضوء	-9.60768
▁توجه	-9.60791
▁سلطان	-9.60889
▁مسيرة	-9.60915
راب	-9.60942
يونيو	-9.60952
▁التربية	-9.60977
▁خطاب	-9.60985
▁السماح	-9.61016
▁اللقاح	-9.61086
▁واكدت	-9.61149
▁الاتصالات	-9.61158
▁يونايتد	-9.61179
حركة	-9.6118
▁غرفة	-9.61182
▁الصينية	-9.61211
▁بهذه	-9.61217
▁محلية	-9.61276
▁تشمل	-9.61278
دان	-9.61355
▁عاصمة	-9.61406
▁ادلب	-9.61473
▁الهاتف	-9.61505
▁علماء	-9.61531
▁الصيف	-9.61541
دية	-9.6156
▁الجو	-9.61643
نحن	-9.61727
▁قضايا	-9.61736
!	-9.61764
محافظة	-9.61829
وري	-9.61858
▁حماس	-9.61882
▁للمشاركة	-9.61907
▁انواع	-9.61926
بير	-9.62049
▁حدث	-9.6205
▁نجاح	-9.62096
▁الاسلام	-9.62144
ينغ	-9.62189
رك	-9.62214
▁لاول	-9.62217
▁قدمت	-9.62221
▁70	-9.62229
▁الكويت	-9.62246
▁المعروف	-9.62311
▁بلا	-9.62422
▁المتعلقة	-9.62499
▁تستخدم	-9.62569
وح	-9.62623
▁عالميا	-9.62642
d	-9.62657
▁ممارسة	-9.62728
▁تفشي	-9.62772
▁2016)	-9.62937
▁واشارت	-9.62942
▁صندوق	-9.62968
▁الخارج	-9.63025
▁السياق	-9.63053
▁المؤسسة	-9.63088
▁للقوات	-9.63142
▁السلاح	-9.63171
▁التونسية	-9.6318
▁النسخة	-9.6318
▁كلمة	-9.63282
خل	-9.6331
▁لشركة	-9.63346
▁قبيل	-9.6335
▁مياه	-9.6336
امر	-9.63372
▁2019	-9.63376
▁انباء	-9.63379
▁كذلك	-9.63445
▁35	-9.63528
▁اصدار	-9.63538
▁كا	-9.63541
▁لحزب	-9.63648
▁وعدم	-9.63682
▁الحديث	-9.6369
▁بحضور	-9.63837
▁التحقيقات	-9.63852
▁الخطوة	-9.63938
▁تصدر	-9.63961
▁العاملين	-9.64146
فو	-9.64234
▁منصور	-9.64326
▁الاماراتية	-9.6436
▁عامين	-9.64363
▁تجاوز	-9.64431
▁الايطالية	-9.64439
▁توصل	-9.64439
▁فضلا	-9.64464
▁يجعل	-9.64467
▁الشرعية	-9.64544
يوم	-9.64546
▁الطبيب	-9.64827
قول	-9.64877
▁مشكلة	-9.64877
▁القائمة	-9.64896
...	-9.6494
▁هامبورغ	-9.65013
▁دو	-9.65019
روس	-9.65032
▁فيسبوك	-9.6504
▁ختام	-9.65064
▁مساعدة	-9.65121
▁طرابلس	-9.65142
10	-9.65165
▁سباق	-9.65225
▁الامور	-9.65243
▁بدعم	-9.65247
▁بول	-9.65302
▁اللبنانية	-9.65304
▁القادمة	-9.65418
لاند	-9.6542
▁مخاوف	-9.65441
لان	-9.65544
▁العدل	-9.656
▁يقل	-9.656
رعاية	-9.65662
باب	-9.65702
▁تحرير	-9.65734
ليس	-9.65767
▁الفنية	-9.65818
▁عليهم	-9.65824
▁قطع	-9.65938
▁الملكي	-9.65992
▁فشل	-9.6601
▁انصار	-9.66012
▁تمكنت	-9.66037
▁الصحفي	-9.66158
▁حريق	-9.66163
لس	-9.66229
▁النوع	-9.66232
▁نظرا	-9.66241
▁بعدم	-9.66316
▁توقيع	-9.66362
▁كولونيا	-9.66362
▁ردا	-9.66433
▁اساس	-9.66461
▁المس	-9.66482
▁اتهامات	-9.66487
▁بقوة	-9.66506
▁يتوقع	-9.66661
قط	-9.66705
است	-9.66724
▁الانفجار	-9.66757
▁عاد	-9.66786
▁ارسال	-9.66831
▁مبلغ	-9.66868
▁جمال	-9.66874
▁يوسف	-9.66981
▁حمدان	-9.67013
▁لديها	-9.67049
▁انتقال	-9.67069
▁اسطنبول	-9.67206
▁اللقب	-9.67289
▁الضفة	-9.67294
▁يسمح	-9.67327
▁باتجاه	-9.67388
▁شؤون	-9.67391
▁نجح	-9.67435
▁قريبا	-9.67475
▁توماس	-9.67503
▁بيروت	-9.67506
▁منصة	-9.67589
▁اليونان	-9.67644
حماية	-9.67656
▁لانه	-9.67761
▁نيمار	-9.67812
▁ملف	-9.6782
▁الانتخابية	-9.67924
▁بريمن	-9.68033
▁انشاء	-9.68084
▁المساعدة	-9.68086
▁ازاء	-9.6812
▁صفقة	-9.68136
▁بكل	-9.68221
▁المختلفة	-9.68224
▁الثقافة	-9.68243
▁ذاته	-9.68296
▁داعش	-9.68299
▁دا	-9.68332
▁300	-9.6834
▁الرئيسية	-9.68352
رن	-9.68358
▁500	-9.68515
▁بسرعة	-9.68541
▁المعنية	-9.68565
▁باحثون	-9.68641
فور	-9.68658
▁المتطرف	-9.68665
▁تقل	-9.68769
▁ترك	-9.68777
▁يسعي	-9.68789
▁الحد	-9.68795
راك	-9.68808
e	-9.68814
وياتي	-9.68822
▁حامل	-9.68921
كن	-9.6896
رات	-9.68974
راس	-9.68999
▁ارض	-9.69034
▁لاطلاق	-9.69128
▁تقنية	-9.69129
سك	-9.69149
▁مضيفه	-9.69166
▁خروج	-9.69226
▁الممكن	-9.69227
▁سحب	-9.69304
بال	-9.69313
▁للعمل	-9.69333
▁الشوط	-9.69382
▁السبب	-9.69391
ساهم	-9.69398
▁اضافية	-9.69403
▁لعب	-9.69444
يته	-9.69465
▁السفارة	-9.69564
رف	-9.69572
عود	-9.69573
▁النائب	-9.69598
هذا	-9.6982
▁الضغط	-9.69883
▁تؤكد	-9.69897
مسافة	-9.69941
قيم	-9.70091
▁سعر	-9.7035
▁الجانب	-9.70359
اور	-9.70371
▁دينار	-9.70375
▁الاحتلال	-9.7048
▁المشترك	-9.70493
▁يحصل	-9.70544
▁فرانك	-9.70546
▁نشاط	-9.70556
▁بوروسيا	-9.7066
تعين	-9.70687
▁اللازمة	-9.70815
▁شي	-9.70835
▁عالية	-9.70842
▁توزيع	-9.70861
▁الاشارة	-9.70869
30	-9.7089
طلق	-9.70892
▁الغربي	-9.70958
▁الحملة	-9.70966
▁المرضي	-9.70972
قضاء	-9.71
▁تواصل	-9.71017
▁منصبه	-9.71074
▁خفض	-9.71074
▁تسعة	-9.71168
▁الو	-9.71188
▁السادسة	-9.71205
▁سنويا	-9.71273
▁تكشف	-9.71312
▁الاتصال	-9.71348
▁التنمية	-9.71403
▁البنك	-9.71428
▁الاست	-9.71451
مير	-9.71484
لات	-9.71488
▁اع	-9.71538
▁لاجراء	-9.71679
▁امريكي	-9.71699
▁ونقل	-9.7171
▁ياس	-9.71711
▁اشارت	-9.71733
▁الخضر	-9.71857
▁الاردني	-9.71888
▁سبع	-9.71933
▁جهته	-9.71938
نر	-9.71943
▁بث	-9.71954
▁ث	-9.71979
قا	-9.72035
▁لديهم	-9.72055
هدف	-9.72133
▁يطلق	-9.72143
▁الطائرات	-9.72157
▁مشاكل	-9.72187
▁تمثل	-9.72206
▁الرقمية	-9.72275
▁جيرمان	-9.72278
▁تدعم	-9.72389
▁المهمة	-9.72434
▁الجزائري	-9.72521
صفر	-9.72603
▁توفر	-9.72604
صحة	-9.72668
▁وبالتالي	-9.72697
وث	-9.72799
▁الكردية	-9.72898
▁ميليشيات	-9.72916
اكثر	-9.7297
▁رصد	-9.72974
شعر	-9.73013
يتها	-9.73081
▁اسبوعين	-9.73095
▁اليابان	-9.73208
▁طيار	-9.73263
▁سابقة	-9.73368
▁لشؤون	-9.73384
▁اليميني	-9.73392
▁تنطلق	-9.73446
▁تاكيد	-9.73548
▁الحل	-9.73572
▁ويمكن	-9.73575
u	-9.73576
▁تح	-9.73595
منظمة	-9.7363
▁شالكه	-9.73683
رام	-9.73684
▁سياق	-9.73724
علم	-9.73734
▁سراح	-9.73744
وفر	-9.73746
ارات	-9.73786
▁بنيامين	-9.73796
▁تطور	-9.73826
▁الاعلامي	-9.73875
صول	-9.73897
▁يظهر	-9.74036
▁الهمم	-9.74061
▁مقاتلي	-9.74095
جين	-9.74115
▁موضحا	-9.74125
مايو	-9.74156
دفع	-9.74179
-19)	-9.7419
ثق	-9.74217
▁انخفاض	-9.74275
▁يبدا	-9.74313
ريك	-9.74398
▁فون	-9.74411
▁رسمي	-9.74443
▁لوف	-9.74465
▁قوي	-9.74498
▁معينة	-9.74502
▁ربع	-9.7451
ضم	-9.74551
▁بعيد	-9.74624
▁تجربة	-9.74679
▁الاسواق	-9.74753
▁مست	-9.7482
▁اقر	-9.74827
▁واعلنت	-9.74971
▁كثيرة	-9.74987
▁يعانون	-9.75012
▁نقص	-9.75056
▁للحد	-9.75116
▁والح	-9.75175
▁اشتباكات	-9.75198
▁سلام	-9.75219
▁لمنع	-9.75232
▁حديث	-9.75242
19	-9.75262
▁مارك	-9.75287
ضع	-9.75294
قطع	-9.75305
اذ	-9.75395
زن	-9.75428
▁امل	-9.75453
▁يعلن	-9.75461
▁ابراهيم	-9.75531
تواصل	-9.75542
يش	-9.75546
▁سو	-9.75562
▁الاعتداء	-9.75715
▁السرطان	-9.75802
رحل	-9.75834
بيلد	-9.75902
▁البحرين	-9.75911
كار	-9.75912
بس	-9.75916
▁الرياضة	-9.75945
مس	-9.75952
▁سر	-9.76001
▁حارس	-9.76003
▁الثلاث	-9.76033
سبتمبر	-9.76059
▁الموضوع	-9.76072
▁اميركي	-9.7619
▁بموجب	-9.76213
▁ينبغي	-9.76228
▁حضور	-9.7626
به	-9.76287
▁سؤال	-9.76299
▁انهاء	-9.76327
▁لاي	-9.76335
▁باكستان	-9.76362
▁تعود	-9.76389
▁نظمت	-9.76427
▁تبادل	-9.76449
▁تسليم	-9.76473
قارب	-9.76487
▁بار	-9.76512
▁لاسيم	-9.76547
▁جولة	-9.76554
▁مسار	-9.76594
▁الوحيد	-9.76597
▁صدر	-9.76614
غي	-9.76618
انا	-9.76625
▁موضوع	-9.76636
بيت	-9.7667
سير	-9.76719
ضرورة	-9.76742
▁عامل	-9.76743
▁طراز	-9.76837
▁زيارته	-9.77045
▁الوزن	-9.77052
▁طرق	-9.77142
سد	-9.77148
▁روبرت	-9.77202
▁خاشقجي	-9.77269
▁مدرسة	-9.77287
▁هدفا	-9.77356
بك	-9.77388
▁عزل	-9.77459
▁بحر	-9.7747
▁المتخصصة	-9.77498
▁الطلب	-9.77557
▁الاخضر	-9.77657
▁الجمهور	-9.77701
▁اعتماد	-9.77716
▁الاسرة	-9.77723
▁الشخص	-9.77738
ثر	-9.77808
▁يلتقي	-9.77834
▁تشغيل	-9.77842
جار	-9.77855
▁المرة	-9.77891
▁المنزل	-9.77963
▁ارهابي	-9.77963
▁يومين	-9.78069
▁وجهت	-9.78132
▁الصيني	-9.78157
▁التسجيل	-9.78186
▁حلف	-9.78223
▁بينهما	-9.78265
يتي	-9.78298
لقد	-9.78329
▁اليمين	-9.78383
طلب	-9.78388
▁سبق	-9.78448
▁اليومية	-9.78462
ولا	-9.78484
نظم	-9.78484
▁الجنايات	-9.78532
▁اصبحت	-9.78555
▁قرارا	-9.78562
ائر	-9.78608
▁السابع	-9.78618
▁الجامعة	-9.78669
▁بالقول	-9.78682
قلق	-9.7872
▁لتعزيز	-9.78729
▁والد	-9.78779
▁الاندية	-9.78833
▁مخالفة	-9.78851
بعد	-9.78856
▁خالد	-9.7888
▁وك	-9.78935
▁ميل	-9.78958
▁الاستثمار	-9.79017
▁طالبت	-9.79033
▁الناطق	-9.79111
▁تغير	-9.79224
▁الدراسي	-9.79384
ارد	-9.79428
▁البابا	-9.79432
▁التكنولوجيا	-9.79459
▁توجيه	-9.79482
▁دفاع	-9.79516
بور	-9.79581
صور	-9.79588
▁انتحاري	-9.79598
▁2010	-9.79607
▁جيدة	-9.79614
▁لتحقيق	-9.79655
▁واسع	-9.79656
dw	-9.79662
15	-9.79671
▁مذكرة	-9.79695
الك	-9.79701
▁طالبان	-9.79728
▁الحفاظ	-9.79734
▁موظف	-9.79758
▁شراء	-9.79774
▁سيطرة	-9.79801
▁جا	-9.7982
▁قتلي	-9.79889
▁بس	-9.79945
▁القضايا	-9.79952
▁عقود	-9.80008
مول	-9.80025
▁اتهام	-9.80154
▁البديل	-9.80235
▁والولايات	-9.80248
▁القانونية	-9.80276
▁هم	-9.804
جزء	-9.80612
▁للطيران	-9.80636
▁الوصل	-9.80643
▁عدن	-9.80649
يري	-9.80664
▁المال	-9.80678
▁ظروف	-9.80705
▁وقتل	-9.80741
▁مونديال	-9.80754
▁السياحة	-9.80765
▁يبحث	-9.80931
▁تحالف	-9.80951
جان	-9.81094
▁حلول	-9.81135
▁يحدث	-9.81144
ران	-9.81176
قتل	-9.81192
▁شعار	-9.81201
▁مباشر	-9.81223
▁الشعبية	-9.81226
▁تزيد	-9.81269
▁تاجيل	-9.81346
▁المؤسسات	-9.81362
▁قلب	-9.81383
▁كبري	-9.81413
▁لضمان	-9.81574
▁الاحترازية	-9.81582
▁التدريب	-9.81736
▁زوجته	-9.81746
▁امراض	-9.81749
▁القائد	-9.81765
▁عالمية	-9.81807
▁يعيش	-9.81816
▁الخدمة	-9.81862
▁انسانية	-9.8189
▁اوروبي	-9.81892
▁للطاقة	-9.81927
ذر	-9.81945
▁تو	-9.81978
▁وجد	-9.81983
▁مصير	-9.82023
▁المخدرات	-9.82059
▁جريمة	-9.82072
▁تي	-9.82134
▁بات	-9.82172
▁80	-9.82174
▁فلاديمير	-9.82179
▁تحول	-9.82182
▁دولي	-9.82242
▁ميونخ	-9.823
▁تغريدة	-9.82324
▁ضربة	-9.82426
▁حسين	-9.82472
▁للجيش	-9.82481
بدا	-9.82517
▁سابقا	-9.82536
b	-9.8257
▁لفيروس	-9.82634
▁تحتوي	-9.82773
▁احتجاجات	-9.8281
اكتوبر	-9.82898
▁سلطات	-9.82905
▁سوف	-9.83015
▁نتانياهو	-9.83021
▁سلامة	-9.83035
▁واضحة	-9.83053
▁انجاز	-9.83149
▁الوسط	-9.83231
▁الاصوات	-9.83237
▁وبال	-9.83238
▁للحزب	-9.8327
▁اتصال	-9.83318
جري	-9.83338
▁وغير	-9.83482
▁قلق	-9.8349
▁دائما	-9.83501
▁مسؤولين	-9.83616
▁الاموال	-9.83628
▁العزيز	-9.8363
▁لدوري	-9.83639
▁يو	-9.83664
▁معسكر	-9.83746
▁مراقبة	-9.83782
▁المسجد	-9.8383
▁نقلا	-9.83898
▁الامني	-9.83927
▁وعدد	-9.83941
طر	-9.84042
يكي	-9.84065
▁اجري	-9.84175
بول	-9.84252
▁القوة	-9.84276
طبق	-9.84281
▁شديدة	-9.84297
▁تزايد	-9.84299
▁الدخول	-9.84313
▁الهولندي	-9.8433
▁لوقف	-9.84334
▁التقدم	-9.84357
▁يدعو	-9.84407
قرار	-9.84423
▁المان	-9.84426
▁اماكن	-9.84505
▁مؤسسات	-9.84528
▁الصور	-9.84559
شن	-9.8457
▁اعقاب	-9.84594
▁(...)	-9.84606
▁الطبي	-9.8462
▁الليل	-9.84699
▁المنافسة	-9.84738
▁فصل	-9.8474
ريا	-9.84787
▁ففي	-9.84901
▁زيهوفر	-9.84974
▁الجمهورية	-9.84986
▁عقده	-9.8505
▁تمويل	-9.85154
طو	-9.85166
▁المغربي	-9.85214
وغ	-9.8522
▁قصف	-9.85306
هو	-9.85326
▁والعراق	-9.85348
▁المرور	-9.85379
ائم	-9.85404
▁مواصلة	-9.85412
مساعدة	-9.85433
c	-9.85489
▁التقنية	-9.85502
▁بنك	-9.85619
▁الد	-9.85665
وص	-9.85704
▁تعاون	-9.8573
▁الشان	-9.85733
▁دقائق	-9.8584
▁حمد	-9.85844
▁قرارات	-9.85852
▁صحفية	-9.85855
24	-9.85901
ستان	-9.8594
▁الولاية	-9.86042
▁نظر	-9.86091
▁جعل	-9.86117
▁احيانا	-9.86157
لحماية	-9.86257
سون	-9.86275
▁400	-9.86337
▁تستهدف	-9.86344
كوم	-9.86412
▁تري	-9.8642
▁الصناعية	-9.86443
▁احياء	-9.86477
اسم	-9.86481
▁شخصية	-9.8651
▁طيران	-9.8652
▁العلمية	-9.86523
▁قصر	-9.86564
ياد	-9.8657
فين	-9.86575
▁عديدة	-9.86578
▁تمت	-9.86586
بون	-9.86591
▁معدل	-9.86627
▁اتهم	-9.86668
▁اميركية	-9.86705
▁نسخة	-9.86712
▁العهد	-9.86723
▁اوضح	-9.86725
▁الباحثين	-9.86812
لق	-9.86825
▁ودعا	-9.86827
▁مسؤولية	-9.8684
▁يحتاج	-9.86848
▁اصابته	-9.86877
▁مسالة	-9.8689
▁تقييم	-9.86915
زين	-9.86951
▁كتاب	-9.86958
▁المستشار	-9.86976
حاجة	-9.87016
▁الاستفتاء	-9.87127
ديسمبر	-9.87135
▁المصادر	-9.87189
▁الطرفين	-9.87241
▁تعادل	-9.87266
▁بهدفين	-9.8729
▁الساعات	-9.87343
▁لاحق	-9.87449
▁مستويات	-9.87469
▁الاعلامية	-9.87472
▁تؤدي	-9.87558
▁استراتيجية	-9.87563
▁ناحية	-9.87597
▁العفو	-9.87624
▁منظمات	-9.8765
اير	-9.87705
▁الاشهر	-9.87781
▁مهاجر	-9.87791
▁تحويل	-9.88014
▁تحسين	-9.88109
▁انطلقت	-9.88123
▁للعام	-9.88179
وصل	-9.88184
▁وروسيا	-9.88197
▁اظهر	-9.88208
12	-9.88216
ائق	-9.883
▁ترحيل	-9.88337
▁الرعاية	-9.88401
▁150	-9.88501
▁وفرنسا	-9.88543
▁ليلة	-9.88544
▁الحماية	-9.88549
▁النهضة	-9.88583
خلف	-9.88617
▁ممن	-9.88619
▁الجميع	-9.88624
▁45	-9.88634
راي	-9.88672
▁استراليا	-9.88744
16	-9.88788
▁الجدل	-9.88796
حسن	-9.88808
▁اموال	-9.88841
▁القديمة	-9.88875
▁كتب	-9.88905
يتش	-9.88959
▁حاول	-9.88974
▁المئة	-9.88989
▁لفترة	-9.88993
g	-9.89005
نظر	-9.89127
▁كتير	-9.89158
▁المكان	-9.89165
الف	-9.89203
▁المحتلة	-9.89254
لك	-9.89302
▁قضي	-9.8932
وها	-9.89326
▁دام	-9.89403
▁المحافظة	-9.89421
▁بيل	-9.89541
▁النصف	-9.89601
▁مسجد	-9.89607
▁وايران	-9.8961
سرع	-9.89678
▁2020)	-9.89705
▁تعيين	-9.89723
▁ذوي	-9.89758
▁الساحل	-9.89834
▁القتال	-9.89844
▁حرية	-9.89857
▁سجن	-9.89913
▁لديه	-9.90081
▁الفرق	-9.90094
▁غربي	-9.90125
عدم	-9.90133
▁كثير	-9.90144
▁عين	-9.90148
يناير	-9.90162
طل	-9.90255
▁الاستطلاع	-9.90272
خير	-9.90312
▁–	-9.90325
▁اليسار	-9.90416
▁شريك	-9.90533
▁ليل	-9.90533
▁مواجهات	-9.90564
▁الاهداف	-9.90575
▁تابع	-9.90583
سرقة	-9.90639
▁تولي	-9.90645
▁90	-9.90659
▁الخلايا	-9.9069
▁المناخ	-9.90707
محاولة	-9.90716
▁وانما	-9.90792
▁2017	-9.90798
▁للجدل	-9.9081
▁بجائزة	-9.9089
تجار	-9.91039
▁لمجلس	-9.91039
▁نظم	-9.91044
▁يعتزم	-9.91071
▁جندي	-9.91071
ترك	-9.91092
▁لحل	-9.91171
▁طرد	-9.91252
يدي	-9.91253
▁علاقات	-9.91255
▁وحدات	-9.9128
▁والس	-9.91316
لح	-9.91435
▁فندق	-9.91462
▁الهواء	-9.91469
▁تطالب	-9.91478
▁صواريخ	-9.91483
▁الرحلات	-9.91511
مون	-9.91516
▁البشر	-9.91547
▁تست	-9.91578
▁المركبات	-9.91597
▁غضب	-9.91647
▁واصاب	-9.91654
ابل	-9.91659
▁ارتفع	-9.91694
حكم	-9.91702
سيل	-9.91705
▁المخابرات	-9.91728
▁والان	-9.91733
▁لقي	-9.91743
▁تدعو	-9.91745
▁وافق	-9.91757
▁حكما	-9.91773
▁ثالث	-9.918
▁الاخرين	-9.91839
▁امرا	-9.9184
▁وغيرها	-9.91846
فتح	-9.91876
▁يستخدم	-9.91877
▁هاتف	-9.91888
▁الدبلوماسية	-9.91902
▁قاد	-9.91954
▁رصيده	-9.91954
▁لتقديم	-9.91963
فضل	-9.92017
▁احداث	-9.92055
▁الحيوانات	-9.92128
▁دعوة	-9.92137
عمل	-9.92154
▁خبير	-9.92155
▁اسرائيلية	-9.92218
يوليو	-9.92229
▁رحلات	-9.92243
▁توجد	-9.92332
لين	-9.92436
▁الذهب	-9.92465
▁الغرب	-9.92554
▁خلاف	-9.9257
درجة	-9.92579
نوفمبر	-9.9263
▁الثقة	-9.92676
يلي	-9.92706
ريس	-9.92761
▁الجنود	-9.92765
▁ليفركوزن	-9.92803
▁اقيمت	-9.92812
▁الموارد	-9.92834
شراء	-9.9289
اغسطس	-9.929
▁اثارت	-9.92933
▁مج	-9.92951
▁الموصل	-9.92953
صدارة	-9.93004
▁المعارك	-9.93126
فشل	-9.93132
▁الكمبيوتر	-9.93152
▁مدارس	-9.93227
▁سفر	-9.93242
▁قليلة	-9.93249
يرو	-9.93261
▁تقوده	-9.93265
مسؤول	-9.93341
▁%	-9.93341
▁مرضي	-9.93346
▁اسرة	-9.93359
▁الانتاج	-9.93367
▁التدخل	-9.93389
▁استعادة	-9.93403
▁حاجة	-9.93422
▁تجنب	-9.93452
▁الهواتف	-9.93457
▁تشارك	-9.9352
▁ميدان	-9.93531
سحب	-9.93579
عن	-9.93614
▁2009	-9.93619
▁الدستورية	-9.93622
ريد	-9.93627
▁الفساد	-9.93636
ائح	-9.93647
▁طبيب	-9.93659
▁توقيف	-9.93665
▁كيلومترا	-9.93749
▁انتقد	-9.9375
▁عثر	-9.9376
▁رسوم	-9.93766
11	-9.93771
سار	-9.93778
اقت	-9.9378
▁شديد	-9.93797
▁الدينية	-9.9385
ابو	-9.93853
▁الاسبق	-9.93861
▁مهم	-9.93879
▁ومنذ	-9.93968
▁والي	-9.93974
▁المواقع	-9.93985
▁هامش	-9.94064
صنع	-9.94104
▁الشعر	-9.94119
▁كردستان	-9.94131
▁يضم	-9.94146
▁الافراج	-9.9416
▁المركزية	-9.94174
▁تحقق	-9.9418
▁اللواء	-9.94272
▁ودول	-9.94302
▁الخلاف	-9.94448
حافظ	-9.94498
واجه	-9.94537
▁الظروف	-9.94555
اكس	-9.9457
▁عادة	-9.94619
▁جمهورية	-9.94654
قوي	-9.94657
▁فور	-9.94672
▁جبل	-9.94703
▁انتهت	-9.94739
انشاء	-9.94764
▁الاكراد	-9.94807
▁عما	-9.94841
▁الحق	-9.94879
▁اجواء	-9.94891
▁نجوم	-9.94915
▁تكن	-9.94933
▁ضم	-9.94989
▁للانتخابات	-9.9508
▁التجارة	-9.95086
▁الهلال	-9.95109
بحث	-9.95134
▁اميركا	-9.95174
▁كلا	-9.95218
▁تريد	-9.95226
▁يتعرض	-9.95229
▁المواطن	-9.95234
▁السوداني	-9.95242
عملية	-9.95265
▁الاحزاب	-9.9527
▁احرز	-9.95354
▁يشهد	-9.95359
r	-9.95362
▁بيخلي	-9.95379
▁الشمس	-9.9539
دس	-9.95404
▁اغلب	-9.95465
بني	-9.95488
▁وفيات	-9.95524
▁غالبا	-9.95555
f	-9.95596
▁ادت	-9.95624
▁الفيلم	-9.95631
امي	-9.95706
فاء	-9.9576
▁الجنائية	-9.95836
▁نو	-9.95875
▁وطالب	-9.95884
▁ائتلاف	-9.95894
▁وهم	-9.95977
▁فكرة	-9.9598
▁قواعد	-9.95985
▁يسيطر	-9.96021
▁التقي	-9.96023
▁يلعب	-9.96066
▁معدلات	-9.96075
▁الزعيم	-9.96102
▁الشهير	-9.96136
▁المل	-9.96191
▁ارتفعت	-9.96216
▁نفي	-9.96247
25	-9.96299
▁التنفيذ	-9.96301
▁مون	-9.96307
▁التاريخ	-9.96334
▁التاسع	-9.96389
▁المتحدثة	-9.96406
▁كار	-9.96455
بيل	-9.96469
▁مشتركة	-9.96489
▁جاءت	-9.96574
شارك	-9.9659
رش	-9.96605
ائهم	-9.96624
لاس	-9.96643
▁الكترونية	-9.96662
▁التعادل	-9.96713
▁بالت	-9.96733
رمي	-9.96767
▁للفريق	-9.96811
▁الفتاح	-9.96817
▁فانه	-9.9682
خط	-9.96825
▁المدي	-9.9685
▁الربع	-9.9685
▁المثال	-9.96874
▁الشعبي	-9.96875
▁كريستيانو	-9.96906
▁بيتر	-9.96925
داء	-9.96953
▁والمانيا	-9.96968
▁المدعي	-9.96985
لاعب	-9.97096
▁الاوضاع	-9.97104
▁اسواق	-9.97151
▁واضح	-9.97197
امل	-9.97216
▁بري	-9.97223
▁روسية	-9.97224
▁المسابقة	-9.97258
▁الاستراتيجية	-9.97284
▁نيوز	-9.97287
▁الاتهامات	-9.97298
▁2008	-9.97307
فبراير	-9.97311
▁شو	-9.97322
▁متصل	-9.97323
انية	-9.97333
▁الموت	-9.97386
▁ورفع	-9.97415
راء	-9.97444
▁المقررة	-9.9758
▁كيم	-9.97597
▁المنتظر	-9.97712
▁اصول	-9.97771
▁الماء	-9.97815
▁مدة	-9.97825
▁ووزير	-9.97928
▁برو	-9.97946
سوق	-9.97951
طور	-9.97987
▁الرقمي	-9.98012
▁(19	-9.98039
▁شارع	-9.98058
▁الكونغرس	-9.98089
▁العشرين	-9.98093
▁مراسل	-9.98105
▁تعاني	-9.98127
تبع	-9.98151
لاحظ	-9.98153
▁مرمي	-9.98202
وني	-9.98213
تبرع	-9.98256
▁المست	-9.98266
فار	-9.98302
▁اللعب	-9.98338
لاء	-9.98346
▁مستشار	-9.98387
▁انسحاب	-9.98392
▁مخ	-9.98407
زر	-9.98421
حزب	-9.98432
▁الاماكن	-9.98445
▁المبارك	-9.9845
▁صعيد	-9.98453
▁الشيوخ	-9.98547
▁استمرت	-9.98623
▁اسمه	-9.98639
▁الحالة	-9.98671
▁الفور	-9.98678
▁الموظفين	-9.98695
▁سفينة	-9.98695
▁ووصف	-9.98732
روي	-9.98824
كيفية	-9.98958
▁تسمح	-9.98958
▁تاتي	-9.9897
▁حسابه	-9.98991
فيس	-9.98998
▁الموقف	-9.99007
▁امريكا	-9.99058
▁للاطفال	-9.99062
▁يتع	-9.99073
جيل	-9.99078
▁حكومي	-9.99096
▁سار	-9.99114
▁استعدادا	-9.99131
▁محيط	-9.99172
▁تعديل	-9.99181
▁الثامنة	-9.99223
▁السابعة	-9.99226
▁عقوبة	-9.99278
▁صفر	-9.99279
▁جانبها	-9.99296
▁حصلت	-9.99311
▁اختبار	-9.99375
نجم	-9.99398
▁بتقديم	-9.99417
▁الاربع	-9.99419
▁دورة	-9.99426
▁ينظم	-9.99513
▁يشتبه	-9.99543
▁التعاقد	-9.99632
▁يوفنتوس	-9.99684
▁ض	-9.99789
امن	-9.99834
▁وادي	-9.99853
▁المغربية	-9.99857
مكان	-9.99928
▁بافاريا	-9.99969
▁اسفرت	-10
▁سفير	-10
تاج	-10.0003
ثبت	-10.0008
▁صادر	-10.0011
ء	-10.0012
40	-10.0016
وصي	-10.0016
نج	-10.0018
▁تفجير	-10.0025
ذهب	-10.0025
▁عائلة	-10.0032
▁المرشح	-10.0032
▁وكل	-10.0032
▁عنف	-10.0034
▁مركبة	-10.0035
▁الميلاد	-10.004
▁بنحو	-10.0048
غني	-10.0054
▁محطات	-10.0056
وقاية	-10.0063
▁سلاح	-10.0067
▁مصرية	-10.0068
▁التراث	-10.0068
▁جان	-10.0068
▁قيد	-10.0073
▁اللغة	-10.0074
▁بني	-10.0076
▁حمل	-10.0078
جب	-10.0081
ذكر	-10.0081
هام	-10.0083
▁احكام	-10.0084
▁جيد	-10.0085
▁يتمكن	-10.0091
▁اسوا	-10.0092
▁ايه	-10.0096
▁مؤشر	-10.0101
▁عددها	-10.0118
▁ثان	-10.012
▁عادل	-10.0122
▁بخصوص	-10.0122
▁المباريات	-10.0126
تاح	-10.0127
▁الملف	-10.0128
▁2022	-10.0128
▁القائم	-10.0129
متابعة	-10.013
فق	-10.0131
▁الطريقة	-10.0134
▁اطراف	-10.0139
▁32	-10.014
▁الاسر	-10.0146
جمع	-10.0147
▁الملكية	-10.0148
رفض	-10.0148
تعامل	-10.0153
▁الراحل	-10.0156
مقاتل	-10.0156
▁موافقة	-10.0158
▁السرعة	-10.016
طرق	-10.0161
يها	-10.0162
▁بالعاصمة	-10.0164
▁شروط	-10.0168
▁تستمر	-10.0172
تهديد	-10.0174
▁المريض	-10.0174
قود	-10.0175
▁لجوء	-10.0176
عندما	-10.0178
▁فلسطيني	-10.0186
▁مساعد	-10.0187
60	-10.0189
▁تجارية	-10.0189
▁الانقاذ	-10.0189
طيران	-10.0193
▁صعوبة	-10.0193
▁العشرات	-10.0194
▁طعن	-10.0196
▁طول	-10.0199
▁البداية	-10.02
▁الذكري	-10.0201
ضرب	-10.0203
▁ني	-10.0204
▁القت	-10.0206
▁يكشف	-10.0217
وجه	-10.0223
▁البا	-10.0234
▁مجتمع	-10.0238
▁يعتمد	-10.0242
▁اسرائيلي	-10.0242
▁مدني	-10.0248
▁العلاقة	-10.0249
ايد	-10.0249
▁قرية	-10.025
▁وتركيا	-10.0254
يار	-10.0257
▁جرعة	-10.0258
▁جونسون	-10.026
▁الافريقية	-10.0272
▁النقد	-10.0276
لر	-10.0276
▁النتيجة	-10.0277
▁الرقابة	-10.0283
▁التحتية	-10.0287
▁رئيسا	-10.0295
▁كول	-10.03
▁الحظر	-10.0306
▁الثقافية	-10.0312
▁لمساعدة	-10.0314
▁الطبيعية	-10.0316
▁النفسية	-10.0324
▁دورا	-10.0335
شتر	-10.0339
مور	-10.0341
▁الذكاء	-10.0342
عام	-10.0343
▁وخاصة	-10.0345
قدر	-10.0356
زيد	-10.0357
▁ونصف	-10.0361
▁الليلة	-10.0361
▁المسؤولية	-10.0362
▁محامي	-10.0369
▁ينصح	-10.0372
▁وتقول	-10.0374
▁مليارات	-10.0374
▁المجموعات	-10.0374
▁قبالة	-10.0376
▁رحيل	-10.0377
▁اسماء	-10.0379
سور	-10.0383
▁السنوي	-10.0385
▁عصر	-10.039
▁الوفيات	-10.0392
بلد	-10.0397
▁الادوية	-10.0398
▁اسر	-10.04
▁سعودي	-10.0401
▁بهم	-10.0405
بناء	-10.0405
▁خطورة	-10.0406
▁الشعبوي	-10.0409
▁وكتب	-10.0411
▁عراقي	-10.0412
▁والع	-10.0415
دخل	-10.0417
▁الميليشيات	-10.0418
▁الاعدام	-10.0421
حقق	-10.0425
▁هجوما	-10.0429
▁ابن	-10.043
▁لازم	-10.0435
▁الاولمبية	-10.0436
حمي	-10.0436
زار	-10.0444
▁صعبة	-10.0445
كين	-10.0448
▁البقاء	-10.0451
▁اقوي	-10.0452
طالب	-10.0455
سياسة	-10.046
▁تبقي	-10.0464
▁ثمن	-10.0466
ظل	-10.0469
▁الطب	-10.0472
▁الباحث	-10.0472
▁المعرض	-10.0476
▁بالكامل	-10.0481
كاس	-10.0481
غان	-10.0481
▁الكهرباء	-10.0485
▁حصول	-10.0487
▁احتجاجا	-10.0487
▁وعن	-10.0487
▁يقود	-10.049
▁الثامن	-10.0496
▁طالبي	-10.0499
▁الامل	-10.0499
▁لبحث	-10.05
دول	-10.0502
▁شان	-10.0508
سبب	-10.0509
▁جار	-10.0512
▁مستخدمي	-10.0516
▁قانونية	-10.052
يونيل	-10.052
▁قانوني	-10.0522
▁يشعر	-10.0525
▁تخفيف	-10.0526
▁الطلاب	-10.0526
▁الثقافي	-10.0531
تراوح	-10.0534
انه	-10.0538
بوندسليغا	-10.0552
طرد	-10.0553
▁لرئيس	-10.0554
▁الجانبين	-10.0555
w	-10.0556
▁للصحفيين	-10.0556
▁جزءا	-10.0558
▁سيناء	-10.0574
عالم	-10.0575
▁نار	-10.0576
▁المراكز	-10.0577
ويل	-10.0577
▁الذكي	-10.0578
نغ	-10.0578
اول	-10.0579
خرج	-10.0582
▁يصدر	-10.0587
▁جنسية	-10.0594
بدء	-10.0596
▁متر	-10.0597
▁الثورة	-10.0598
▁مضيفة	-10.0602
▁لاعبي	-10.0603
صالح	-10.0603
ماء	-10.0603
▁اجريت	-10.0612
▁تداعيات	-10.0613
▁المتهمين	-10.062
▁لمن	-10.0623
▁المش	-10.0623
▁الحديدة	-10.0625
▁2020،	-10.0626
تدخل	-10.0645
▁المطار	-10.0646
▁زار	-10.0647
a	-10.0647
▁الاقتراع	-10.0648
▁الاستقرار	-10.0649
▁سعي	-10.065
▁حدة	-10.065
▁ضمان	-10.0652
▁مصري	-10.0655
▁جورج	-10.0657
سين	-10.0661
▁الوقود	-10.0663
▁القتل	-10.0664
▁لدول	-10.0664
▁تدفق	-10.0664
عيش	-10.0667
قبل	-10.0668
فيد	-10.0668
▁اهتمام	-10.0669
مرة	-10.0669
▁يومي	-10.067
▁يس	-10.0677
▁الاحداث	-10.0679
▁ايقاف	-10.0679
▁معرفة	-10.0686
▁ريف	-10.0688
▁رعاية	-10.0688
▁العلمي	-10.0699
▁نفذت	-10.07
l	-10.0701
▁تصاعد	-10.0702
تسو	-10.0702
نمو	-10.0707
▁مجرد	-10.0708
▁القاسمي	-10.0709
وقف	-10.071
▁الخطر	-10.0717
▁المحترفين	-10.072
▁36	-10.072
▁رصيد	-10.0722
▁يستطيع	-10.0724
جه	-10.0727
▁صلة	-10.0735
▁السباق	-10.0737
▁تتضمن	-10.0741
▁لعلاج	-10.0753
تخلص	-10.0766
▁التقليدية	-10.0767
y	-10.077
▁الافلام	-10.0771
▁منتجات	-10.0774
حكومة	-10.0774
▁بوك	-10.0777
بث	-10.0779
توقف	-10.0779
▁الخروج	-10.0782
▁امين	-10.0783
▁دويتشه	-10.0788
▁السياحية	-10.079
▁غوارديولا	-10.0793
▁والاتحاد	-10.0793
▁ذكري	-10.0794
▁اعتداء	-10.0796
▁شرطي	-10.08
▁(20	-10.0805
▁والعمل	-10.0807
▁عنوان	-10.0809
دولة	-10.0816
▁تقام	-10.0817
فيسبوك	-10.0817
▁شحن	-10.0818
▁النقاب	-10.0818
▁ردود	-10.0818
راقب	-10.0821
▁بفضل	-10.0822
روح	-10.0823
فيفا	-10.0825
▁المدرسة	-10.0828
▁يهدف	-10.083
▁ترتيب	-10.0833
▁وباء	-10.0833
▁تقع	-10.0833
▁للح	-10.0835
▁الكهربائية	-10.0851
▁تتيح	-10.0852
▁الجلد	-10.0853
▁شبيغل	-10.0854
▁تبني	-10.0861
▁الاب	-10.0865
▁ضربات	-10.0871
تخلي	-10.0872
▁اقام	-10.0878
▁اعراض	-10.0879
▁يثير	-10.0883
ارة	-10.0885
وطن	-10.0888
تحدي	-10.0898
▁تلقت	-10.0898
▁وتاتي	-10.0901
تور	-10.0902
▁البلدان	-10.0905
زود	-10.0909
▁المبادرة	-10.0912
▁ويشار	-10.0914
الغاء	-10.0918
▁والتعاون	-10.092
▁واعتبر	-10.0922
▁طرف	-10.0924
قات	-10.0927
▁ممثل	-10.0927
صفة	-10.0929
▁ضوء	-10.0931
طول	-10.0931
▁الشمسية	-10.0932
▁الاطلاق	-10.0932
▁ضعف	-10.0933
ودي	-10.0935
تق	-10.0937
فس	-10.094
عقد	-10.0941
▁تجارة	-10.0944
قيد	-10.0944
▁صحي	-10.0947
▁تداول	-10.0947
كور	-10.0956
▁لكاس	-10.0957
▁سبل	-10.0959
▁سعد	-10.0961
تون	-10.0962
▁يصبح	-10.0965
وال	-10.0967
▁اجزاء	-10.0976
▁الحديثة	-10.0976
▁الشوارع	-10.0977
k	-10.0989
▁القاضي	-10.0991
اجهزة	-10.0993
▁تحليل	-10.0993
▁قدرة	-10.0993
شل	-10.0999
▁2019،	-10.1001
▁الدفع	-10.1002
▁جودة	-10.1002
▁الصحافة	-10.1006
حتاج	-10.1006
▁شتوتغارت	-10.1008
▁زيدان	-10.1013
▁المدنية	-10.1014
▁(16	-10.1016
▁الشارع	-10.1021
استضافة	-10.1024
ابر	-10.1031
▁تاييد	-10.1032
▁خطف	-10.1032
دافع	-10.1033
▁ضابط	-10.1034
اعلان	-10.1036
▁للانباء	-10.1037
▁ينتظر	-10.1037
روج	-10.1039
▁جبهة	-10.1042
▁للشرطة	-10.1043
▁الفائز	-10.1047
▁مفخخة	-10.1051
رون	-10.1052
▁خطوات	-10.1052
▁الجنسي	-10.1059
قصف	-10.106
فتي	-10.1061
▁شمل	-10.1061
▁الاجمالي	-10.1065
▁زوجها	-10.1069
▁تامين	-10.1076
▁غارات	-10.1077
▁حوادث	-10.1079
▁لاسرائيل	-10.108
جعل	-10.1093
بورصة	-10.1093
▁34	-10.1097
▁يسمي	-10.1097
▁المادة	-10.1098
▁جمهور	-10.1108
▁اندية	-10.111
ممارسة	-10.1112
▁باتت	-10.1116
▁ابناء	-10.1119
▁اتهمت	-10.1125
حدث	-10.1133
▁السينما	-10.1136
▁السريع	-10.1137
▁خسر	-10.1137
▁الاقصي	-10.1137
▁الاولية	-10.1138
▁للهجرة	-10.1139
▁عنيفة	-10.1141
▁الظفرة	-10.1149
هناك	-10.1149
رائ	-10.115
رخص	-10.1151
بيان	-10.1157
▁بطاقة	-10.1158
▁ايجاد	-10.1163
▁يهدد	-10.1165
▁الموجودة	-10.1169
اكسبو	-10.1169
▁مولر	-10.1172
▁الوجه	-10.1172
▁الصف	-10.1176
▁الاوكرانية	-10.118
▁لاعبين	-10.1181
▁اوغلو	-10.1181
ضبط	-10.1182
▁(27	-10.1182
▁الاساسي	-10.1185
▁تعهد	-10.119
▁كلوب	-10.1191
▁للمنتخب	-10.1193
▁الحرية	-10.1194
▁العاملة	-10.1195
تغلب	-10.1202
▁تحدد	-10.1203
▁را	-10.1203
حال	-10.1203
▁تاسيس	-10.1204
▁اطباء	-10.1205
قدم	-10.1208
▁بطلب	-10.1218
▁ورد	-10.122
▁ورش	-10.1222
▁قيود	-10.1222
▁مك	-10.1223
لون	-10.1233
قرر	-10.1235
عدة	-10.124
برا	-10.1243
▁قيمتها	-10.1247
درس	-10.1249
▁مغادرة	-10.1252
▁(14	-10.1255
▁والتنمية	-10.1255
ثي	-10.1256
سعي	-10.1259
ضمن	-10.126
شد	-10.1261
▁الحريري	-10.1263
▁الابطال	-10.1265
▁حققت	-10.1266
كه	-10.1269
جت	-10.1271
▁لاسباب	-10.1273
▁نشرته	-10.1278
▁مجموعات	-10.1279
▁عطلة	-10.1284
رجع	-10.1289
▁السامية	-10.1293
▁معتبرا	-10.1295
▁الذهاب	-10.13
▁الجرائم	-10.1302
▁غالبية	-10.1304
▁تركي	-10.1304
▁33	-10.1306
▁يبقي	-10.1308
▁شملت	-10.1309
▁المستشفيات	-10.131
▁شعبية	-10.1313
▁الجنوبي	-10.1318
▁يحاول	-10.1318
▁مثلا	-10.1321
▁تحتاج	-10.1323
▁جدول	-10.1324
شغل	-10.1326
▁السواحل	-10.1327
▁وصرح	-10.1327
▁ومصر	-10.1329
ربع	-10.133
▁قادر	-10.1336
▁العدالة	-10.1346
▁بير	-10.1346
▁بامكان	-10.1347
▁نمو	-10.1348
▁تركية	-10.1348
مطار	-10.1352
▁الفصل	-10.1355
▁المدافع	-10.136
▁القدرة	-10.1361
▁لسنة	-10.1362
▁خبر	-10.1363
▁صيف	-10.1375
▁كمية	-10.1385
▁يطالب	-10.1386
▁الداخلي	-10.1392
▁بمرض	-10.1395
▁الفنان	-10.1399
▁درهما	-10.1401
▁امير	-10.1402
▁دليل	-10.1404
▁المحتمل	-10.1407
▁المنشات	-10.1407
▁ولل	-10.1411
تاهل	-10.1414
▁النفس	-10.1425
فجر	-10.1426
▁مستمر	-10.1427
▁تهمة	-10.1427
درب	-10.1428
فان	-10.1429
تسبب	-10.143
▁التسامح	-10.1431
▁الحجر	-10.1433
▁توصلت	-10.1437
▁امنة	-10.1439
تشرين	-10.144
▁الدوحة	-10.1442
▁نور	-10.1444
▁ساحة	-10.1456
▁اعربت	-10.1458
▁الالي	-10.1463
سفر	-10.1464
▁لفريق	-10.1466
فيل	-10.1469
تجاوز	-10.1475
يكا	-10.1484
▁جلال	-10.1484
تحري	-10.1486
▁كميات	-10.1487
▁تزامن	-10.149
▁الافغانية	-10.1491
▁اخ	-10.1501
▁(18	-10.1503
روب	-10.1508
▁المبكر	-10.1508
▁شوارع	-10.1509
▁وقبل	-10.1509
▁مسلحة	-10.151
18	-10.1517
▁بالمانيا	-10.1518
▁اساسي	-10.1519
▁اتفق	-10.1519
▁سالم	-10.1534
▁ملحوظ	-10.1542
▁تتخذ	-10.1543
تحول	-10.1543
▁الراس	-10.1545
▁المكسيك	-10.1549
▁فئة	-10.155
▁توج	-10.155
▁قضائية	-10.1553
▁يدفع	-10.1557
▁القطري	-10.1559
▁(25	-10.1562
▁متحف	-10.1563
▁37	-10.1563
التزام	-10.1565
▁نفت	-10.1568
حث	-10.1569
▁ولد	-10.1571
اخذ	-10.1575
▁تسايتونغ	-10.1575
▁الجنوب	-10.1578
▁الحيوية	-10.1584
▁فلسطينية	-10.1584
▁الدائرة	-10.1585
▁بالذكر	-10.1585
▁استهداف	-10.159
▁الاستئناف	-10.159
▁فولفسبورغ	-10.1592
انستغرام	-10.1592
▁محتمل	-10.1593
ثير	-10.1596
روم	-10.1601
▁استخدم	-10.1601
مدن	-10.1602
▁الجمهوري	-10.1605
ضغط	-10.1609
▁تفاهم	-10.161
▁الرقم	-10.161
▁الصباح	-10.1617
70	-10.1628
▁سرطان	-10.1629
فرق	-10.1636
▁هادي	-10.1639
▁مهما	-10.1643
▁الكيماوية	-10.1643
كشف	-10.1645
▁الاجنبية	-10.1649
▁رحب	-10.1651
نشط	-10.1654
▁كلم	-10.1655
▁(17	-10.1658
▁للدفاع	-10.1659
▁الافريقي	-10.166
▁حافلة	-10.166
▁الممثل	-10.1663
▁يحدد	-10.1667
▁شرقي	-10.1668
▁زين	-10.1672
▁48	-10.1676
▁باطلاق	-10.1677
▁المخاطر	-10.1678
▁خسائر	-10.1679
▁المستمر	-10.168
▁اسيوي	-10.1682
▁فتاة	-10.1683
كوب	-10.1684
▁موقعها	-10.1684
▁متهمين	-10.1685
خفي	-10.1687
▁التشغيل	-10.1693
▁واذا	-10.1694
غرب	-10.1695
▁وعد	-10.1697
▁الاثار	-10.1708
▁السلة	-10.1709
▁دعوي	-10.1711
▁لانها	-10.1711
▁المنظمات	-10.1717
▁برصيد	-10.1718
▁فرد	-10.1722
▁فيليب	-10.1723
سكي	-10.1727
ركب	-10.1728
نظام	-10.1729
▁ضرب	-10.1732
▁فقدان	-10.1733
تحدث	-10.1733
▁ووضع	-10.1736
▁سطح	-10.1736
يرة	-10.1737
واقع	-10.1738
▁غاز	-10.1743
▁استقرار	-10.1743
▁حفتر	-10.1745
▁شب	-10.1746
▁سيف	-10.1746
▁داخلية	-10.1747
▁الناخبين	-10.1748
▁اخذ	-10.175
▁فرع	-10.175
▁صدور	-10.1751
▁يست	-10.1753
▁جل	-10.1761
▁احت	-10.1768
▁يرفض	-10.1769
▁الاسود	-10.1771
▁بوست	-10.1771
▁العاب	-10.1774
▁شهود	-10.1779
تطور	-10.1779
▁الاوكراني	-10.178
▁الموسيقي	-10.1781
▁المضاد	-10.1784
ظهر	-10.1785
نتج	-10.1786
▁المحامي	-10.1788
▁وحل	-10.1792
▁الانشطة	-10.1793
▁غابرييل	-10.1796
▁الطبيعي	-10.1799
▁ديفيد	-10.18
كوك	-10.18
▁استمر	-10.1808
▁اليورو	-10.1809
▁عربي	-10.1815
▁القصر	-10.1817
▁جوائز	-10.182
▁غذائية	-10.182
▁المشكلة	-10.182
نوي	-10.1824
▁الغذائي	-10.1832
▁طوال	-10.1833
▁اغلقت	-10.1834
▁محددة	-10.1834
▁تتجاوز	-10.1834
▁اكس	-10.1835
▁اقرب	-10.1836
▁واعرب	-10.1837
▁ثماني	-10.1845
▁كمان	-10.1846
▁حيال	-10.1854
اهي	-10.1856
▁الملعب	-10.1859
▁الجائزة	-10.186
▁المنتجات	-10.1862
▁بشمال	-10.1863
بعث	-10.1864
▁عبارة	-10.1865
▁هانوفر	-10.1865
▁الشمالي	-10.1866
▁لنا	-10.1868
▁تحذير	-10.188
ركز	-10.1882
▁ارقام	-10.1883
▁الاقليم	-10.1887
▁بجنوب	-10.1892
ستخدم	-10.1898
▁قبول	-10.1901
▁نهائيات	-10.1901
▁النهاية	-10.1902
▁العلم	-10.1902
▁يواصل	-10.1903
▁الدراسات	-10.1905
▁بدوره	-10.1908
▁تستعد	-10.1908
فاق	-10.1913
شاب	-10.1913
▁النمو	-10.1914
▁يتمتع	-10.1915
▁طلبة	-10.1916
لشؤون	-10.1917
▁رسائل	-10.1918
▁المهم	-10.1922
▁احتجاز	-10.1922
▁ظهرت	-10.1924
▁طبي	-10.1928
▁وخلال	-10.1928
▁تعتمد	-10.1932
▁تهديد	-10.1933
▁القضائية	-10.1938
▁منشات	-10.1938
▁عقدت	-10.194
قام	-10.194
▁تنظم	-10.1942
▁حياته	-10.1945
قن	-10.1947
▁ووتش	-10.1952
▁الغذاء	-10.1967
▁وبريطانيا	-10.1969
▁الركاب	-10.197
▁الخيرية	-10.1972
▁الافضل	-10.1974
ائب	-10.1977
سلام	-10.1981
سان	-10.1983
▁اسرع	-10.1986
▁المناسب	-10.1992
رين	-10.1997
▁استعداد	-10.1998
حزمة	-10.2001
▁شعر	-10.2004
▁(26	-10.2007
▁مصاب	-10.2007
▁انظمة	-10.2014
▁(30	-10.2015
▁التحديات	-10.2017
▁السير	-10.202
▁التحرير	-10.2022
▁يتحدث	-10.2026
▁اصوات	-10.2027
ولد	-10.203
▁احترام	-10.2031
▁خان	-10.2032
▁بمثاب	-10.2039
▁ارتكاب	-10.2039
▁نساء	-10.2041
▁نحن	-10.2042
سيم	-10.2044
▁(22	-10.2049
توجه	-10.2049
▁الازمات	-10.2052
▁المشاريع	-10.2052
▁الاسنان	-10.2053
▁لموقع	-10.2055
▁انهيار	-10.2056
▁التعبير	-10.2056
دائرة	-10.2059
▁بحياة	-10.2065
▁المرورية	-10.2067
▁اعتبرت	-10.2071
▁الصحراء	-10.2074
▁وار	-10.2074
▁غرار	-10.2075
▁الض	-10.2079
▁الفن	-10.2081
▁والمواصلات	-10.2083
▁شهرا	-10.209
▁العرض	-10.2091
▁حكومته	-10.2092
تمكن	-10.2097
▁فحسب	-10.2097
تلقي	-10.21
▁المتمردين	-10.2109
▁جهتها	-10.211
▁ذي	-10.2113
▁القاء	-10.2116
▁بوقف	-10.2117
▁يرغب	-10.2117
▁(15	-10.212
دراسة	-10.212
▁جماهير	-10.2126
▁تحذر	-10.2127
جون	-10.2127
▁المجاورة	-10.2127
▁مستمرة	-10.213
▁والصين	-10.213
حارب	-10.2131
تاكد	-10.2134
ثار	-10.2134
سود	-10.2134
▁التقارير	-10.2136
▁الاقليمية	-10.2139
▁الاسابيع	-10.214
▁الباب	-10.2141
▁(21	-10.2147
▁الخبير	-10.2147
▁الحاجة	-10.2148
▁مدافع	-10.2149
▁الشهيرة	-10.2151
كة	-10.2151
اعتداء	-10.2156
▁الانتقالات	-10.2156
▁صغير	-10.2157
غلق	-10.2166
نسي	-10.2166
▁حضر	-10.2171
▁قرابة	-10.2174
▁بعضهم	-10.2177
▁ايمانويل	-10.218
▁التالي	-10.2183
دري	-10.2183
▁جدد	-10.2191
▁للسلام	-10.2191
▁اقدم	-10.2193
▁النمسا	-10.2195
▁التعليمية	-10.2196
▁البشير	-10.2198
يلا	-10.22
طلع	-10.2203
ندا	-10.2204
▁تدهور	-10.2204
▁الفريقين	-10.2206
قسم	-10.2211
▁المحيط	-10.2213
واصل	-10.2214
▁مشددة	-10.2216
▁هولندا	-10.2216
تنافس	-10.2217
▁تتم	-10.2229
▁اتباع	-10.2234
▁الكيميائية	-10.2235
▁طويل	-10.2237
▁دوليا	-10.2239
▁شعب	-10.2241
▁المدعومة	-10.2241
▁لاتفاق	-10.2243
اشي	-10.2243
▁تاهل	-10.2245
فعال	-10.2245
مساعد	-10.2254
▁جسم	-10.2255
▁شنت	-10.2269
▁انشطة	-10.2271
▁اقصي	-10.2273
▁مؤسس	-10.2279
تحلي	-10.2283
دب	-10.2284
▁المقاتلين	-10.2288
▁الناجم	-10.2288
▁المصريين	-10.2289
▁120	-10.2292
▁هز	-10.2294
كرر	-10.2295
▁كرا	-10.2297
صوت	-10.2303
▁ولكنه	-10.2304
▁المجلة	-10.2306
▁الاربعة	-10.2307
▁تنمية	-10.2308
طة	-10.231
▁التطبيق	-10.231
رغ	-10.2311
▁نوبل	-10.2312
▁التطعيم	-10.2314
▁مقاطعة	-10.2315
▁المستهلك	-10.2318
▁صديق	-10.232
▁الزيارة	-10.232
نطق	-10.232
زعامة	-10.2324
▁نوعها	-10.2324
▁طفلا	-10.2329
▁يؤثر	-10.233
▁مور	-10.233
تيك	-10.2332
▁مخيم	-10.2336
واسطة	-10.2342
▁معارضة	-10.2343
▁الصحف	-10.2345
غار	-10.2346
بية	-10.2348
80	-10.2357
عاهل	-10.2361
▁بقتل	-10.2361
▁روحاني	-10.2361
فريق	-10.2361
▁يشير	-10.2362
افضل	-10.2365
▁الجائحة	-10.2367
▁فض	-10.2369
▁رؤية	-10.2372
▁الاعتراف	-10.2373
▁محاولات	-10.2374
ستند	-10.2377
▁يواخيم	-10.2378
▁دين	-10.238
خذ	-10.2381
▁معارض	-10.2383
عمر	-10.2383
▁المعروفة	-10.2383
▁للفوز	-10.2384
▁الاحتفال	-10.2385
سكو	-10.2385
▁وشدد	-10.2386
▁الانتقال	-10.2387
▁الصيفية	-10.2388
▁الرحمن	-10.2388
▁وخصوص	-10.2389
يط	-10.2392
▁خطا	-10.2394
▁موظفي	-10.2395
▁اشاد	-10.2396
▁لتطوير	-10.2396
▁(23	-10.2399
▁يعقد	-10.2402
▁والن	-10.2403
▁اللذي	-10.2405
▁(13	-10.2406
مؤتمر	-10.2407
▁بنظام	-10.2413
التهاب	-10.2416
▁الحسين	-10.2416
▁حتفهم	-10.2417
▁عددهم	-10.2418
▁الدموية	-10.2419
▁لرويترز	-10.2428
▁ميناء	-10.2434
▁المبني	-10.2437
كول	-10.2439
موت	-10.244
▁ولو	-10.2441
▁(28	-10.2452
▁للكتاب	-10.2452
▁التصعيد	-10.2454
▁لاجئين	-10.2455
▁القول	-10.2456
▁الرد	-10.2457
▁اسهم	-10.2458
▁التاسعة	-10.2458
عارض	-10.2459
▁الاضحي	-10.2463
▁اسلامية	-10.2467
كثف	-10.2469
▁اغتيال	-10.2469
▁مجموع	-10.2472
عار	-10.2472
▁الفطر	-10.2478
▁يحقق	-10.248
تزامن	-10.2483
▁الحمل	-10.2488
▁المخاوف	-10.2491
▁خرج	-10.2496
▁الحال	-10.2496
▁وهناك	-10.2505
▁اندلاع	-10.2505
▁طلبت	-10.2506
الاول	-10.251
▁واسرائيل	-10.251
▁مبيعات	-10.2518
جهاد	-10.2518
▁الشخصي	-10.2518
▁اوزيل	-10.2519
▁وضعت	-10.252
▁متعددة	-10.2527
▁واكثر	-10.253
▁(11	-10.2531
▁والرئيس	-10.2531
13	-10.2534
▁طور	-10.2536
▁نشره	-10.2543
▁تحديات	-10.2545
▁الشديد	-10.2553
▁اجتماعا	-10.2555
▁تسيطر	-10.2559
▁تحدثت	-10.2563
حرق	-10.2564
رئ	-10.2568
قف	-10.2568
شروط	-10.2568
▁انتقل	-10.2571
جني	-10.2571
حاول	-10.2573
▁والق	-10.2577
تمسك	-10.2579
▁شهرين	-10.2579
▁القذافي	-10.258
جول	-10.2582
▁اغ	-10.2588
▁ابدا	-10.2589
▁فار	-10.2591
▁اليابانية	-10.2591
▁حسابات	-10.2592
▁عمال	-10.2594
▁ارت	-10.2595
▁واحدا	-10.2596
جرائم	-10.2596
▁بعيدا	-10.2597
▁المباشر	-10.2598
▁لافروف	-10.2598
▁الزمن	-10.2603
▁السويد	-10.2605
▁تقدير	-10.2605
▁والامارات	-10.261
لف	-10.2611
▁اولا	-10.2612
▁مفوض	-10.2619
▁وقوات	-10.262
ربما	-10.2621
▁بفوز	-10.2622
17	-10.2622
▁فرنسي	-10.2623
▁يتسبب	-10.2624
▁يدخل	-10.2625
▁الحب	-10.2629
▁الدماغ	-10.2632
ورد	-10.2634
▁كيلومتر	-10.2636
▁القصف	-10.2638
▁شر	-10.264
▁غا	-10.2642
▁وجاءت	-10.2643
h	-10.2645
▁تسببت	-10.2651
تبادل	-10.2651
▁شامل	-10.2651
▁الكنيسة	-10.2651
▁المختصة	-10.2654
▁المحتجين	-10.2654
ندي	-10.2666
صعد	-10.2669
▁38	-10.267
▁الكردستاني	-10.2673
▁ذهاب	-10.2673
جهود	-10.2682
▁اعمارهم	-10.2686
منح	-10.2688
▁الرسوم	-10.2691
حاج	-10.2695
▁بحيث	-10.2696
▁صلاة	-10.2696
يجب	-10.2697
▁فاي	-10.2703
سجل	-10.2703
▁وقام	-10.2704
سلط	-10.2705
▁منزله	-10.2706
▁التجربة	-10.2706
▁الرامي	-10.2707
▁المستقلة	-10.2707
▁حسم	-10.271
▁مارتن	-10.2711
غوغل	-10.2717
▁شقيق	-10.2719
▁75	-10.2721
▁بتنظيم	-10.2722
يتين	-10.2722
▁الرئاسي	-10.2722
▁القادمين	-10.2722
▁ودعم	-10.2724
▁ارسنال	-10.2726
▁مثيرة	-10.2727
▁عمره	-10.2735
▁الشرقي	-10.2737
▁الحي	-10.2743
▁التاريخية	-10.2744
▁(29	-10.2744
▁اشكال	-10.2748
▁جبهات	-10.2748
▁هوية	-10.2748
▁جنوبي	-10.2749
ليك	-10.2751
▁كاملة	-10.2752
لب	-10.2754
▁مجالات	-10.2755
▁معها	-10.2761
غري	-10.2761
▁تجديد	-10.2761
اعة	-10.2765
▁(24	-10.2766
قلب	-10.2767
▁اربد	-10.2767
▁تجارب	-10.2768
▁وبذلك	-10.2768
▁تقدر	-10.2768
▁عرضة	-10.2769
▁سريع	-10.277
▁بوجود	-10.2771
▁الحرة	-10.2772
▁ظاهرة	-10.2776
▁مسلحين	-10.278
▁لايبزيغ	-10.278
▁يضع	-10.2781
▁شبكات	-10.2781
▁يعرض	-10.2783
▁القيود	-10.2786
▁المنازل	-10.2786
▁غادر	-10.2786
▁2006	-10.2789
▁فهم	-10.279
▁اردني	-10.279
▁الافراد	-10.2792
▁السلامة	-10.2794
ريم	-10.2796
▁متابعة	-10.2797
▁باد	-10.2801
▁تجدر	-10.2802
▁التاهل	-10.2803
▁هوفنهايم	-10.2805
▁بعثة	-10.2805
فعل	-10.2806
▁يزور	-10.2806
سائل	-10.2806
▁المنتمي	-10.2808
▁يدعم	-10.2809
▁عودته	-10.2811
▁صراع	-10.2818
▁يمنع	-10.2821
▁الاجواء	-10.2823
▁مشاريع	-10.2823
▁للمواطنين	-10.2824
▁تسلم	-10.2824
▁كلباء	-10.2832
يء	-10.2832
▁الملابس	-10.2839
▁لالمانيا	-10.2844
جاز	-10.2846
▁تصميم	-10.2848
▁الدبلوماسي	-10.2849
▁لاصحاب	-10.2851
▁كافية	-10.2852
▁البو	-10.2856
▁اجر	-10.2857
▁وجهة	-10.2857
▁تحقيقات	-10.2861
رقي	-10.287
برت	-10.2872
▁الممتاز	-10.2881
▁البارز	-10.2883
▁استفتاء	-10.2884
لعدم	-10.2884
▁واخر	-10.2889
▁تذكر	-10.2889
▁المق	-10.2892
▁دبلوماسي	-10.2897
شير	-10.2897
.5	-10.2899
▁تدمير	-10.2899
▁استناد	-10.2903
▁اعتقلت	-10.2904
▁منشاة	-10.2904
▁الراين	-10.2906
▁يحل	-10.291
فرد	-10.2911
▁قصيرة	-10.2911
▁الحج	-10.2914
35	-10.2916
▁العدوي	-10.2922
▁حرارة	-10.2922
اطاحة	-10.2922
▁فعالية	-10.2924
▁السكر	-10.2926
▁التامين	-10.2926
جير	-10.2926
▁فنية	-10.2938
▁معايير	-10.2938
▁ليصبح	-10.2942
▁رايتس	-10.2944
▁كور	-10.2949
▁بدل	-10.2951
▁للدولة	-10.2954
خبر	-10.2957
▁الكتاب	-10.2964
سقط	-10.2964
▁المهرجان	-10.2965
▁روسي	-10.2967
▁كرو	-10.297
▁التفاصيل	-10.2974
▁توتر	-10.2975
▁حيز	-10.2978
▁سرقة	-10.2979
▁يعيشون	-10.2983
▁اجنبية	-10.2983
▁غو	-10.2991
▁السينمائي	-10.2992
▁الصحافي	-10.2993
▁احتياجات	-10.2996
▁المبلغ	-10.2996
اسي	-10.2997
▁ارتداء	-10.2999
▁ويعتبر	-10.3002
قوة	-10.3003
▁وبدا	-10.3004
▁الادارية	-10.3005
▁فمن	-10.3006
كتلة	-10.3006
▁يامل	-10.3007
▁مق	-10.3007
▁ونشر	-10.301
▁روما	-10.3013
▁استغلال	-10.3016
▁محتملة	-10.3016
▁الاوروبيين	-10.3018
▁شمالي	-10.3018
▁فهو	-10.3019
▁يستعد	-10.3025
▁فلا	-10.3029
▁فلسطين	-10.3035
▁مسؤولي	-10.3037
دام	-10.3043
اتصالات	-10.3047
▁زوج	-10.3049
▁وتعد	-10.305
▁التجارب	-10.3055
▁العائلة	-10.3056
شركة	-10.3057
▁سوء	-10.3058
خدمة	-10.3064
شتاين	-10.3068
▁حددت	-10.3068
▁الحوثيون	-10.3069
باء	-10.307
▁لجميع	-10.307
▁الجزائرية	-10.3071
اكي	-10.3072
▁الاسري	-10.3073
تعلم	-10.3077
▁اليونانية	-10.3077
▁التلفزيونية	-10.3077
▁اكتر	-10.3078
▁خطير	-10.3081
سكر	-10.3085
▁وثائق	-10.3086
ميد	-10.3093
طال	-10.3093
▁التشريعية	-10.3093
▁الانتقادات	-10.3093
▁جلسات	-10.3094
▁الاسلاميين	-10.3096
▁باجراء	-10.3097
راحة	-10.3098
▁مستعد	-10.31
▁باير	-10.3102
حدود	-10.3105
ازي	-10.3112
▁الخبر	-10.3115
▁جير	-10.3115
▁التفاوض	-10.3116
14	-10.3116
▁الخليجي	-10.3118
وسي	-10.3118
زور	-10.3123
▁القناة	-10.3124
▁بشر	-10.3128
▁لتنفيذ	-10.3129
▁استقالته	-10.3131
500	-10.3133
معاداة	-10.3133
رحب	-10.3135
عرب	-10.3137
صبح	-10.3137
▁حديقة	-10.3143
▁دبا	-10.3144
شهد	-10.3147
تمرد	-10.3148
▁طب	-10.3148
▁يقضي	-10.3149
▁يخوض	-10.3149
▁عروض	-10.315
▁اسقاط	-10.3152
▁ميلان	-10.3154
▁تثير	-10.3156
▁عكس	-10.3156
▁ايدي	-10.3162
▁جماعات	-10.3162
طرح	-10.3165
▁باقي	-10.3171
شكل	-10.3171
▁كاليفورنيا	-10.3172
يكو	-10.3172
n	-10.3172
مواصلة	-10.3173
يتا	-10.3174
▁مبادرات	-10.3175
▁وزن	-10.3178
شجع	-10.3181
▁لاستقبال	-10.3181
▁تبحث	-10.3181
▁رغبة	-10.3185
▁التركيز	-10.3189
كمل	-10.3192
▁الصحفيين	-10.3196
▁البوندسليغا	-10.3197
لقاء	-10.3202
▁بفوزه	-10.3202
▁التعرف	-10.3206
ضيف	-10.3208
▁تسمي	-10.321
▁المناسبة	-10.3211
▁حرص	-10.3211
▁ركاب	-10.3213
▁لنقل	-10.3215
▁وتعتبر	-10.3217
▁التنفيذية	-10.3217
22	-10.3218
▁وافقت	-10.322
داخل	-10.3222
v	-10.3222
▁ايجابية	-10.3226
▁تبدو	-10.3232
ادت	-10.3233
▁يستمر	-10.3233
▁البيضاء	-10.3233
▁الاندماج	-10.3237
حالة	-10.324
▁ابحاث	-10.3245
▁قصة	-10.3245
امير	-10.3248
▁وشؤون	-10.3251
الصحة	-10.3251
▁الصدد	-10.3251
▁انذاك	-10.3251
▁بنتيجة	-10.3251
▁استخدمت	-10.3253
▁سرعة	-10.3254
▁استقالة	-10.3254
اخر	-10.3255
▁تعيش	-10.3256
▁الموالية	-10.3256
▁وسجل	-10.3258
▁القمر	-10.3261
▁واصل	-10.3267
▁خسارة	-10.3267
▁اعطاء	-10.3267
▁توسيع	-10.327
نفذ	-10.3272
▁صف	-10.3274
▁السكري	-10.3277
وسط	-10.3279
ديلي	-10.328
▁البناء	-10.3281
▁2000	-10.3286
▁يحذر	-10.3289
▁التغذية	-10.329
▁وثيقة	-10.3298
حرية	-10.3301
▁شدد	-10.3302
تشريع	-10.3303
▁:"	-10.3307
▁المراقبة	-10.331
▁قدما	-10.3311
▁الزراعة	-10.3313
▁تقنيات	-10.3318
انهاء	-10.332
▁المرتبة	-10.332
▁اراد	-10.3321
▁وتابعت	-10.3323
▁الزرقاء	-10.333
▁النقاش	-10.333
تظاهر	-10.3332
▁كندا	-10.3337
▁الفقر	-10.3342
▁فيله	-10.3342
▁اكتشف	-10.3345
▁لذا	-10.3345
▁شاهد	-10.3348
▁استقبل	-10.3353
▁منفذ	-10.3364
▁تصنيف	-10.3367
▁كلفة	-10.3368
▁فو	-10.337
▁السفينة	-10.3371
▁الاسباب	-10.3372
27	-10.3373
مزيد	-10.3373
▁تحاول	-10.3373
رفقة	-10.3374
تير	-10.3383
▁شخصين	-10.3387
راز	-10.3387
▁فكيف	-10.3389
▁الترتيب	-10.339
▁التطورات	-10.3393
▁حقيقة	-10.3394
تعهد	-10.3399
▁حياتهم	-10.3407
▁صباحا	-10.3409
تقنية	-10.3409
لاحق	-10.341
▁زفاف	-10.341
▁سلطة	-10.341
صال	-10.3415
▁العقارية	-10.3418
صديق	-10.3418
▁المتخصص	-10.342
▁معقل	-10.3424
خلي	-10.3424
جهاز	-10.3424
▁الثمانية	-10.3427
حاضر	-10.3427
▁ويبدو	-10.3427
▁مسرح	-10.343
▁سويسرا	-10.3431
▁(12	-10.3433
اعضاء	-10.3434
مرض	-10.3437
▁نص	-10.3438
▁متبرع	-10.3438
▁55	-10.344
هول	-10.3443
قرب	-10.3446
▁تستضيف	-10.3446
▁بقي	-10.3446
▁وتعزيز	-10.3453
▁يشمل	-10.3454
رمان	-10.3456
▁الموافقة	-10.3466
▁انتهاك	-10.3467
▁نسب	-10.3468
▁اوضحت	-10.3469
▁المرشحين	-10.3469
▁استهلاك	-10.347
▁بلجيكا	-10.3471
اشد	-10.3473
ورة	-10.3474
▁ويعد	-10.3477
استعادة	-10.3481
▁الصناعة	-10.3481
▁الخير	-10.3485
▁الهندية	-10.3486
▁الزواج	-10.3489
▁دعما	-10.349
▁رابطة	-10.3491
▁جزاء	-10.3491
▁واب	-10.3492
▁نفط	-10.3492
▁باعادة	-10.3498
▁بارز	-10.35
▁القلق	-10.35
▁اعتداءات	-10.3501
▁فعلي	-10.3504
▁مريض	-10.3504
▁جين	-10.3505
ناقش	-10.3506
شرف	-10.3506
▁البالغة	-10.3508
▁بقرار	-10.351
▁رغبته	-10.351
▁دورية	-10.351
▁زميله	-10.3512
▁250	-10.3515
▁اضاف	-10.3516
▁علينا	-10.3516
200	-10.3519
قوم	-10.3519
▁الخطة	-10.3519
مضي	-10.352
تعرض	-10.352
اسر	-10.3523
▁بالعمل	-10.3524
حظر	-10.3524
برغ	-10.3526
برو	-10.3528
حضر	-10.3532
▁تؤثر	-10.3532
▁مشارك	-10.3534
ابقاء	-10.3535
▁وبعض	-10.3536
▁بالشارقة	-10.3539
▁الاسيوية	-10.3539
▁اقيم	-10.3541
▁افتتح	-10.3542
امين	-10.3546
▁تغلب	-10.3548
▁ضخمة	-10.3549
▁انتخاب	-10.3553
▁الجماعة	-10.3557
▁للامن	-10.3561
▁عقار	-10.3567
▁ابلغ	-10.3571
▁المستخدم	-10.3572
▁للولايات	-10.3573
▁القارة	-10.3573
▁البنوك	-10.3574
▁السبع	-10.3575
▁وتسبب	-10.3577
▁ذكية	-10.358
حصل	-10.3584
▁يستضيف	-10.3586
▁خورفكان	-10.3591
لحكومة	-10.3591
▁الاستفادة	-10.3592
▁تنفذ	-10.3594
علاج	-10.3596
▁بنت	-10.36
▁بكين	-10.3602
▁لويس	-10.3603
▁42	-10.3604
▁التاثير	-10.3606
▁سيدة	-10.3606
▁وق	-10.3612
▁معارك	-10.3613
▁اعتراض	-10.3614
▁تايمز	-10.3614
▁رواد	-10.3617
▁معالجة	-10.3618
▁النشاط	-10.362
تصدر	-10.3622
▁القليلة	-10.3624
عرف	-10.3625
خت	-10.3625
▁ولن	-10.3626
▁البنية	-10.3626
درج	-10.363
▁الاعتماد	-10.3633
عزل	-10.3634
▁قائلة	-10.3634
▁تهدد	-10.3634
▁الوطن	-10.3635
▁الجلسة	-10.3635
شكك	-10.3637
▁اساسية	-10.3638
▁الاغذية	-10.3641
▁بوش	-10.3646
▁لعملية	-10.3647
▁غرق	-10.3647
▁مب	-10.3649
▁ولايته	-10.365
▁تورط	-10.3655
▁ليفاندوفسكي	-10.3655
▁المستخدمين	-10.3656
▁لاحد	-10.3657
▁العالي	-10.3658
شهر	-10.3663
▁سداد	-10.3666
▁للاصابة	-10.3666
▁واي	-10.3667
▁لنادي	-10.367
▁يطلب	-10.3672
▁فت	-10.3673
تعذيب	-10.3674
▁علما	-10.3675
▁لقائه	-10.3677
▁600	-10.3677
▁الخليجية	-10.3678
علوم	-10.3679
▁وتقدم	-10.3679
▁تسع	-10.3679
▁المعهد	-10.368
▁كنت	-10.3684
صعب	-10.3693
▁الذ	-10.3694
▁لدينا	-10.3694
▁الجامعات	-10.3697
▁باشرت	-10.3697
المملكة	-10.3697
▁مراسم	-10.3698
ادات	-10.3699
نجاح	-10.37
▁المفترض	-10.3702
▁التصريحات	-10.3703
نقابة	-10.3704
▁ترفض	-10.3705
▁القادة	-10.3706
▁الواضح	-10.3708
▁قدرات	-10.3709
▁لاحقا	-10.371
▁باستمرار	-10.371
▁تعامل	-10.372
▁يتيح	-10.3722
الرابع	-10.3722
▁ودعت	-10.3723
▁تور	-10.3728
▁التخطيط	-10.3732
▁ابتداء	-10.3738
▁فوائد	-10.3738
▁بكثير	-10.3738
▁طارق	-10.3738
▁غي	-10.3738
▁عشرين	-10.3739
▁مسيرته	-10.3741
وفا	-10.3742
▁2007	-10.3742
▁القرم	-10.3743
ساعد	-10.3755
▁التحول	-10.3759
▁مراحل	-10.3759
▁الجماهير	-10.3762
توازن	-10.3763
ترويج	-10.3763
▁بضع	-10.3771
▁البلدية	-10.3773
▁اقتصاد	-10.3776
▁العزل	-10.3776
سري	-10.3777
▁نظيفة	-10.3778
▁مناسبة	-10.3779
▁بومبيو	-10.378
▁طوكيو	-10.378
▁بعنوان	-10.378
▁الابحاث	-10.378
▁استراتيجي	-10.3781
جميع	-10.3782
حرر	-10.379
▁باحد	-10.3791
▁افلام	-10.3794
▁الدولتين	-10.3795
▁وسوريا	-10.3802
▁سيطر	-10.3803
تضرر	-10.3803
حور	-10.3804
▁ايجابي	-10.3805
▁الانساني	-10.3806
▁عضوا	-10.3806
▁قدر	-10.3807
كسر	-10.3815
ربي	-10.3818
▁البن	-10.382
▁المسافرين	-10.3822
▁شيئا	-10.3822
▁حب	-10.3822
▁السويسري	-10.3826
▁مهام	-10.3829
▁عامة	-10.3832
▁العاشر	-10.3833
▁المؤهلة	-10.3833
▁معروف	-10.3834
تنمية	-10.384
كرم	-10.3841
▁مرتين	-10.3851
▁المخصصة	-10.3853
رصد	-10.3853
صدق	-10.3853
▁بلادهم	-10.3854
▁43	-10.3854
▁حجز	-10.3857
▁عرف	-10.3857
يتس	-10.3862
▁انتظار	-10.3864
▁قنبلة	-10.3864
▁طاقم	-10.3864
▁لكي	-10.3864
▁السويدي	-10.3867
▁مواطنين	-10.3869
▁فوزا	-10.3882
مبادرة	-10.3884
▁الكتلة	-10.3884
▁رائد	-10.3886
برنامج	-10.3888
▁الحدث	-10.3888
▁المحطة	-10.3889
دق	-10.3892
▁للموسم	-10.3892
▁توقعات	-10.3896
m	-10.3896
▁قوانين	-10.3897
▁المسلحين	-10.3899
▁ناشط	-10.39
▁العاشرة	-10.3902
▁السنوية	-10.3903
▁وام	-10.3905
▁والده	-10.3914
دعوة	-10.3915
▁المقدمة	-10.3917
▁المحاكمة	-10.3919
▁رؤساء	-10.3922
▁ترخيص	-10.3923
سلم	-10.3923
الق	-10.3926
▁تحسن	-10.3928
▁نشرتها	-10.3935
▁جزئيا	-10.3936
▁بثلاثة	-10.3939
▁طن	-10.3941
تعاون	-10.3942
▁الوباء	-10.3943
▁الفرصة	-10.3944
▁الاهتمام	-10.3945
سقوط	-10.3947
▁والسعودية	-10.3948
▁عفرين	-10.3948
▁اقرار	-10.3949
كات	-10.395
زيل	-10.395
▁بالرئيس	-10.395
▁والعالم	-10.3953
فورد	-10.3953
▁منصات	-10.3957
▁اتصالات	-10.396
▁لقوات	-10.3961
نيسان	-10.3967
▁مورينيو	-10.397
تابع	-10.3973
▁الشمال	-10.3974
▁التقليدي	-10.3976
▁جنيه	-10.3976
▁مسلم	-10.3979
▁نزاع	-10.3982
تصرف	-10.3987
ايه	-10.3993
رجل	-10.4
يست	-10.4
▁عسكريا	-10.4001
▁عامي	-10.4004
▁انتر	-10.4004
▁جدلا	-10.4005
▁محافظ	-10.4005
نعم	-10.4007
,	-10.401
▁بدءا	-10.4011
▁تصعيد	-10.4012
▁مقال	-10.4014
▁عاش	-10.4014
مثال	-10.4015
▁مصالح	-10.4018
▁وسيلة	-10.402
▁اهل	-10.4021
ريال	-10.4027
▁مقطع	-10.4028
▁اطول	-10.4029
▁الاقامة	-10.4033
اسرائيل	-10.4034
▁البولندي	-10.4034
▁شريط	-10.4034
▁الشعور	-10.4041
▁ملابس	-10.4042
▁الستة	-10.4043
▁العملاقة	-10.4043
▁تعرضه	-10.4045
▁فضيحة	-10.4045
▁متاخر	-10.4048
▁الجدد	-10.4051
▁يمكنه	-10.4051
▁السودانية	-10.4056
▁بدور	-10.4059
▁قضائي	-10.4062
▁الاعتداءات	-10.4062
▁الطقس	-10.4063
▁منظومة	-10.4063
▁الصواريخ	-10.4065
▁المرتبطة	-10.4066
▁الوسطي	-10.4067
▁اضافي	-10.4069
▁مواقف	-10.4069
▁الياباني	-10.4074
▁موضحة	-10.4077
▁مدنيين	-10.4079
▁التو	-10.408
▁نواب	-10.4083
▁جمعت	-10.4083
▁المحافظ	-10.4083
▁نوعه	-10.4083
ناقل	-10.4084
▁المقر	-10.4084
▁يحتوي	-10.4088
▁وكيف	-10.4094
▁يملك	-10.4096
تجه	-10.4098
فون	-10.4104
تحمل	-10.4105
▁الصورة	-10.4108
الب	-10.411
تغطية	-10.4111
▁دراسات	-10.412
▁دخلت	-10.412
سق	-10.4123
حمل	-10.4127
▁العقد	-10.4127
▁لمناقشة	-10.4137
حذر	-10.4141
▁مؤقتا	-10.4141
انتقال	-10.4144
احي	-10.4144
▁وانها	-10.4146
▁مستخدم	-10.4149
▁والج	-10.4149
▁تسوية	-10.4157
درا	-10.4159
مخاطر	-10.416
▁وبلغ	-10.416
بوندستاغ	-10.4163
▁مونشنغلادباخ	-10.4163
▁جيدا	-10.4164
▁لافتا	-10.4166
▁السريعة	-10.417
▁65	-10.4175
▁لقد	-10.4182
تحويل	-10.4182
▁الموجهة	-10.4185
▁فهي	-10.419
26	-10.4191
▁جوي	-10.4196
▁الجر	-10.4196
▁وشارك	-10.4196
▁تظاهرات	-10.4203
ايل	-10.4204
▁المعتقلين	-10.4204
▁فوري	-10.4205
▁الفاتيكان	-10.4207
رسم	-10.421
شور	-10.421
شار	-10.4211
▁دم	-10.4214
▁رام	-10.4215
رحيل	-10.4215
▁نهر	-10.4216
▁المد	-10.4217
▁تعلم	-10.4218
▁زو	-10.4221
▁للنظام	-10.4222
▁منازلهم	-10.4222
▁تضمن	-10.4223
▁خلايا	-10.4225
▁مؤشرات	-10.4225
شخص	-10.4226
▁تف	-10.4228
مستقبل	-10.423
جذب	-10.423
▁فيينا	-10.4231
حماس	-10.4232
غادر	-10.4232
لحفاظ	-10.4238
▁ادلة	-10.424
ابي	-10.4241
لامارة	-10.4244
▁خليجي	-10.4248
▁سد	-10.4251
لكن	-10.4252
▁مايك	-10.4253
تحرك	-10.4254
مشروع	-10.4259
ورو	-10.4263
▁زمن	-10.4266
▁تبين	-10.4267
حط	-10.4268
▁دائم	-10.4269
▁الربيع	-10.4271
▁وعبر	-10.4271
▁بالغ	-10.4271
اعتماد	-10.4276
اذار	-10.4277
▁تمنح	-10.4277
▁الاشتباكات	-10.4278
▁نسمة	-10.4278
▁الثانوية	-10.4281
▁وحزب	-10.4281
▁الصدر	-10.4284
90	-10.4284
▁سمع	-10.4286
▁الدراسية	-10.4287
▁التحرك	-10.4293
▁اتجاه	-10.4294
▁الخصوص	-10.4296
▁ورفض	-10.4296
▁المسؤولة	-10.4297
▁المشي	-10.4297
▁نووية	-10.4298
شاهد	-10.4298
▁بنفس	-10.4298
▁الطالب	-10.4304
▁النارية	-10.4305
▁وحصل	-10.4306
▁فورا	-10.4307
▁بنادي	-10.4307
▁فني	-10.431
▁يجد	-10.431
▁الانتشار	-10.4315
▁انتصار	-10.4317
▁زاد	-10.4318
▁مبكر	-10.4318
حادث	-10.4323
▁اضطر	-10.4324
▁القيادي	-10.4325
حدد	-10.4325
يرا	-10.4329
وحدة	-10.433
▁الاستقلال	-10.4331
بشكل	-10.4334
▁بواقع	-10.4338
▁انفسهم	-10.4339
تطلع	-10.4341
▁الاسعاف	-10.4343
▁مول	-10.4347
▁لدور	-10.435
▁اولاند	-10.4351
▁باع	-10.4355
▁حميد	-10.4355
▁اوضاع	-10.4361
قضية	-10.4363
▁نجحت	-10.4366
▁كوكب	-10.4366
▁يسبب	-10.4368
▁المالكي	-10.437
▁عمله	-10.437
عرقل	-10.4371
▁وتمكن	-10.4373
▁البرامج	-10.4376
▁دافع	-10.4379
▁النص	-10.438
باط	-10.4381
▁وجرح	-10.4382
▁المشاكل	-10.4382
▁متفرقة	-10.4383
▁الكربون	-10.4383
▁الاتراك	-10.4383
▁يقدر	-10.439
▁بوضع	-10.439
قيادة	-10.4391
▁استخدامها	-10.4392
▁الشر	-10.4397
تواجد	-10.4397
عتمد	-10.4399
▁عرب	-10.4401
▁النصرة	-10.4402
21	-10.4402
كاب	-10.4402
تاثر	-10.4402
▁بمن	-10.4402
▁الذهبية	-10.4404
▁الانكليزي	-10.4405
▁بامراض	-10.4405
▁يتضمن	-10.4407
▁الجماعات	-10.4407
▁شهادة	-10.4407
وحد	-10.4409
▁ربط	-10.4412
▁كاف	-10.4419
▁النفسي	-10.442
▁بابوظبي	-10.4421
▁اضرار	-10.4421
تقام	-10.4422
▁مماثلة	-10.4422
▁ناصر	-10.4422
فض	-10.4424
▁النطاق	-10.4427
▁تفوق	-10.4428
▁القطرية	-10.4428
▁تصبح	-10.4428
انتخاب	-10.4429
▁صنع	-10.4431
▁فرضت	-10.4435
▁جسر	-10.4436
-1	-10.4439
تنقل	-10.4439
▁ويذكر	-10.4439
خلاف	-10.4447
وعة	-10.4447
رود	-10.4447
▁لتشكيل	-10.4449
▁بوتفليقة	-10.4449
وشي	-10.4451
▁مسعود	-10.4451
▁فالتر	-10.4452
▁لانقاذ	-10.4454
▁الكتروني	-10.4455
▁للبلاد	-10.4458
عبد	-10.4461
▁الكامل	-10.4462
يرتفع	-10.4464
▁واقع	-10.4469
▁تشيلسي	-10.4472
ريف	-10.4472
▁المتعاملين	-10.4472
مجرد	-10.4473
▁داعيا	-10.4474
ستن	-10.4475
▁مواطني	-10.4476
▁هاري	-10.448
▁الصعب	-10.4484
باخ	-10.4485
▁الحفل	-10.4488
ثني	-10.4488
▁ادانت	-10.4488
خلص	-10.4491
نزل	-10.4492
▁استكمال	-10.4493
▁الذهبي	-10.4494
▁اتلتيكو	-10.4494
حتفظ	-10.4497
▁بريطانية	-10.4497
فري	-10.4497
▁وصفه	-10.4498
تقل	-10.4499
▁يتجاوز	-10.45
لتقي	-10.4502
▁الاهلية	-10.4502
▁شك	-10.4504
زواج	-10.4506
▁يمكنها	-10.4508
حمد	-10.4509
▁وفر	-10.4511
وط	-10.4513
▁التوجه	-10.4513
سمع	-10.4514
▁نموذج	-10.4519
▁قادرة	-10.4521
▁القرارات	-10.4521
▁الوقاية	-10.4528
▁الراهن	-10.4528
45	-10.4529
دوار	-10.453
حصر	-10.4533
سعة	-10.4533
له	-10.4534
▁باعتباره	-10.4535
غول	-10.4536
سيس	-10.4539
▁تصدير	-10.4539
خطف	-10.454
قال	-10.4542
▁سريعا	-10.4547
▁كير	-10.4551
▁سعود	-10.4551
عقب	-10.4557
▁والشرطة	-10.4558
▁الامام	-10.4558
تسع	-10.4561
▁الحوادث	-10.4561
▁واللاجئين	-10.4562
▁صدرت	-10.4563
▁ووقع	-10.4563
▁واظهرت	-10.4563
▁البل	-10.4572
▁بكورونا	-10.4574
واء	-10.4577
▁بتوقيت	-10.4582
32	-10.4582
▁لام	-10.4582
تري	-10.4582
:"	-10.4583
▁مقرا	-10.4583
لمعرفة	-10.4583
▁الامريكيين	-10.4585
نحو	-10.4585
لتحسين	-10.4585
▁للق	-10.4593
تعليق	-10.4598
▁اصلاح	-10.4599
▁وصفت	-10.4605
▁جثة	-10.4607
▁تحديث	-10.4607
▁المرء	-10.4608
فوز	-10.4613
▁المرمي	-10.4614
الس	-10.4616
تاجر	-10.4618
▁بارتكاب	-10.463
▁للشباب	-10.463
▁واجه	-10.4633
السادس	-10.4635
▁قريب	-10.4635
صاحب	-10.4636
▁توافق	-10.4636
▁تجعل	-10.4636
▁التعرض	-10.4638
▁اوراق	-10.464
▁هويته	-10.4641
▁الغد	-10.4642
▁مجمع	-10.4643
اكبر	-10.4644
▁زعماء	-10.4646
▁دورته	-10.4647
▁حسني	-10.4647
توقع	-10.4648
▁تكاليف	-10.4652
▁لتوفير	-10.4653
▁القنصلية	-10.4653
▁تهريب	-10.4653
▁لتحديد	-10.4654
▁حاد	-10.4654
▁النجاح	-10.4655
حرص	-10.4655
▁قياسية	-10.4656
تنازل	-10.4661
▁التاريخي	-10.4663
سمح	-10.4665
خلق	-10.4669
▁لبناء	-10.4674
▁الزوج	-10.4679
▁الانسحاب	-10.4683
سول	-10.4685
▁المفروضة	-10.4688
▁الارقام	-10.4689
شبه	-10.469
▁اماراتي	-10.469
اقل	-10.4691
تحالف	-10.4697
▁نشطاء	-10.4698
▁نقاش	-10.4698
▁ينتمي	-10.4698
الثامن	-10.4704
تناول	-10.4707
▁تاريخه	-10.4709
▁الوقائية	-10.471
▁للاستثمار	-10.4712
▁الكورية	-10.472
▁الشبكة	-10.4721
ارا	-10.4723
▁التصدي	-10.4724
▁متوسط	-10.4729
مارك	-10.4731
سكن	-10.4732
▁التدخين	-10.4733
▁وكيل	-10.4734
▁والامن	-10.4736
▁الاتجاه	-10.4738
▁مطعم	-10.474
تامين	-10.4742
▁وحماية	-10.4745
▁خطرا	-10.4752
▁التيار	-10.4752
▁اعترف	-10.4757
▁الهندي	-10.4757
▁تفرض	-10.4759
مسابقة	-10.4761
▁غوغل	-10.4764
▁تقود	-10.4764
▁تواجد	-10.4764
▁طلاب	-10.4768
▁قتلت	-10.477
▁القوانين	-10.477
▁هورست	-10.4772
▁هواتف	-10.4773
مست	-10.4775
▁الاطار	-10.4775
الافراج	-10.4777
عناصر	-10.4779
ندر	-10.4783
▁حملات	-10.4784
▁التمويل	-10.479
▁فئات	-10.4791
▁بجانب	-10.4791
▁يسجل	-10.4795
▁علمية	-10.4797
▁بعضها	-10.4798
er	-10.48
▁مناقشة	-10.4802
اعتقال	-10.4804
▁بروسيا	-10.4805
▁مساحة	-10.4805
يث	-10.4808
▁وتطوير	-10.4814
مواصفات	-10.4814
▁متهما	-10.4819
▁تدرس	-10.4821
عادة	-10.4821
▁تطبيقات	-10.4822
▁لاعبا	-10.4822
▁شهدتها	-10.4822
ابوظبي	-10.4827
▁تكنولوجيا	-10.4832
▁خطوط	-10.4835
▁ارتكب	-10.4836
▁مصطفي	-10.4837
48	-10.4837
▁الترحيل	-10.484
▁محت	-10.4845
دمج	-10.4845
راعي	-10.4849
▁اودي	-10.4853
▁وشمال	-10.4863
▁الامطار	-10.4874
▁هيل	-10.4875
▁واجب	-10.4876
▁لعدد	-10.4876
▁اوقفت	-10.4878
▁عالمي	-10.4879
اواخر	-10.4879
▁استقلال	-10.488
تفوق	-10.488
▁يرفع	-10.4881
هور	-10.4881
▁الوحيدة	-10.4881
▁الشريك	-10.4884
▁العقبة	-10.4886
5%	-10.4888
▁معتقل	-10.4888
▁الاسيوي	-10.489
التنسيق	-10.4891
▁مايكل	-10.4891
بذل	-10.4895
▁اراضيها	-10.4895
▁رمز	-10.4895
لوك	-10.4906
▁الغي	-10.4906
▁جنايات	-10.4907
▁للوصول	-10.4907
▁الرياح	-10.4907
▁سقط	-10.4911
▁واصلت	-10.4915
▁ليصل	-10.4923
▁تام	-10.4925
▁انهما	-10.4927
استمرار	-10.4927
▁للسيارات	-10.493
▁الوفاق	-10.4931
▁لاستخدام	-10.4932
▁وجبة	-10.4932
▁تحصل	-10.4933
▁الانضمام	-10.4935
▁التجسس	-10.4936
▁زوجة	-10.4936
خطر	-10.4941
▁الخرطوم	-10.4942
▁السياسيين	-10.4942
▁حر	-10.4943
قمة	-10.4944
▁كات	-10.4945
جائزة	-10.4945
▁حليف	-10.4946
▁الحريق	-10.4957
▁قتيل	-10.4958
▁قياسي	-10.4959
الخامس	-10.4963
▁الاستيطان	-10.4963
▁سرية	-10.4964
▁مشروعات	-10.4965
▁الجين	-10.4965
▁مير	-10.4967
نشا	-10.4967
▁زال	-10.4969
▁طلبا	-10.498
▁انضمام	-10.4981
▁رفعت	-10.4985
▁ارجاء	-10.4986
تمديد	-10.4988
▁اعتقل	-10.499
▁يفضل	-10.499
سيطر	-10.499
▁تحرك	-10.4993
▁العيد	-10.4995
حزن	-10.4996
▁تجاري	-10.4999
▁احزاب	-10.5001
▁نفذ	-10.5001
▁فصائل	-10.5001
▁لائحة	-10.5002
▁صفحة	-10.5002
▁الوحدات	-10.5004
فحص	-10.5006
▁للراي	-10.5007
ذكاء	-10.5008
ميم	-10.5014
▁مبكرة	-10.5014
▁ويري	-10.5016
احة	-10.5018
▁عراقية	-10.5019
▁اطلقتها	-10.502
▁بيلد	-10.502
▁بكاس	-10.502
▁البحري	-10.502
خضر	-10.5021
ربة	-10.5024
▁المعني	-10.5025
▁صفحته	-10.5025
▁للتعامل	-10.5026
رفع	-10.503
▁الاسرائيليين	-10.5033
نيس	-10.5037
مختلف	-10.504
تحرش	-10.5041
اهر	-10.5042
▁للاعب	-10.5044
▁والف	-10.5048
▁يقيم	-10.5048
▁اراضي	-10.5048
ارث	-10.505
▁اقتحام	-10.5051
▁الزام	-10.5052
طعم	-10.5052
▁مسبوقة	-10.5054
▁المفتوحة	-10.5056
معلومات	-10.5057
تصاعد	-10.5059
تهدف	-10.506
▁ويتم	-10.5063
▁القي	-10.5063
▁البلجيكي	-10.5066
توافق	-10.5067
▁واخري	-10.507
▁لهجوم	-10.5074
احترام	-10.5074
▁الاستخدام	-10.5076
مبلغ	-10.5076
▁وظائف	-10.5077
▁الفصائل	-10.5077
75	-10.5084
▁بسيطة	-10.5087
مراة	-10.5089
▁صناع	-10.5089
▁الفحص	-10.5089
وتو	-10.509
▁البرية	-10.5092
▁تتهم	-10.5094
▁العضو	-10.5095
▁هداف	-10.5098
باس	-10.5101
▁مهارات	-10.5102
عنف	-10.5104
جيب	-10.5105
▁2015.	-10.5108
▁ليكون	-10.5109
▁طبيعي	-10.5115
▁الانفصال	-10.5116
▁2011.	-10.5118
▁الضغوط	-10.512
حديث	-10.5121
▁شانه	-10.5122
▁الشريف	-10.5123
▁شباك	-10.5124
▁رجلا	-10.5125
▁الاصلي	-10.5125
▁الدخل	-10.5125
▁عيان	-10.5125
▁التاكد	-10.5129
كسب	-10.5131
تنظيم	-10.5134
ملك	-10.5134
حسم	-10.5141
▁وطنية	-10.5145
▁اصيبوا	-10.5146
▁مئة	-10.5152
▁بلدان	-10.5156
▁المشروعات	-10.5161
سوس	-10.5163
▁اللقاحات	-10.5166
طف	-10.5167
▁يورغن	-10.5167
▁الشامل	-10.5169
▁الاتهام	-10.517
▁بدوري	-10.517
28	-10.517
▁الملاعب	-10.5171
▁الاداء	-10.5174
▁مرتبطة	-10.5177
▁الجنرال	-10.5179
السابع	-10.5182
ادلة	-10.5183
▁طبقا	-10.5184
▁ليلا	-10.5185
▁البط	-10.5187
▁بانهم	-10.5188
حتي	-10.5191
▁الارجح	-10.5191
▁يستقبل	-10.5192
▁جهات	-10.5196
▁الحارس	-10.5199
▁هدد	-10.5203
29	-10.5203
▁طالبا	-10.5204
جنوب	-10.5207
▁بزيارة	-10.5208
▁الانقلاب	-10.521
▁العميد	-10.5211
▁39	-10.5214
▁تنقل	-10.5215
▁شولتس	-10.5216
▁لبعض	-10.5216
▁والسلامة	-10.5217
▁ادني	-10.5217
توفر	-10.5223
▁بتشكيل	-10.5226
▁المجر	-10.5231
برر	-10.5232
ستعمل	-10.5232
ليب	-10.5236
▁غاب	-10.5239
x	-10.524
▁فرايبورغ	-10.524
▁اير	-10.524
▁يقع	-10.5241
▁ابل	-10.5242
▁مسلحون	-10.5242
عاش	-10.5243
▁جسد	-10.5244
▁وفاته	-10.5246
▁الزوار	-10.525
▁الفئة	-10.525
اننا	-10.5251
▁2014.	-10.5253
للتوصل	-10.5257
▁الطويل	-10.5261
وعد	-10.5261
قيل	-10.5262
▁جيش	-10.5265
▁للخطر	-10.527
▁دبلوماسية	-10.5271
صريح	-10.5271
لاف	-10.5271
▁مشتبه	-10.5277
ولو	-10.5277
▁المبعوث	-10.5279
▁منتج	-10.5279
سكان	-10.5281
بيك	-10.5284
▁نارية	-10.5284
▁للتعليم	-10.5285
طعن	-10.5287
وبة	-10.5287
▁مباحثات	-10.5288
▁معتدلة	-10.5289
▁سكنية	-10.5291
▁لايران	-10.5292
▁‬	-10.5295
تصدي	-10.5298
▁حادة	-10.5299
▁اسلوب	-10.5304
طابق	-10.5308
▁صورا	-10.531
▁تراجعت	-10.531
جور	-10.5311
▁...	-10.5316
▁الفندق	-10.5317
▁جميل	-10.5318
▁مرت	-10.5319
سوي	-10.532
▁اعتقد	-10.5322
▁تدريبات	-10.5323
▁44	-10.5324
عامل	-10.5329
▁كريستيان	-10.5333
▁هاي	-10.5336
انها	-10.5343
تغير	-10.5345
▁تصوير	-10.5345
▁والدول	-10.5346
تاثير	-10.5346
▁المحتوي	-10.5347
تعرف	-10.5347
انغ	-10.5348
▁مان	-10.5349
البديل	-10.5351
▁المقامة	-10.5355
23	-10.5356
ستقر	-10.5357
▁الكتب	-10.5358
▁برصاص	-10.5361
▁والمتوسطة	-10.5361
▁الخارجي	-10.5362
▁غربية	-10.5365
▁ارتفاعا	-10.5366
▁بتنفيذ	-10.5367
كانون	-10.537
سوف	-10.5371
كلفة	-10.5373
شرح	-10.5374
▁تصويت	-10.5374
▁القطاعات	-10.538
جند	-10.5381
▁ابدي	-10.5382
▁مارب	-10.539
▁صاروخ	-10.5391
منع	-10.5392
▁فعلا	-10.5393
تناسب	-10.5397
▁السياح	-10.5402
▁المواجهات	-10.5402
مهاجر	-10.541
خروج	-10.541
▁لطلب	-10.5414
▁المريخ	-10.5414
▁مالك	-10.5414
▁بريطاني	-10.5414
▁وتقديم	-10.5416
▁الفعاليات	-10.5416
▁شرط	-10.5419
▁وظيفة	-10.5425
▁مسلح	-10.5426
تعب	-10.5426
عرض	-10.5426
راح	-10.5428
▁الرسالة	-10.543
▁تدفع	-10.5432
▁المساجد	-10.5435
▁النمساوي	-10.5436
▁كابول	-10.5438
بورغ	-10.5438
▁الدراجات	-10.544
ضعف	-10.544
▁الدولار	-10.5444
▁وبدات	-10.5444
▁مشكلات	-10.5447
▁مستشفيات	-10.5447
▁الصعبة	-10.5449
استغلال	-10.545
▁الوفاة	-10.5456
▁تمر	-10.5456
بيرغ	-10.5457
▁القياسي	-10.5458
▁برلمان	-10.546
تلفزيون	-10.5462
▁مشاركته	-10.5462
▁شغل	-10.5462
▁الكريم	-10.5463
▁ملك	-10.5467
▁41	-10.5471
▁محاكم	-10.5471
اعتقد	-10.5475
▁تعليم	-10.5476
▁تفتيش	-10.5477
▁مظاهرات	-10.5479
▁مخالفات	-10.5481
▁امال	-10.5482
الولايات	-10.5483
مجلس	-10.5484
▁المستمرة	-10.5484
▁الارجنتين	-10.5485
▁تدابير	-10.5486
▁نسبيا	-10.5492
▁اغلبية	-10.5493
تمني	-10.5496
▁قريبة	-10.5497
▁طبيعة	-10.5499
غرامة	-10.55
نتائج	-10.5501
▁المهندس	-10.5503
كيف	-10.5506
▁حملته	-10.5507
▁التفكير	-10.5509
▁ير	-10.5509
▁احتفالات	-10.551
▁الفتيات	-10.5511
حياة	-10.5511
▁برج	-10.5514
▁التهاب	-10.5517
تسل	-10.5517
▁الخطوط	-10.5517
▁للدموع	-10.5517
▁2020.	-10.5518
صنف	-10.5522
الاربعاء	-10.5525
▁موت	-10.5527
▁بحرية	-10.5533
▁اليوناني	-10.5534
فرط	-10.5535
▁الدهون	-10.5535
تفجير	-10.5537
▁انتهاكات	-10.5537
▁التصفيات	-10.5538
▁متخصصة	-10.554
ستانف	-10.5542
جلس	-10.5542
▁تالق	-10.5543
مغادرة	-10.5545
▁وصوله	-10.5545
▁خلافات	-10.5549
▁مصور	-10.5551
شوف	-10.5551
▁ينطلق	-10.5554
تمر	-10.5555
غاية	-10.5559
▁الاحوال	-10.5559
▁الاذاعة	-10.5559
اساءة	-10.5559
▁تصرف	-10.556
ائمة	-10.5562
▁وسبق	-10.5562
يلة	-10.5567
▁الاحياء	-10.5568
▁الكر	-10.5569
▁شانها	-10.5572
ميت	-10.5573
▁الخلافات	-10.5574
▁البريد	-10.5574
▁عنصر	-10.5575
▁المجالات	-10.5576
▁سباقات	-10.558
▁مدنيا	-10.5581
شكر	-10.5583
▁ذاتها	-10.5586
▁سلوك	-10.5586
جبهة	-10.5588
▁ووصل	-10.5588
حافل	-10.559
▁هما	-10.5593
▁خاض	-10.5593
▁47	-10.5596
▁التطرف	-10.5597
▁مقاعد	-10.5598
▁كوب	-10.5602
▁التفتيش	-10.5609
▁الكاتب	-10.5609
▁الممثلة	-10.5609
▁متنوعة	-10.561
▁قطعة	-10.5611
تصميم	-10.5614
▁تضامن	-10.5616
▁ومنع	-10.5616
ربط	-10.5618
ستفيد	-10.562
▁الست	-10.5626
▁ضغوط	-10.5627
امس	-10.5628
▁فرنسيس	-10.5628
▁كن	-10.563
تمتع	-10.5631
▁الزمالك	-10.5634
سابق	-10.5636
▁الانتهاء	-10.5636
▁تتعرض	-10.5636
▁اوقات	-10.5637
▁المكون	-10.5638
▁لمؤسسة	-10.5639
▁ترد	-10.5639
▁ونشرت	-10.5641
▁يريدون	-10.5643
▁الاجراء	-10.5644
خوض	-10.5647
on	-10.5647
▁المتطرفة	-10.565
▁وجهات	-10.5651
▁وبت	-10.5652
▁تقليل	-10.5657
غرض	-10.5658
▁ابرزها	-10.5659
▁القهوة	-10.5659
ازمة	-10.5666
▁البكتيريا	-10.5672
▁موجود	-10.5672
▁مسؤولة	-10.5675
▁الاخبار	-10.5675
▁الكلي	-10.5676
▁مقدم	-10.5685
33	-10.5688
▁شعور	-10.569
▁تفيد	-10.5696
قضي	-10.5705
تردد	-10.571
▁الحدودية	-10.5712
مركز	-10.5713
دلاء	-10.5714
▁يقف	-10.5715
▁روس	-10.5716
▁محافظات	-10.5717
▁كارل	-10.5717
▁عز	-10.572
▁شاملة	-10.5721
رير	-10.5724
غور	-10.5727
▁الحوثية	-10.5728
روع	-10.5729
الثاني	-10.5729
▁المثير	-10.5729
▁القريبة	-10.5731
▁(10	-10.5732
▁رفيع	-10.5736
▁وحذر	-10.5739
▁والحزب	-10.5744
ختار	-10.5747
▁طاقة	-10.5748
▁الاعداد	-10.575
▁اتخذ	-10.5753
نفق	-10.5753
اؤه	-10.5757
▁الجيل	-10.576
▁المتظاهرون	-10.5761
شعار	-10.5762
▁فيردر	-10.5763
صندوق	-10.5767
وتر	-10.5768
▁زواج	-10.577
الاتحاد	-10.5772
▁مبالغ	-10.5773
توجيهات	-10.5776
▁المباني	-10.5777
▁الحرس	-10.5778
▁حفظ	-10.5782
▁الاحيان	-10.5787
▁الدعوة	-10.5787
▁مصلحة	-10.5787
▁سيرغي	-10.5789
دوم	-10.5789
▁ويست	-10.5791
▁حدد	-10.5793
▁ممثلي	-10.5794
سكاي	-10.5798
محرك	-10.58
▁المطلوب	-10.5801
اثر	-10.5801
▁واتهم	-10.5802
▁الاغاثة	-10.5802
اشتراك	-10.5808
نشر	-10.581
▁اقتراب	-10.5813
▁وثلاث	-10.5816
▁البدء	-10.5818
طلاق	-10.5819
▁يجمع	-10.582
▁اقتراح	-10.5821
.6	-10.5823
الشارقة	-10.5824
غرق	-10.5828
▁كريم	-10.5832
▁الشحن	-10.5838
▁مرارا	-10.5839
تبني	-10.584
▁يمنح	-10.5841
▁شهور	-10.5843
▁الكوري	-10.5846
▁لنظام	-10.5847
▁بعث	-10.5848
مساندة	-10.5849
▁الماضيين	-10.585
خار	-10.585
تنحي	-10.5851
▁قط	-10.5852
▁تقرر	-10.5853
▁ثورة	-10.5856
▁الظهر	-10.5856
مود	-10.5861
▁الابتدائية	-10.5863
▁مباراته	-10.5864
▁موجودة	-10.5864
غرام	-10.5867
▁التخلي	-10.5867
▁قيادي	-10.5868
▁مصنع	-10.5874
قصد	-10.5874
▁قاعة	-10.588
▁للتحقيق	-10.5885
▁العناصر	-10.5885
▁تزويد	-10.5889
▁الكرملين	-10.5889
▁الثدي	-10.5889
▁بعمل	-10.589
▁يقام	-10.5894
▁يخص	-10.5896
▁خلاله	-10.5896
▁الاونة	-10.59
اقليم	-10.5901
▁ارسلت	-10.5907
▁يومية	-10.5909
▁الشتاء	-10.591
▁المعزول	-10.5915
-2	-10.5915
تشير	-10.5917
▁الشام	-10.5918
▁فساد	-10.592
▁يلي	-10.592
▁مركبات	-10.5923
▁2018.	-10.5924
▁الخط	-10.5928
▁اليهود	-10.5929
▁صالة	-10.5931
وقوف	-10.5932
▁العقاري	-10.5932
▁الزراعية	-10.5935
▁وطلب	-10.5939
▁مناسب	-10.5941
▁قيادات	-10.5941
▁تطرح	-10.5942
▁الرحلة	-10.5942
▁اقرت	-10.5947
عودة	-10.5951
▁تحطم	-10.5951
▁تنتهي	-10.5952
▁باللغة	-10.5953
▁ناسفة	-10.5956
▁التفجير	-10.5959
▁مستقبلا	-10.596
بنك	-10.5965
فيلد	-10.5966
شهور	-10.5966
▁خلفا	-10.5972
▁الغارات	-10.5974
▁الارهابيين	-10.5979
▁ماريو	-10.5979
▁تفاعل	-10.5982
▁السكنية	-10.5989
▁تخصص	-10.5991
▁52	-10.5992
▁كييف	-10.5992
▁بوضوح	-10.5993
تزوير	-10.5995
سوء	-10.5995
▁تلعب	-10.5998
قوا	-10.5999
▁للدول	-10.6
▁للع	-10.6001
▁تعيد	-10.6007
▁الرمادي	-10.6009
▁مثير	-10.6009
▁ومس	-10.6013
▁1000	-10.6014
▁متزايد	-10.6016
▁حلم	-10.6017
نص	-10.6018
▁وزوجته	-10.6019
▁حزبه	-10.6021
▁الودية	-10.6023
هيل	-10.6024
▁كلية	-10.6024
▁حقيقية	-10.6029
صواريخ	-10.6029
▁خيار	-10.6033
روتين	-10.6034
▁جوزي	-10.6035
تشي	-10.6035
▁الزور	-10.6035
مصر	-10.6038
▁800	-10.6041
▁القيمة	-10.6044
▁النعيمي	-10.6045
لمصلحة	-10.6047
تزايد	-10.6048
▁الرقة	-10.6049
ريش	-10.605
يشمل	-10.605
قرعة	-10.6051
▁هاجم	-10.6052
▁الاستراتيجي	-10.6063
ثا	-10.6064
▁المحاكم	-10.6067
▁الغوطة	-10.6071
▁غني	-10.6073
▁اليد	-10.6073
▁سعودية	-10.6076
▁هاتفي	-10.6077
▁الفعل	-10.6077
▁طبيعية	-10.6078
▁فعال	-10.6079
▁المنتج	-10.6079
▁الانفاق	-10.6081
▁الكافي	-10.6081
▁الصندوق	-10.6085
▁واقعة	-10.6087
▁النفطية	-10.6087
▁الجنس	-10.6089
▁كوم	-10.609
تزوج	-10.609
▁قدرته	-10.6092
▁عبدالعزيز	-10.6098
▁النازية	-10.6099
▁رخصة	-10.6099
▁محدودة	-10.61
▁التطور	-10.6102
▁لوحة	-10.6105
▁اجتماعات	-10.6109
▁مفتوحة	-10.6113
دريس	-10.6115
▁شخصيات	-10.6118
▁الانجليزية	-10.612
تظر	-10.6123
▁وتوفير	-10.6124
▁الاطعمة	-10.6124
▁نصائح	-10.6125
▁يستهدف	-10.6126
▁هايكو	-10.6126
▁الصناعي	-10.6129
▁رياضي	-10.6129
▁تحدي	-10.6131
▁تتبع	-10.6136
▁الكاملة	-10.6138
▁51	-10.614
▁مفاجئ	-10.614
▁ودور	-10.6144
▁كهرباء	-10.6145
▁بيئة	-10.6148
▁يعملون	-10.6149
ايقاف	-10.615
▁تشديد	-10.6151
▁للوقاية	-10.6152
▁مستعدة	-10.6156
▁تعز	-10.6156
حكام	-10.6157
▁بقية	-10.6157
▁صحيح	-10.6159
ضاء	-10.616
▁المخلفات	-10.616
فكر	-10.6162
اوية	-10.6166
▁مستقلة	-10.6166
▁ثقة	-10.617
▁49	-10.6173
▁ايمن	-10.6174
▁مشددا	-10.6177
▁عائلته	-10.6178
▁مبعوث	-10.6179
محكمة	-10.6182
انس	-10.6183
ئي	-10.6184
▁يمني	-10.6188
▁سام	-10.6189
▁التهديد	-10.6191
▁يخضع	-10.6196
▁كرم	-10.6196
▁السويسرية	-10.6199
▁الاقليمي	-10.6199
▁بقاء	-10.6204
▁اضراب	-10.6206
▁ومنها	-10.6211
▁الصفقة	-10.6212
▁رامي	-10.6214
▁اقتحم	-10.6217
حملة	-10.6217
اسبوع	-10.6217
▁كلمات	-10.6219
▁عزمه	-10.6219
▁فريد	-10.6221
وزع	-10.6224
▁الابتكار	-10.6225
▁تطلب	-10.6225
▁ضروري	-10.6227
▁اسس	-10.6229
قبض	-10.6229
▁الساحة	-10.6234
مسودة	-10.6236
▁تعقد	-10.6238
▁الكروي	-10.6241
▁الخضراء	-10.6242
▁مازال	-10.6243
▁ايرانية	-10.6245
زير	-10.6245
▁2016.	-10.6247
جنس	-10.6248
▁تعني	-10.6249
وضع	-10.625
▁عشاق	-10.6257
تار	-10.626
▁لتجنب	-10.6261
▁الصوت	-10.6261
▁الفيفا	-10.6262
▁تاريخي	-10.6264
▁تاخر	-10.627
▁التهم	-10.6271
▁امله	-10.6273
▁استجابة	-10.6274
▁الاضرار	-10.628
▁الخوف	-10.628
▁الحقوق	-10.6282
▁اكاديمية	-10.6282
▁يؤ	-10.6282
▁توتنهام	-10.6284
▁تشهدها	-10.6285
▁الكحول	-10.6285
اكيد	-10.6286
خطط	-10.6288
▁الازياء	-10.6289
▁تغطي	-10.6289
▁مترا	-10.629
صيف	-10.6291
▁بقدر	-10.6291
▁ومقره	-10.6293
▁يتضح	-10.6294
▁الشابة	-10.6295
مؤسسة	-10.6296
تاريخ	-10.6297
▁مشاورات	-10.6298
▁المئات	-10.6299
▁الحقيقة	-10.6303
▁المسيل	-10.6304
▁شراكة	-10.6306
درك	-10.6309
حاصر	-10.631
▁انجلترا	-10.6311
▁اللحظة	-10.6311
باي	-10.6316
▁بابا	-10.6316
لوف	-10.6316
▁تتحدث	-10.6318
▁جناح	-10.6322
▁(31	-10.633
▁متنها	-10.6337
▁للمجلس	-10.6343
▁يعزز	-10.6345
▁واثار	-10.6345
▁شاركت	-10.6346
▁معاناة	-10.6346
▁معركة	-10.6347
تحقق	-10.6348
▁زالت	-10.6351
▁الاغلاق	-10.6351
▁يتطلب	-10.6352
▁المركبة	-10.6355
▁بدفع	-10.6357
▁غرام	-10.636
▁2019.	-10.6363
▁الاصلاح	-10.6364
برلين	-10.6365
▁المباشرة	-10.6366
▁باحث	-10.6366
▁للقانون	-10.6366
كري	-10.637
برج	-10.637
▁استثمار	-10.6373
▁نصر	-10.6375
▁الفتاة	-10.6375
▁الترشح	-10.6381
▁تعزز	-10.6383
▁الحين	-10.6384
▁ارباح	-10.6392
تجنب	-10.6392
▁وايضا	-10.6393
▁يوفر	-10.6393
شرك	-10.6398
تلبية	-10.6399
خفف	-10.6402
▁الوفد	-10.6402
▁طفلة	-10.6402
ظفر	-10.6403
▁فرنسية	-10.6404
هجوم	-10.6404
▁صادرات	-10.6406
يهما	-10.6408
▁التظاهر	-10.6408
▁بكر	-10.641
▁يتهم	-10.6411
▁التعلم	-10.6411
▁الاستمرار	-10.6412
▁زراعة	-10.6417
▁السوبر	-10.6419
▁النرويج	-10.6419
وكس	-10.6421
غلي	-10.6425
الاثنين	-10.6426
▁ابيب	-10.6426
▁تنظمه	-10.6428
▁700	-10.6429
ضاحية	-10.6432
▁اسرته	-10.6432
▁عبور	-10.6433
▁برنامجها	-10.6439
▁وشهدت	-10.6439
فئة	-10.6443
▁باستثناء	-10.6446
▁وفاز	-10.6447
تراجع	-10.6449
قابل	-10.6452
▁تاريخية	-10.6454
ياس	-10.6455
▁للمساعدة	-10.6457
▁المهني	-10.6459
مراكز	-10.6461
عتبر	-10.6465
▁بالاتحاد	-10.6473
▁احراز	-10.6474
▁للازمة	-10.6476
▁العقيد	-10.6478
▁مقعدا	-10.648
كال	-10.6484
▁رصدت	-10.6485
رضي	-10.6485
▁المؤقتة	-10.6485
▁ممثلة	-10.6485
دعاء	-10.6489
▁للاعلام	-10.6489
▁s	-10.6491
▁الفرص	-10.6495
▁انتقدت	-10.6498
49	-10.6499
▁العبادي	-10.6501
▁للخدمات	-10.6501
▁لعمل	-10.6505
▁ادلي	-10.6506
▁ماينز	-10.6507
▁العو	-10.651
▁تعبير	-10.6511
▁ناقش	-10.6511
▁بذل	-10.6512
موظف	-10.6512
▁والمعارضة	-10.6514
▁نوعية	-10.6517
▁اعتمد	-10.6517
▁بالتعادل	-10.6519
وصف	-10.6519
▁ماي	-10.6519
كاف	-10.6521
▁اجراها	-10.6523
▁المشهد	-10.6523
تسامح	-10.6524
▁الشيعية	-10.6525
▁بسهولة	-10.6528
▁الاسعار	-10.6528
▁للقيام	-10.6529
▁وطالبت	-10.6532
عمدة	-10.6532
▁تغلق	-10.6533
▁شكوي	-10.6545
▁المشرف	-10.6551
▁الكاس	-10.6555
▁نفوذ	-10.6556
▁ادخال	-10.6556
▁للشركات	-10.6556
▁استفاد	-10.6556
▁لجماعة	-10.6556
▁لانتاج	-10.656
عمق	-10.6563
▁تتسبب	-10.6565
▁الجامعي	-10.6566
▁محلي	-10.6567
▁واسعا	-10.6571
▁نظرت	-10.6573
▁حرق	-10.6576
انسحاب	-10.6578
حضار	-10.6578
ركلة	-10.6579
▁خضع	-10.658
مساهمة	-10.6581
اجتماع	-10.6583
احتفاظ	-10.6584
▁لحظة	-10.6584
▁تهديدات	-10.6585
▁الثوري	-10.6587
تلف	-10.6587
▁سماع	-10.6589
حجم	-10.659
رعب	-10.6592
▁حجر	-10.6597
وين	-10.6599
▁الجهة	-10.6599
حفظ	-10.6599
▁جماعية	-10.6603
▁يوضح	-10.6603
وفد	-10.6604
ارهابي	-10.6605
▁فن	-10.6605
▁اسئلة	-10.6611
▁ظريف	-10.6611
▁لفرانس	-10.6612
▁المناعة	-10.6614
توظيف	-10.6614
استهداف	-10.6614
كتسب	-10.6616
▁التمييز	-10.6619
▁اسماعيل	-10.6623
▁هزيمة	-10.6624
خيبة	-10.6624
لمطالبة	-10.6625
تخطي	-10.6628
▁الخسارة	-10.663
تمهيدا	-10.6632
▁تحل	-10.6632
باني	-10.6633
▁باكثر	-10.6633
علاقات	-10.6633
▁مائة	-10.6634
▁تخفيض	-10.6635
▁المضادة	-10.6636
▁يكفي	-10.664
▁بولندا	-10.664
خور	-10.6641
▁موسي	-10.6643
▁الفضائية	-10.6643
تعثر	-10.6648
▁لوضع	-10.6649
▁مدنية	-10.665
▁يمر	-10.6651
مرشح	-10.6652
▁الاسم	-10.6655
ؤكد	-10.6655
▁بطلا	-10.6663
خطوط	-10.6663
▁ولذلك	-10.6663
▁المطلوبة	-10.6666
▁الفوضي	-10.6667
▁الصحافيين	-10.6672
كاي	-10.6672
▁المونديال	-10.6673
▁يرد	-10.6674
▁فول	-10.6681
انو	-10.6682
مكن	-10.6682
▁المحمولة	-10.6682
قانون	-10.6684
▁معبر	-10.6685
▁دفعت	-10.6686
رسل	-10.6686
34	-10.669
▁اندلعت	-10.6692
▁المناخي	-10.6693
▁اياب	-10.6696
▁ينص	-10.67
تقدير	-10.67
محمد	-10.6701
▁السلبية	-10.6705
▁علامة	-10.6705
التاسع	-10.6705
▁تشكيلة	-10.6707
▁سوريين	-10.6707
▁الملايين	-10.6708
▁المستثمرين	-10.6711
▁محتوي	-10.6713
▁لمرض	-10.6713
▁المحيطة	-10.6714
▁اقت	-10.6715
▁مخطط	-10.6715
▁منافسة	-10.6718
كتاب	-10.6719
▁46	-10.6721
▁يتخذ	-10.6725
ذو	-10.6726
سلاح	-10.6726
▁مولود	-10.6727
▁الصحيح	-10.6728
▁وحول	-10.6728
▁اثيوبيا	-10.6731
تيل	-10.6731
▁الوظائف	-10.6731
سياسي	-10.6733
▁القانوني	-10.6734
▁علاو	-10.6737
▁العصر	-10.6738
▁معهم	-10.6738
▁الانبار	-10.6743
والد	-10.6746
دراج	-10.6746
▁السؤال	-10.6747
▁ويعتقد	-10.6751
▁لمراقبة	-10.6751
▁اضطرابات	-10.6751
جريمة	-10.6753
▁السجون	-10.6753
▁الحمراء	-10.6754
واس	-10.6758
▁منهما	-10.6761
▁النسبة	-10.6762
▁هدفين	-10.6766
▁المضي	-10.6767
▁قاتل	-10.6768
▁تاثر	-10.6769
▁وكشف	-10.6769
كتشف	-10.6774
▁وتكون	-10.6776
▁ادانته	-10.6777
▁اعتراف	-10.6777
▁المرجح	-10.6779
▁التنفس	-10.6779
▁حمص	-10.678
▁تتجه	-10.6781
▁اخت	-10.6783
ايار	-10.6783
جمهورية	-10.6785
▁شرف	-10.6786
لمجلة	-10.6786
▁قياسيا	-10.6786
▁المستهلكين	-10.6788
▁جيل	-10.679
▁سري	-10.6791
▁قصير	-10.6792
▁تكرار	-10.6795
▁الاكل	-10.6798
نيك	-10.6801
براءة	-10.6802
ثلاث	-10.6802
يعة	-10.6805
▁اسيوية	-10.6807
شرب	-10.681
الثالث	-10.6811
▁اجازة	-10.682
▁ثمين	-10.6821
▁مستقل	-10.6823
▁اعادت	-10.6828
▁نادر	-10.6829
ربح	-10.6831
كهرباء	-10.6834
لانهاء	-10.6835
▁الضربات	-10.6836
▁خلية	-10.6839
▁الكسندر	-10.6839
▁غرامة	-10.6839
▁حث	-10.684
▁المسيحيين	-10.6845
▁الصيد	-10.6847
نشاط	-10.6849
▁بسرطان	-10.6851
▁الصغير	-10.6853
▁مار	-10.6853
▁البشرة	-10.6855
▁ومدير	-10.6859
نتيجة	-10.6861
▁ترفع	-10.6861
▁رياضية	-10.6861
يزي	-10.6862
▁الاتفاقية	-10.6864
▁السلفي	-10.6869
▁الشخصيات	-10.6869
خطة	-10.6872
احداث	-10.6873
▁المكلف	-10.6878
▁جميعا	-10.6878
▁المحمول	-10.6879
▁شرعية	-10.6882
▁تقف	-10.6882
▁حقوقية	-10.6886
ساق	-10.6887
▁ادين	-10.6887
▁الانف	-10.6889
بروتوكول	-10.6893
▁القيوين	-10.6893
▁اعد	-10.6895
تمييز	-10.6895
▁الواحد	-10.6895
▁الخطوات	-10.6897
▁للعلاج	-10.6905
شدد	-10.6905
لمس	-10.6906
▁المطالب	-10.6907
▁ابنه	-10.691
▁عملها	-10.6911
▁كوخ	-10.6911
▁الفكرة	-10.6913
مبا	-10.6913
▁للصحة	-10.6915
▁اثبتت	-10.6915
▁المتشددين	-10.6916
▁خلق	-10.6917
يكس	-10.6919
▁فيسترفيله	-10.6921
▁الناشط	-10.6921
▁للقاح	-10.6922
▁اعلامي	-10.6922
▁مهلة	-10.6923
قصر	-10.6924
in	-10.6924
▁لروسيا	-10.6924
▁الكترونيا	-10.6927
مصدر	-10.6928
▁المائية	-10.693
انتقاد	-10.6931
▁الكثيرون	-10.6931
▁صعب	-10.6931
توجيه	-10.6934
▁منازل	-10.6937
حالات	-10.6937
نطلق	-10.6939
▁ينظر	-10.6939
▁متشدد	-10.694
تحكم	-10.6941
▁مصرف	-10.6943
▁تقدمت	-10.6944
▁اقتصادي	-10.6945
▁احدهما	-10.695
▁الحكومات	-10.695
▁الناحية	-10.695
▁بيقلل	-10.695
▁المنتهية	-10.695
استدامة	-10.6951
وكر	-10.6952
▁التعليق	-10.6953
▁اعتبار	-10.6954
▁الانتقالية	-10.6955
سافر	-10.6956
▁اشرف	-10.696
▁سريعة	-10.6962
▁جراح	-10.6965
▁الطبيعة	-10.6967
خارج	-10.6967
▁عادت	-10.6967
جاد	-10.6972
بعض	-10.6974
فترة	-10.6974
▁كونغ	-10.6975
▁وكالات	-10.6977
▁الحلف	-10.6978
▁تظاهر	-10.6978
▁الولادة	-10.6979
قترح	-10.6983
▁فنان	-10.6988
▁سليم	-10.6995
▁والخدمات	-10.6996
لسيطرة	-10.7
▁خال	-10.7002
ارض	-10.7002
▁سيطرت	-10.7003
▁ذهب	-10.7003
عبر	-10.7004
▁الوثائق	-10.7007
▁للمعارضة	-10.7007
▁تصنيع	-10.7007
▁القواعد	-10.7012
▁ايراني	-10.7012
▁بوابة	-10.7013
▁التتويج	-10.7013
▁للدور	-10.7014
▁التسوق	-10.7015
38	-10.7015
خصم	-10.7016
▁مهاجرين	-10.7016
▁استدعاء	-10.7016
▁الخطا	-10.7022
عطل	-10.7022
▁الحقيقي	-10.7022
▁للجنة	-10.7026
▁2015،	-10.7027
▁منافسه	-10.7028
▁اختتمت	-10.7033
▁الهوية	-10.7036
نزع	-10.7036
▁بنغازي	-10.7036
▁سياسات	-10.7037
▁الجليد	-10.7038
لقي	-10.7039
▁محارب	-10.7039
▁علامات	-10.7039
موقف	-10.704
▁ماكس	-10.704
انصار	-10.7042
▁الرسائل	-10.7043
▁يدعي	-10.7043
▁العنصرية	-10.7044
تورط	-10.7044
▁تنفي	-10.7045
▁2021.	-10.7045
▁ثلث	-10.7047
▁عواقب	-10.705
▁ملفات	-10.7052
العاب	-10.7058
▁تنتج	-10.7059
▁وتعرض	-10.7063
▁دوسلدورف	-10.7065
تنوع	-10.7066
▁الاسماك	-10.7067
▁المخرج	-10.7067
▁الجرحي	-10.7067
▁سال	-10.7067
قضايا	-10.7068
▁نفسي	-10.7068
▁الظاهرة	-10.7069
▁البدنية	-10.707
▁المظاهرات	-10.707
ممتلكات	-10.707
▁سيما	-10.707
▁للتحالف	-10.7073
▁المؤيد	-10.7075
▁اللون	-10.7075
▁المقاومة	-10.7076
ومي	-10.7079
▁للثقافة	-10.7081
▁ابوابها	-10.7081
▁فحوص	-10.7082
▁السلع	-10.7084
▁اور	-10.7087
▁85	-10.7087
ساك	-10.7087
▁اوقف	-10.7089
▁تردد	-10.7089
▁تربط	-10.7089
▁الانظار	-10.7094
▁اجانب	-10.7095
▁الموافق	-10.7096
اشخاص	-10.7097
▁مشاركتها	-10.7098
▁للبحث	-10.7098
مدة	-10.7099
▁سيلفا	-10.71
▁كنيسة	-10.7107
روف	-10.7107
▁تستطيع	-10.7108
▁الخمسة	-10.7108
مراجعة	-10.7111
▁المصاب	-10.7111
▁المواقف	-10.7111
▁الحبس	-10.7111
ضخ	-10.7114
خضع	-10.7116
▁ايدت	-10.7118
▁الجناح	-10.712
▁استاذ	-10.712
▁متظاهرين	-10.7121
.8	-10.7121
▁2005	-10.7121
▁تمنع	-10.7121
▁الكرواتي	-10.7124
▁الاشياء	-10.7124
▁اقبال	-10.7124
▁الابداع	-10.7124
▁بنجاح	-10.7128
▁بنشر	-10.7129
▁الخمس	-10.713
تاييد	-10.7134
▁للمراة	-10.7138
▁امم	-10.7142
▁استبعاد	-10.7144
▁باعمال	-10.7145
▁قطار	-10.7146
▁العراقيين	-10.7151
▁الضروري	-10.7151
طريق	-10.7154
▁لتصبح	-10.7156
▁جرش	-10.7157
ستين	-10.7158
▁الوعي	-10.7159
اهداف	-10.7159
▁مشاهد	-10.7165
▁النيران	-10.7165
39	-10.7168
▁المواجهة	-10.7176
▁تفعيل	-10.7177
▁تقليص	-10.7178
▁انقلاب	-10.7179
▁نفسية	-10.7181
فال	-10.7182
تشكل	-10.7182
▁جراحية	-10.7186
جماعة	-10.7186
شمال	-10.7186
▁حيدر	-10.7189
▁تخصيص	-10.7192
▁اختراق	-10.7192
لجا	-10.7193
مرحلة	-10.7197
سعد	-10.7197
تشاور	-10.7197
▁الكثيرين	-10.7202
اسلوب	-10.7202
▁التظاهرات	-10.7205
▁وشركة	-10.7205
▁ضباط	-10.7207
▁لص	-10.7209
نوم	-10.7209
احم	-10.7209
مواطن	-10.721
▁اندونيسيا	-10.7211
▁مئوية	-10.7212
ثنائي	-10.7214
اغتصاب	-10.7215
37	-10.7217
▁ترشيح	-10.7218
قوات	-10.7219
▁ادوية	-10.7226
انجاز	-10.7227
▁المقترح	-10.7228
▁للبطولة	-10.7228
▁الجبهة	-10.7229
▁واصحاب	-10.7231
باك	-10.7238
▁هار	-10.7238
يلو	-10.7239
▁القوية	-10.724
▁الشيعة	-10.7243
وافق	-10.7249
▁البد	-10.7249
▁قيم	-10.7251
▁وردا	-10.7254
▁والقوات	-10.7257
▁المؤقت	-10.7258
▁قليل	-10.7259
▁للكشف	-10.7262
▁تخلي	-10.7263
▁يفوز	-10.7269
▁مقاومة	-10.7269
▁الخاضع	-10.7271
▁السوداء	-10.7271
▁بدخول	-10.7271
تساءل	-10.7276
▁غارة	-10.7282
▁72	-10.7282
▁تضع	-10.7282
▁المشارك	-10.7283
ديم	-10.7284
عقل	-10.7285
▁التنسيق	-10.7287
▁الانتقالي	-10.7288
▁مرسوم	-10.7288
▁هيوم	-10.7289
▁الملكة	-10.729
▁بدورها	-10.729
▁التام	-10.729
▁1-	-10.7292
▁نزل	-10.7296
مريض	-10.7296
باد	-10.7297
▁شرب	-10.7297
▁الافغاني	-10.7298
▁معتبرة	-10.73
▁مخالف	-10.7302
▁تحضير	-10.7302
▁استعداده	-10.7305
صورة	-10.7306
انترنت	-10.7309
▁مدربه	-10.731
وضح	-10.7311
▁جمعة	-10.7311
▁اخبار	-10.7312
▁130	-10.7314
تسلم	-10.7314
▁مشاعر	-10.7315
▁وهما	-10.7315
▁يهودي	-10.7315
▁رياض	-10.7316
معهد	-10.7317
▁صادق	-10.7318
▁مرتبط	-10.7318
▁لافتة	-10.732
▁قائم	-10.7322
▁لغة	-10.7326
▁لمصر	-10.7328
عني	-10.733
▁كلام	-10.7331
عكس	-10.7332
▁سقطت	-10.7332
▁مغربي	-10.7335
▁يمتلك	-10.7336
▁المخيم	-10.7337
▁مفاجاة	-10.7339
▁جولي	-10.734
▁استطاع	-10.7341
98	-10.7342
▁حقيقي	-10.7348
▁مؤقت	-10.7349
▁براس	-10.735
سلطنة	-10.7354
▁هرب	-10.7356
كانت	-10.7359
ترجمة	-10.736
▁وانتقد	-10.736
موقع	-10.7361
▁عصابة	-10.7365
▁يضمن	-10.737
▁الراغبين	-10.7372
▁تطعيم	-10.7373
▁الساحلية	-10.7374
زوج	-10.7375
▁بحثا	-10.7378
▁ذكي	-10.7379
الارهاب	-10.7384
▁الاصول	-10.7386
▁مشجع	-10.7386
سمي	-10.7387
▁اتخذت	-10.7389
▁وصفته	-10.7389
استفزاز	-10.739
▁المقيمين	-10.739
تعاطف	-10.7391
▁قري	-10.7393
▁النمساوية	-10.7394
▁اعمار	-10.7395
▁الهدنة	-10.7395
▁ودفع	-10.7399
▁والمؤسسات	-10.74
▁تملك	-10.7401
▁التحكم	-10.7408
▁الاسترالي	-10.741
ابادة	-10.741
▁حراس	-10.7412
▁الاباء	-10.7414
تفاوض	-10.7417
تفاؤل	-10.742
▁حاجز	-10.742
▁سيارته	-10.7423
▁نشرها	-10.7428
قواعد	-10.7429
ظروف	-10.7429
▁المتزايد	-10.7439
عقاب	-10.7441
سيارة	-10.7443
▁فازت	-10.7444
تجمع	-10.7444
▁النقاط	-10.7447
▁تتوقع	-10.7447
▁للصحافيين	-10.745
▁الذرية	-10.7451
▁الطيار	-10.7452
لاستفادة	-10.7452
درع	-10.7453
محطة	-10.7454
بالنسبة	-10.7455
▁استعمال	-10.7455
▁تتمكن	-10.7457
▁المعترف	-10.7458
▁ثلاثين	-10.7459
▁رحلاتها	-10.7462
صعوبة	-10.7462
▁تعويض	-10.7464
▁مضاد	-10.7469
▁الكراهية	-10.747
حوار	-10.747
مفوضية	-10.7471
▁بيب	-10.7472
مدد	-10.7478
▁سكسونيا	-10.748
▁لحضور	-10.748
ستقام	-10.748
لاشتباه	-10.7483
▁موسيقي	-10.7484
▁اختار	-10.7486
▁وبناء	-10.7489
▁شاشة	-10.749
▁تهديدا	-10.7491
حرف	-10.7491
▁تركيب	-10.7491
▁تعديلات	-10.7494
▁سياسيا	-10.7495
▁بوريس	-10.7497
واتس	-10.7499
▁بارك	-10.7499
▁شعبي	-10.7505
▁السلبي	-10.7505
مسبار	-10.7508
▁اختبارات	-10.7508
توتر	-10.7509
▁للمسلمين	-10.7511
▁تستقبل	-10.7511
ئد	-10.7513
حول	-10.7514
فول	-10.7518
▁عيسي	-10.752
فلسطين	-10.7522
▁ويضيف	-10.7523
▁تسهيل	-10.7524
قوانين	-10.7525
▁السويدية	-10.7526
▁لقاحات	-10.7529
▁مازالت	-10.753
▁اجنبي	-10.7531
▁المعرفة	-10.7532
▁يلقي	-10.7533
▁لقرار	-10.7533
حيل	-10.7534
▁منافس	-10.7537
▁انتقاد	-10.7539
▁زيغمار	-10.7541
▁كاتالونيا	-10.7541
▁اشراف	-10.7541
قافلة	-10.7541
▁تاهيل	-10.7541
▁مانويل	-10.7542
طري	-10.7545
▁الفنانة	-10.7545
▁الاضطرابات	-10.7546
▁رسم	-10.7547
تكامل	-10.7548
▁وحيد	-10.7548
▁مقاطع	-10.7549
▁امور	-10.7553
امازون	-10.7553
باع	-10.7554
▁قادما	-10.7554
▁سلمي	-10.7557
▁قطاعات	-10.7558
▁سانت	-10.7561
غطي	-10.7564
▁التعديلات	-10.7569
▁الكمامات	-10.7571
▁مسلسل	-10.7574
▁تحقيقا	-10.7575
لاقي	-10.7576
▁جنديا	-10.7576
انظمة	-10.7576
▁تكريم	-10.7578
▁عطل	-10.7579
▁بالتزامن	-10.7579
▁ماذا	-10.7582
▁اتفقت	-10.7583
سلالة	-10.7589
تعافي	-10.7589
▁سفن	-10.759
▁الحادي	-10.7592
▁يتولي	-10.7593
وحدات	-10.7596
▁تسير	-10.7598
▁وايطاليا	-10.7601
▁فلسطينيين	-10.7601
▁اثنان	-10.7602
▁اوغسبورغ	-10.7602
عجل	-10.7604
▁وهل	-10.7605
هبة	-10.7607
▁التغيير	-10.761
ملتزم	-10.761
▁السائقين	-10.7613
موسيقي	-10.7614
رقص	-10.7622
▁وجنوب	-10.7627
▁تتمتع	-10.7628
▁بالغة	-10.7632
▁الطيور	-10.7633
▁المعارضين	-10.7633
وخي	-10.7633
▁2003	-10.7639
▁ولايات	-10.764
سطح	-10.764
▁معاهدة	-10.7641
▁مدرس	-10.7641
▁تفقد	-10.7642
عقوبات	-10.7644
▁تلفزيون	-10.7645
بطل	-10.7649
▁بفرض	-10.7654
جمهور	-10.7654
▁المسالة	-10.7658
تطرق	-10.7663
▁نيوزيلندا	-10.7663
▁الاعوام	-10.7663
▁خسارته	-10.7663
▁الابعاد	-10.7665
▁احسن	-10.7666
▁مراقب	-10.7667
تهما	-10.767
نيل	-10.7672
▁بالمنطقة	-10.7677
▁السائق	-10.7677
▁هان	-10.7678
▁فك	-10.7678
بوت	-10.7679
▁السر	-10.7681
▁عثرت	-10.7681
▁ثالثة	-10.7683
▁الكبد	-10.7683
65	-10.7684
▁التطبيقات	-10.7684
مليار	-10.7685
▁يمكننا	-10.7687
▁ولاعب	-10.7687
▁الصدارة	-10.7689
معرض	-10.7689
▁مبرر	-10.7689
▁54	-10.769
هدوء	-10.7692
▁اصابتها	-10.7692
▁مهدد	-10.7693
▁الصومال	-10.7693
الجمعة	-10.7694
▁الجماعية	-10.7695
▁رائع	-10.7696
▁الشراكة	-10.7697
▁التحكيم	-10.7697
هدا	-10.7699
▁للدوري	-10.77
شرق	-10.7702
▁طويلا	-10.7704
▁المنصب	-10.7706
▁الهزيمة	-10.7708
▁التراجع	-10.7708
▁تنص	-10.771
▁مخصصة	-10.771
▁يدرس	-10.771
ونغ	-10.771
▁جثث	-10.7711
▁الديموقراطي	-10.7717
نقل	-10.7717
▁صرف	-10.7718
▁معروفة	-10.772
خال	-10.7721
يورو	-10.7723
▁سنودن	-10.7725
▁كلينتون	-10.7725
▁اختفاء	-10.7726
▁حصة	-10.7727
▁والبحرين	-10.7728
▁خليجية	-10.7732
▁وسيتم	-10.7732
▁واوروبا	-10.7732
▁ينجح	-10.7735
▁يرتدي	-10.7735
89	-10.7736
▁ويتوقع	-10.7736
▁الاسترالية	-10.7737
▁جدار	-10.7738
جزيرة	-10.774
دفاع	-10.774
▁دوام	-10.7741
ريان	-10.7742
▁الحيوان	-10.7744
▁مقعد	-10.7746
▁واستخدام	-10.7746
▁حالته	-10.7748
▁مسبوق	-10.7748
▁باول	-10.7749
جماعات	-10.775
▁0	-10.7751
قضت	-10.7754
al	-10.7755
▁حربية	-10.7756
▁المتجددة	-10.7756
▁كفاءة	-10.7756
▁للاندية	-10.7757
▁روت	-10.7759
36	-10.7763
▁عمرها	-10.7765
▁شار	-10.7767
▁57	-10.7767
▁الاكتشاف	-10.7769
▁رفضه	-10.777
جتمع	-10.7772
تطوع	-10.7772
▁تطورات	-10.7773
ستو	-10.7774
كوف	-10.7775
▁الناتج	-10.778
اوات	-10.7785
عشية	-10.7787
▁بالاعدام	-10.7787
▁بطاقات	-10.7787
▁الهوائية	-10.7787
سبا	-10.7792
▁اعدام	-10.7793
▁فتحت	-10.7793
▁انتهي	-10.7795
▁حادثة	-10.7795
غياب	-10.7796
▁مقاتلين	-10.7798
▁النيل	-10.7805
▁هونغ	-10.7805
▁واضحا	-10.7806
ودع	-10.7811
▁التهديدات	-10.7814
▁ازالة	-10.7814
نظير	-10.7816
صرف	-10.7817
▁المغتربين	-10.7819
▁الهبوط	-10.7819
▁اونلاين	-10.7819
▁ميشال	-10.7819
ضيافة	-10.7819
▁شاحنة	-10.7819
▁هيكل	-10.782
▁الغنية	-10.7821
▁وفرض	-10.7822
▁النسائية	-10.7827
▁نجا	-10.7827
ساحة	-10.7832
▁يوجه	-10.7834
▁المتشدد	-10.7834
نيويورك	-10.7835
اطباء	-10.7838
▁محدد	-10.7839
▁وتيرة	-10.784
ومة	-10.7843
▁كريمة	-10.785
▁اينتراخت	-10.785
▁بالرصاص	-10.785
▁انطونيو	-10.785
▁للسعودية	-10.785
▁المسجلة	-10.785
▁تجدد	-10.785
▁رش	-10.7851
▁جولات	-10.7858
ثقة	-10.7864
فرض	-10.7866
▁يفتح	-10.7868
▁التحقق	-10.7869
▁البيئية	-10.7871
كاد	-10.7872
▁التغير	-10.7873
▁58	-10.7874
▁يرون	-10.7875
▁اماراتية	-10.7876
▁يغادر	-10.788
▁نيجيريا	-10.7881
▁للمهاجرين	-10.7882
▁يمتد	-10.7882
▁حصد	-10.7883
عترض	-10.7883
▁واسفر	-10.7884
▁يمارس	-10.7885
▁العلوم	-10.7886
▁خادم	-10.7886
▁ووصفت	-10.7887
▁لاس	-10.789
▁والازمات	-10.7893
▁متخصص	-10.7894
▁الاميركيين	-10.7894
▁بحل	-10.79
re	-10.7901
ماس	-10.7902
رمز	-10.7903
▁جهادي	-10.7912
▁تركز	-10.7912
▁الشتوية	-10.7913
▁الاركان	-10.7913
خارطة	-10.7914
▁النجوم	-10.7915
▁سلبية	-10.7917
▁التجول	-10.7919
▁اعماله	-10.792
صمم	-10.7922
▁كارثة	-10.7927
▁53	-10.7928
▁ذو	-10.793
▁لسان	-10.7933
كسيد	-10.7936
▁مكون	-10.7943
▁الفلبين	-10.7945
شبورت	-10.7947
▁السليم	-10.7948
▁السيدة	-10.7949
▁وحث	-10.7955
▁مزود	-10.7956
محاسبة	-10.7958
▁منتدي	-10.7959
▁تونسي	-10.7959
▁قولها	-10.7959
حلق	-10.796
▁البشري	-10.7961
راع	-10.7962
▁وعاد	-10.7963
لور	-10.7964
▁اعتمدت	-10.7964
انتهاك	-10.7967
▁مشاهدة	-10.7968
▁كين	-10.797
▁الكهربائي	-10.797
▁لبيع	-10.7979
▁الروس	-10.798
فوكوس	-10.7986
▁تقدما	-10.7987
▁مسؤوليتها	-10.7987
شاد	-10.7989
▁الضرورية	-10.7991
▁المهام	-10.7992
▁اجتماعية	-10.7992
▁خوض	-10.7994
▁الاكاديمية	-10.7995
▁مهاجرا	-10.7998
▁صعد	-10.7999
▁عائلات	-10.8
▁الايجابية	-10.8003
قاد	-10.8003
▁رقما	-10.8008
▁مشواره	-10.8008
▁بتسجيل	-10.8008
تقوية	-10.8011
▁واع	-10.8012
▁تنسيق	-10.8015
▁حملت	-10.8018
▁معلم	-10.8019
▁متطرف	-10.8019
▁بعقد	-10.802
خصص	-10.802
زيم	-10.8021
باقي	-10.8025
مهمة	-10.8027
نوع	-10.8028
▁كنا	-10.8031
واشنطن	-10.8032
▁البرتغال	-10.8036
▁المستقبلية	-10.8036
▁قدرها	-10.8037
العربية	-10.8038
▁الهاشمي	-10.804
▁ساركوزي	-10.804
▁للارصاد	-10.804
ضوابط	-10.804
▁تايلاند	-10.804
▁صارمة	-10.804
▁ثقافة	-10.8041
▁الاستعداد	-10.8043
▁الاسهم	-10.8043
▁المحتملة	-10.8044
▁الصعيد	-10.8044
▁مضي	-10.8045
▁الزلزال	-10.8053
صير	-10.8054
▁نادرة	-10.8059
شبيغل	-10.8059
بوس	-10.806
معالجة	-10.8062
▁للبيئة	-10.8062
▁العقوبة	-10.8062
▁قميص	-10.8064
▁غسل	-10.8065
▁الفنادق	-10.8067
▁لحساب	-10.807
”	-10.8072
▁ميشائيل	-10.8072
▁الاطفاء	-10.8072
▁بمقتل	-10.8073
نيو	-10.8074
▁هاتفيا	-10.8075
▁دقيق	-10.8082
▁الجهادي	-10.8083
تركز	-10.8086
▁العمالة	-10.8088
تدرب	-10.8092
خطوة	-10.8092
عطاء	-10.8092
▁a	-10.8093
▁الفوري	-10.8096
▁الاوراق	-10.8097
وفيتش	-10.8098
▁تشن	-10.8101
اخت	-10.8103
▁الدعوي	-10.8104
▁وتستمر	-10.8104
▁بالقدس	-10.8104
▁السفلي	-10.8104
▁الخام	-10.8106
▁غرف	-10.811
▁الاخبارية	-10.8113
▁بمعدل	-10.8116
▁المدرسية	-10.8118
▁دان	-10.8118
▁السباحة	-10.8119
تعدي	-10.8119
▁اجرتها	-10.8121
سوبر	-10.8121
▁حتا	-10.8124
▁الصحفية	-10.8124
▁نريد	-10.8125
▁لحم	-10.8125
تصوير	-10.8126
اخبار	-10.8126
غضب	-10.813
حصن	-10.8132
▁سلبي	-10.8134
▁ببعض	-10.8136
▁اليورانيوم	-10.8137
▁الحاصل	-10.8137
▁مسيحي	-10.8137
تطهير	-10.8137
42	-10.8139
ئن	-10.8139
شان	-10.8142
اليوم	-10.8142
▁بيساعد	-10.8142
▁الموعد	-10.8147
▁ذكره	-10.8148
▁افكار	-10.8149
▁مضادة	-10.8149
▁المعتاد	-10.815
▁الحشد	-10.8153
▁وبات	-10.8154
▁تفتح	-10.8155
▁لتامين	-10.8156
انخفاض	-10.8158
▁لبرنامج	-10.8158
تدهور	-10.8159
خام	-10.8161
▁يخطط	-10.8162
▁ويجب	-10.8162
▁العميق	-10.8163
▁معظمهم	-10.8167
▁بمقدار	-10.8169
▁للاسلام	-10.8171
▁الباكستانية	-10.8173
▁بنفسه	-10.8173
▁زرع	-10.8174
▁اقامته	-10.8175
لوزراء	-10.8176
▁الازهر	-10.8178
▁اللعبة	-10.8178
▁سجله	-10.8178
▁القتالية	-10.8185
▁صد	-10.8185
▁طموح	-10.8187
تمركز	-10.8188
▁لقوا	-10.8189
▁والاردن	-10.819
معتدل	-10.8194
تداول	-10.8194
▁حدودها	-10.8194
اعتبار	-10.8199
▁سواحل	-10.8202
▁والاخر	-10.8202
▁كيماوية	-10.8202
▁البعثة	-10.8203
▁بمقر	-10.8203
▁فترات	-10.8204
جديد	-10.8204
▁اجرت	-10.8204
▁الانتحاري	-10.8204
▁الدوام	-10.8206
▁للعودة	-10.8207
▁راسها	-10.8208
▁التدابير	-10.8209
جولة	-10.8212
عراق	-10.8217
▁انضم	-10.8222
▁الاحتياطي	-10.8223
▁نبيل	-10.8223
▁يقتل	-10.8225
▁المؤسس	-10.8227
▁روب	-10.8228
▁النبات	-10.8228
▁عجز	-10.8229
خلل	-10.8232
▁سفارة	-10.8234
ليم	-10.8234
▁بالزام	-10.8235
▁وطني	-10.8235
.2	-10.8236
▁نووي	-10.8237
▁بسجن	-10.8243
لاجئ	-10.8244
▁تعلق	-10.825
▁اوامر	-10.825
▁لاجل	-10.8253
▁تصادم	-10.8254
47	-10.8254
▁اقالة	-10.8254
اراضي	-10.8259
▁للنساء	-10.8259
▁الافتراضي	-10.8264
▁لاست	-10.8265
▁مؤيد	-10.8266
▁الاحتجاج	-10.8267
▁وجري	-10.8269
ائز	-10.827
▁ناد	-10.827
▁ينتهي	-10.8271
▁الانظمة	-10.8271
طاقة	-10.8272
▁اقناع	-10.8278
▁المجتمعية	-10.8285
▁مصمم	-10.8287
رتبة	-10.8289
▁جواز	-10.8289
انتشار	-10.8296
▁محدود	-10.8296
▁العصبي	-10.8297
شبكة	-10.8298
▁التجميل	-10.83
▁البطالة	-10.83
▁لليوم	-10.83
▁تكفل	-10.8301
▁دوافع	-10.8303
▁النقض	-10.8304
▁متطرفة	-10.8305
▁السي	-10.8306
▁العادية	-10.8312
▁مبكرا	-10.8313
تعاطي	-10.8314
▁الفحوص	-10.8315
ربو	-10.8319
▁للشعب	-10.8319
▁الفائزين	-10.832
ستضيف	-10.8321
▁وقامت	-10.8322
مشاكل	-10.8326
▁الاساس	-10.8326
شيد	-10.833
▁تظاهرة	-10.8331
▁مركزا	-10.8331
▁التوقعات	-10.8333
▁مبتكرة	-10.8333
▁الاعراض	-10.8336
▁كثيرون	-10.8336
▁جبال	-10.8339
▁وحده	-10.8342
▁انذار	-10.8343
▁ابتكار	-10.8344
▁حديثا	-10.8349
▁تشي	-10.8352
▁والحكومة	-10.8353
▁جدل	-10.8354
▁القاب	-10.8355
وثق	-10.8355
▁السرية	-10.8355
▁وحمل	-10.8356
▁المهنية	-10.8356
تاخر	-10.8359
▁متابع	-10.836
▁صعوبات	-10.8361
السماح	-10.8362
_	-10.8365
▁لتدريب	-10.8365
▁صفقات	-10.8366
▁خض	-10.8374
▁البلجيكية	-10.8374
▁الاعتقال	-10.8375
▁يحتفل	-10.8375
▁العناية	-10.8375
▁يفترض	-10.8376
▁وقاد	-10.8377
سما	-10.8378
قاطع	-10.8379
▁2017.	-10.8382
▁الليبرالي	-10.8387
▁الضباب	-10.8389
▁ضحية	-10.8392
▁الازرق	-10.8396
▁انعقاد	-10.8397
▁القديم	-10.8399
▁ابتكر	-10.8399
▁منتجع	-10.8399
▁جرمان	-10.8401
ساند	-10.8403
▁زائر	-10.8404
▁2004	-10.8404
▁الجد	-10.8405
▁زوار	-10.8406
▁عضوية	-10.8407
▁شتي	-10.8408
▁تدريجيا	-10.841
▁نجل	-10.8415
▁بلادها	-10.8415
تعليم	-10.8416
▁يقرب	-10.8416
▁افريقية	-10.842
▁تعبيره	-10.842
الاحد	-10.8422
▁طرحت	-10.8424
العديد	-10.8424
▁سهل	-10.8428
▁استقبلت	-10.8431
▁اتمام	-10.8432
حرج	-10.8433
▁للطلبة	-10.8433
▁لتكون	-10.8434
▁المنزلية	-10.8435
▁اهالي	-10.8435
▁اري	-10.8441
▁للعلوم	-10.8446
▁بيانا	-10.8448
▁باست	-10.8449
▁يطالبون	-10.8454
▁النازي	-10.846
خفر	-10.846
مدارس	-10.8464
اشتراطات	-10.8465
▁مواعيد	-10.8465
▁يعطي	-10.8465
▁كسر	-10.8466
en	-10.8466
▁اشعار	-10.8468
ادراك	-10.847
مجال	-10.8472
▁بتطبيق	-10.8475
▁تحذيرات	-10.8476
حكيم	-10.8477
▁مؤقتة	-10.8478
بيد	-10.848
▁الصاروخ	-10.8481
▁التوقيع	-10.8481
▁مكاتب	-10.8483
سرطان	-10.8487
رسوم	-10.8491
سمة	-10.8492
▁الكروية	-10.8493
▁اسطورة	-10.8494
▁الفرع	-10.8494
▁المحافظين	-10.8497
▁مقترح	-10.8498
▁انقطاع	-10.8498
تالق	-10.8498
▁الجماعي	-10.8498
▁حكومات	-10.8499
يغر	-10.8499
▁يناقش	-10.8499
▁الجولان	-10.8501
جمل	-10.8504
▁الطويلة	-10.8504
▁البرازيلية	-10.8505
تسارع	-10.8507
▁نائبا	-10.8507
▁لكنهم	-10.851
روك	-10.8511
▁عميق	-10.8512
▁شبان	-10.8518
▁كلمته	-10.8519
▁2017،	-10.8521
▁المسلح	-10.8526
تضامن	-10.8526
▁وراي	-10.8526
▁المطاعم	-10.8532
▁والفلسطينيين	-10.8532
لوس	-10.8533
▁المتميز	-10.8536
▁نيو	-10.8541
▁جهودها	-10.8542
ضطر	-10.8543
▁المطل	-10.8545
▁العملاء	-10.8547
▁حاولت	-10.8547
▁جدير	-10.8549
▁فيكتور	-10.855
▁بيك	-10.855
▁بوسط	-10.8553
معظم	-10.8559
راج	-10.856
توسع	-10.8562
▁هانز	-10.8563
100	-10.8564
▁المتطرفين	-10.8566
▁الناشئة	-10.8566
▁العريض	-10.8566
▁طارئ	-10.8566
▁ترغب	-10.8566
حيازة	-10.8566
▁سامي	-10.8568
▁واصبح	-10.8569
▁انجيلا	-10.8569
▁اوسع	-10.8571
مهرجان	-10.8571
استئناف	-10.8572
تقاسم	-10.8573
▁ابرام	-10.8573
▁اجبر	-10.8573
دود	-10.8574
تراكم	-10.8576
▁للسيدات	-10.8579
▁الجارية	-10.8583
▁الرؤية	-10.8585
درجات	-10.8585
▁توضح	-10.859
▁عرضا	-10.8591
▁مطلوب	-10.8591
▁ماسن	-10.8592
▁وعرض	-10.8593
▁كوبا	-10.8594
▁اصدرته	-10.8596
الارصاد	-10.86
▁الاولمبي	-10.86
▁بالفوز	-10.86
▁تنتظر	-10.8601
▁السعادة	-10.8601
▁دعمها	-10.8602
تخريب	-10.8602
▁السلم	-10.8605
▁شت	-10.8605
▁هام	-10.8607
تحسن	-10.8609
▁الانقلابية	-10.8611
بروك	-10.8615
تنسيق	-10.8615
▁نصب	-10.8617
ليل	-10.862
احتيال	-10.862
▁غريب	-10.8622
▁المتحف	-10.8622
▁يقلل	-10.8623
▁فرح	-10.8625
▁ممثلين	-10.8625
ارشادات	-10.8626
▁لوس	-10.8627
▁منظم	-10.8631
▁الكاتالوني	-10.8633
▁عبدالرحمن	-10.8633
▁النفايات	-10.8633
▁وتحسين	-10.8633
▁لقطاع	-10.8633
▁المخالفات	-10.8634
▁الشريعة	-10.8634
▁البصر	-10.8635
▁بدقة	-10.8636
جمارك	-10.8637
▁بصفته	-10.8638
يهود	-10.8639
بيس	-10.864
حساس	-10.8643
اعتقاد	-10.8644
.3	-10.8653
▁فيلت	-10.8655
▁المختص	-10.8658
▁خفيفة	-10.8659
▁مختبر	-10.8664
صادم	-10.8664
▁صح	-10.8665
▁تؤ	-10.8666
▁العالية	-10.8666
▁المستخدمة	-10.8667
▁السياحي	-10.8667
▁الاستجابة	-10.8667
▁ودية	-10.8669
▁مقبول	-10.867
▁تواصلت	-10.8671
ضيق	-10.8672
▁تفاقم	-10.8674
اصرار	-10.8675
▁بتهم	-10.8678
▁وبهذا	-10.8679
كام	-10.868
▁رياضة	-10.8681
▁نوري	-10.8681
قاليد	-10.8688
▁وحدها	-10.869
55	-10.869
▁عبرت	-10.8691
▁بشرية	-10.8692
▁حسابها	-10.8697
كوس	-10.8697
▁المسار	-10.8699
▁غال	-10.8699
▁الامان	-10.8699
▁قنوات	-10.8702
▁تنشر	-10.8702
▁الساحرة	-10.8702
▁وامن	-10.8702
خلاص	-10.8704
72	-10.8707
سوري	-10.8707
▁المفاجئ	-10.871
▁السيدات	-10.8711
▁متجر	-10.8711
ضارب	-10.8711
سكا	-10.8714
▁فنادق	-10.8716
▁بفعل	-10.8718
▁بالارهاب	-10.8719
▁تشجيع	-10.872
▁جزر	-10.872
▁الاكتئاب	-10.872
▁وتحقيق	-10.8722
▁2-	-10.8724
تقاعد	-10.8725
88	-10.8726
▁صوب	-10.8726
▁سياحية	-10.8728
▁وكتبت	-10.8733
عقاقير	-10.8736
▁للاشخاص	-10.8736
▁الصربي	-10.8738
▁احالت	-10.8738
جماع	-10.874
غذاء	-10.874
▁اشارات	-10.8741
يمكن	-10.8741
▁ابنته	-10.8743
▁اقترح	-10.8743
▁الهولندية	-10.8744
بوينغ	-10.8745
74	-10.8747
▁لخوض	-10.8748
▁ربه	-10.8749
▁ديوان	-10.8751
فرح	-10.8752
▁ارسل	-10.8755
▁تلفزيونية	-10.8766
تعريف	-10.8768
▁تحد	-10.877
▁هبوط	-10.877
▁واصفا	-10.8771
▁ارضه	-10.8771
▁صناديق	-10.8772
▁الضحية	-10.8772
بدع	-10.8773
تفاعل	-10.8774
▁عرضت	-10.8776
▁مختص	-10.8777
▁القطارات	-10.8777
▁امرت	-10.8781
▁ابواب	-10.8781
▁نداء	-10.8782
▁تتولي	-10.8782
▁اتاح	-10.8787
▁قواتها	-10.8789
مبيا	-10.879
▁الحقوقية	-10.8795
فيديو	-10.8797
▁اصغر	-10.8797
▁الكويتي	-10.8797
▁ضبطت	-10.88
▁القراءة	-10.8801
▁الاممي	-10.8802
▁مسكن	-10.8804
▁الركن	-10.8809
▁ساحل	-10.8809
▁مميز	-10.8811
ركيز	-10.8813
▁يشغل	-10.8814
▁بموجبه	-10.8815
قاص	-10.8822
85	-10.8822
▁59	-10.8822
▁افتتحت	-10.8822
▁المعايير	-10.8823
▁السجناء	-10.8826
▁القصيرة	-10.8827
▁والتكنولوجيا	-10.8833
▁خمسين	-10.8837
ارتداء	-10.8837
▁قفز	-10.8838
تغيير	-10.8838
▁لتركيا	-10.8838
▁كاميرون	-10.8839
▁ثابت	-10.8839
▁التصرف	-10.8844
▁علقت	-10.8848
▁البلدة	-10.885
تاب	-10.8852
▁ضيفا	-10.8858
▁حينها	-10.8859
▁تعافي	-10.8863
ساء	-10.8864
▁صدمة	-10.8864
▁#	-10.8864
▁السيد	-10.8865
▁يحظي	-10.8867
▁تتواصل	-10.8869
▁جذب	-10.8872
▁المرافق	-10.8874
▁مرافق	-10.8874
▁نوير	-10.8875
▁انفجرت	-10.8875
▁قلقه	-10.8876
▁الثنائية	-10.8879
▁هاتفية	-10.8884
▁2001	-10.8888
ولوجي	-10.889
▁احدهم	-10.8891
تعادل	-10.8892
▁بمنع	-10.8893
حزام	-10.8894
▁محب	-10.8904
خلال	-10.8908
تدفق	-10.8908
واني	-10.8909
▁البيولوجي	-10.8909
▁المثيرة	-10.8909
ميدالية	-10.8909
مبتكر	-10.891
▁والسياحة	-10.8912
▁يفعل	-10.8912
▁البيع	-10.8913
قض	-10.8913
▁استبعد	-10.8913
▁اجلاء	-10.8914
▁مخرج	-10.8918
▁مصرع	-10.8922
بته	-10.8922
▁الفئات	-10.8922
▁اقارب	-10.8923
▁(3	-10.8926
▁العملاق	-10.8928
اهتمام	-10.8931
▁1500	-10.8935
▁الكبار	-10.8935
▁اوردت	-10.8936
▁زيت	-10.8938
▁سيل	-10.8938
احياء	-10.8939
▁لمس	-10.8939
الثلاثاء	-10.894
ترجم	-10.8942
▁فلوريدا	-10.8944
▁اللحوم	-10.8945
استشارات	-10.8945
ورا	-10.8945
▁اجرته	-10.8946
▁اجاب	-10.8947
▁المرئي	-10.8947
حلول	-10.8949
متعة	-10.895
▁مطر	-10.8952
▁الجهاديين	-10.8954
▁المسيرة	-10.8957
▁توعية	-10.8958
تناقض	-10.8958
▁جنسيات	-10.8966
▁المشروبات	-10.8968
▁يحاولون	-10.8968
تشو	-10.8969
قاض	-10.897
▁العروض	-10.8972
▁بضرب	-10.8973
▁56	-10.8974
▁صيد	-10.8975
▁الاغلبية	-10.8979
▁يحضر	-10.8979
هدم	-10.898
▁ميزير	-10.898
▁افراح	-10.898
الكثير	-10.8981
▁يطرح	-10.8981
اضرار	-10.8981
شريك	-10.8982
انفجار	-10.8984
▁الدائر	-10.8985
▁تنشط	-10.8987
▁المعدة	-10.8989
▁ثلاثية	-10.8993
▁اقترب	-10.8994
مسلم	-10.8995
▁الاثرية	-10.8997
تخصص	-10.8997
زيف	-10.8997
▁تجاوزت	-10.8999
▁العسكريين	-10.9
زرع	-10.9001
▁لبايرن	-10.9001
▁حبس	-10.9003
▁الريف	-10.9003
▁وسن	-10.9004
شرط	-10.9005
96	-10.9011
▁تدير	-10.9012
▁شوماخر	-10.9014
▁ضريبة	-10.9014
▁الوجبات	-10.9014
▁الوزاري	-10.9014
قنابل	-10.9015
▁النصائح	-10.9015
سخرية	-10.9017
▁الشيعي	-10.9019
وفاة	-10.9019
▁وطن	-10.9025
▁قرن	-10.9025
▁والرياض	-10.9025
▁تلقو	-10.9026
▁لتصل	-10.9029
▁هال	-10.903
▁اطلقها	-10.9033
▁ساهم	-10.9035
▁وتحدث	-10.9036
▁توضيح	-10.9037
▁الممارسات	-10.9039
▁تعويضا	-10.904
▁المحافظات	-10.9041
▁2013.	-10.9043
▁ولفت	-10.9043
تحقيق	-10.9046
سلسلة	-10.9047
▁ابي	-10.9048
▁سول	-10.9049
تهرب	-10.9049
▁الشغب	-10.905
▁اختلاف	-10.905
▁ميت	-10.9052
شتبه	-10.9053
▁2023	-10.9053
▁ولهذا	-10.9054
▁صدام	-10.9059
▁عبوة	-10.9059
▁ماريا	-10.9065
▁دعوات	-10.9067
86	-10.9067
وبل	-10.9067
▁الواحدة	-10.9069
▁واعتبرت	-10.907
▁تحولت	-10.9073
يتو	-10.9074
▁استثنائية	-10.9076
نتشر	-10.9076
▁الاضواء	-10.9085
▁الغضب	-10.9085
ادنوك	-10.9086
▁الطرف	-10.909
▁هير	-10.9091
الحفاظ	-10.9092
▁الدائم	-10.9092
حدائق	-10.9092
اوروبي	-10.9094
▁تقريرا	-10.9096
▁سائح	-10.9097
قفز	-10.9097
▁ابعاد	-10.9098
▁دوما	-10.9099
▁والبحث	-10.91
▁لتلقي	-10.9101
جمعية	-10.9103
▁للشركة	-10.9104
▁يعيد	-10.9106
تكون	-10.9106
ضيع	-10.9109
▁السلط	-10.9109
▁للمنظمة	-10.9109
حمية	-10.9113
▁اخراج	-10.9113
▁انتشرت	-10.9115
نزول	-10.9116
▁ادراج	-10.912
▁الفلوجة	-10.912
▁الناتو	-10.9121
▁واردف	-10.9123
▁العامل	-10.9124
▁قلة	-10.9124
▁منتظم	-10.9126
▁الاستثمارات	-10.9126
▁50%	-10.9127
▁عاجل	-10.9127
▁اخصائي	-10.9129
عدد	-10.913
▁الزي	-10.9131
▁عبيد	-10.9133
طار	-10.9133
▁برد	-10.9138
▁يتوجه	-10.9138
▁حرة	-10.9141
لميليشيات	-10.9143
▁نهج	-10.9144
▁جدة	-10.9144
▁البيض	-10.9145
▁مواطنيها	-10.9145
كارثي	-10.9148
▁للقضاء	-10.9148
انشطة	-10.9149
عروض	-10.915
مؤشر	-10.9154
▁حافظ	-10.9155
▁لاحتواء	-10.9156
▁شاطئ	-10.9156
▁زملائه	-10.9156
▁الوسائل	-10.9157
اختلاف	-10.9158
▁انتقالية	-10.9161
le	-10.9162
▁السفن	-10.9162
▁علني	-10.9163
▁زادت	-10.9164
وعي	-10.9165
▁المعدل	-10.9165
▁يعادل	-10.9167
بيض	-10.9168
▁رحلته	-10.9169
▁ليون	-10.917
▁ومر	-10.9171
▁الاستقالة	-10.9179
▁لمشروع	-10.9179
▁يوافق	-10.9181
ملاك	-10.9184
▁التوترات	-10.9189
رول	-10.9191
▁ضخم	-10.9194
▁لشن	-10.9196
▁يتناول	-10.9197
▁مرفا	-10.9201
▁طريقها	-10.9202
▁ساعد	-10.9203
جنود	-10.9207
▁الاسبوعية	-10.9208
بايرن	-10.9208
▁للجمهور	-10.921
سبورغ	-10.9211
▁ملابسات	-10.9213
▁الريال	-10.9213
▁للتواصل	-10.9214
▁ناديه	-10.9214
▁وليد	-10.9215
▁وكمان	-10.9215
▁القيم	-10.9216
▁اليهودية	-10.9217
▁لواء	-10.922
الاقتصاد	-10.9221
▁مهمته	-10.9221
77	-10.9223
▁القريب	-10.9225
▁اكل	-10.9227
▁الصحراوي	-10.9228
▁الضرائب	-10.9228
▁كركوك	-10.9228
تعايش	-10.9229
▁متعلق	-10.9229
▁شاركوا	-10.9229
▁المتاحة	-10.923
▁شفاء	-10.923
▁عوامل	-10.9231
▁التاكيد	-10.9233
▁المطارات	-10.9235
▁الذاتي	-10.9236
▁لاخر	-10.9237
رسالة	-10.9239
حوم	-10.924
▁العمومية	-10.9242
▁مزاد	-10.9243
▁2-1	-10.9243
▁المستشارية	-10.9248
▁ومحمد	-10.9248
▁الكردي	-10.9249
▁الذاكرة	-10.9249
اهانة	-10.925
▁يتلقي	-10.9252
صلاح	-10.9252
▁ديمقراطي	-10.9253
▁بوزارة	-10.9255
اثناء	-10.9261
▁حديثه	-10.9261
▁ميانمار	-10.9264
اغتيال	-10.9264
▁كوادر	-10.9264
اسقاط	-10.9265
▁التعذيب	-10.9268
▁العيش	-10.9271
صيب	-10.9271
▁الكويتية	-10.9271
▁بلوغ	-10.9272
▁بالتوقيت	-10.9273
▁صعود	-10.9273
▁وينصح	-10.9277
▁وارتفاع	-10.9277
▁للتعاون	-10.9278
تعديل	-10.9281
▁جهد	-10.9281
▁وضمان	-10.9282
معاقبة	-10.9283
▁قارب	-10.9283
▁نتائجها	-10.9284
▁للتصدي	-10.9287
▁النظامية	-10.9287
مواجهة	-10.9288
▁لوزير	-10.929
▁بنقل	-10.9292
▁الجوف	-10.9293
▁احتفال	-10.9294
▁كيميائية	-10.9295
▁انفصال	-10.9297
▁64	-10.93
▁باتخاذ	-10.93
▁تخزين	-10.93
▁قليلا	-10.9302
▁الشرطي	-10.9302
▁المسبب	-10.9302
▁اعفاء	-10.9302
ادية	-10.9302
▁اتراك	-10.9303
▁تجسس	-10.9303
▁اسرائيليين	-10.9304
▁سنتين	-10.9306
▁الحدودي	-10.9314
▁جيمس	-10.9316
مباراة	-10.9316
▁مزاعم	-10.9319
▁تفادي	-10.9321
ائف	-10.9324
▁بالاتفاق	-10.9324
▁تحظي	-10.9324
▁سبورت	-10.9325
▁صيني	-10.9326
عنصر	-10.9327
▁قادت	-10.9331
▁يقودها	-10.9332
▁الاعتبار	-10.9335
‏	-10.9337
▁الذراع	-10.9337
▁الواقي	-10.9338
▁صحته	-10.9338
▁غول	-10.9342
▁بطول	-10.9342
تعدد	-10.9343
▁مماثل	-10.9345
▁صدم	-10.9345
ملابس	-10.9347
تجربة	-10.9347
مشاريع	-10.9347
▁كيل	-10.9347
ستكون	-10.9347
▁الحاد	-10.9353
خدم	-10.9353
▁ونحن	-10.9354
▁الانجاز	-10.9355
▁خاصا	-10.9357
اوراق	-10.9357
▁يتسن	-10.9357
محاكمة	-10.936
▁السمك	-10.9366
ديمقراطية	-10.9367
▁للاتصالات	-10.9368
▁دينية	-10.937
خسر	-10.9371
لدينا	-10.9372
تطبيق	-10.9373
▁رواتب	-10.9373
▁اولمبياد	-10.9374
▁ارتكبت	-10.9374
▁الستار	-10.9375
▁مقاتلات	-10.9375
صغر	-10.9377
▁بالدولة	-10.9378
تبلغ	-10.9378
▁ذهبية	-10.9378
▁المعسكر	-10.9381
▁التحضير	-10.9382
▁التحدي	-10.9382
▁ينتمو	-10.9383
عشرات	-10.9384
▁ادان	-10.9386
▁روز	-10.9387
▁للجميع	-10.9388
▁العرق	-10.9392
▁بعين	-10.9393
ar	-10.9393
▁خرجت	-10.9395
كذب	-10.9395
▁قاع	-10.9396
▁بديل	-10.9396
▁والمجتمع	-10.9402
وزير	-10.9402
قرض	-10.9403
▁معاملة	-10.9404
ساس	-10.9406
▁تهم	-10.9407
▁تنظيف	-10.941
▁يصعب	-10.941
▁مساعي	-10.941
▁لخدمات	-10.941
▁الهام	-10.941
▁مبابي	-10.9411
ذات	-10.9416
▁معمر	-10.9418
▁يتقدم	-10.942
توافر	-10.9421
ائتلاف	-10.9421
▁قار	-10.9422
▁سما	-10.9424
رار	-10.9425
▁تعليقات	-10.9429
▁للنادي	-10.943
▁يصف	-10.9431
غالي	-10.9433
▁(4	-10.9433
▁دولارا	-10.9434
▁امطار	-10.9435
▁مفاجئة	-10.944
عربي	-10.9442
400	-10.9443
31	-10.9443
سلطة	-10.9443
▁البروفيسور	-10.9447
▁والكوارث	-10.9447
تطبيع	-10.9447
▁لهجمات	-10.9447
▁سكانها	-10.9448
▁هيرتا	-10.9449
▁توسع	-10.9449
▁توخل	-10.9449
▁ويبلغ	-10.9452
جسم	-10.9454
▁الداخل	-10.9455
نسخ	-10.9455
▁تدور	-10.9455
▁الشقيق	-10.9457
▁اصلاحات	-10.9463
▁اذن	-10.9463
▁فخ	-10.9464
▁وجدت	-10.9467
▁حكمت	-10.9471
.9	-10.9473
صناع	-10.9473
▁ينس	-10.9479
▁توظيف	-10.948
▁فعالة	-10.9481
▁اشتون	-10.9484
▁الدنمارك	-10.949
▁المنتدي	-10.9491
▁سب	-10.9492
▁سليمان	-10.9495
▁حرم	-10.9496
ريادة	-10.9497
رقابة	-10.9497
▁مجانية	-10.9501
▁المصابة	-10.9501
▁ايف	-10.9503
ثور	-10.9504
خاطب	-10.9505
▁ابلغت	-10.9506
فرنسا	-10.9508
▁يلجا	-10.951
▁عاجلة	-10.9515
▁الالم	-10.9516
▁لوكا	-10.9518
▁مليوني	-10.952
▁لاتخاذ	-10.9521
▁ميستورا	-10.9521
▁تاشيرة	-10.9521
▁ذمة	-10.9521
▁تصفيات	-10.9521
▁تراس	-10.9523
ديس	-10.9523
▁فبعد	-10.9524
▁جلسته	-10.9526
جمعيات	-10.9526
▁الحصار	-10.9527
حساسية	-10.9529
كبر	-10.9529
قاوم	-10.953
▁ينقل	-10.953
حاسب	-10.9532
زهر	-10.9533
▁مطلق	-10.9533
▁مساعدته	-10.9533
▁الحم	-10.9534
▁المقام	-10.9537
▁عثمان	-10.9537
▁مسجل	-10.9538
94	-10.9538
▁وقدم	-10.954
▁ارينا	-10.9541
تدمير	-10.9545
▁مبدا	-10.9546
▁استعدادات	-10.9546
تاهب	-10.9547
▁المعركة	-10.9549
▁يفكر	-10.955
▁وتنظيم	-10.9552
▁فلسطينيا	-10.9557
▁الزائد	-10.9558
▁البطولات	-10.9558
▁الحضور	-10.9558
▁والمقيمين	-10.9558
▁زونتاغ	-10.9558
▁يزداد	-10.9558
تشمل	-10.9558
▁باليوم	-10.9559
▁المطالبة	-10.9562
▁رئاسية	-10.9562
▁الميت	-10.9563
فورمولا	-10.9564
▁الرابطة	-10.9566
▁نجله	-10.9566
▁يحملون	-10.9568
▁الوزيرة	-10.9569
اعتراف	-10.9571
تماشيا	-10.9571
ثورة	-10.9572
▁ارتباط	-10.9572
▁للتنمية	-10.9572
مياه	-10.9573
نسون	-10.9573
▁للعب	-10.9573
▁رموز	-10.9576
▁وردت	-10.9577
▁طعام	-10.9578
▁تصريحاته	-10.9579
حرب	-10.9581
▁الفئران	-10.9582
▁لعقد	-10.9583
▁لادن	-10.9584
▁لموسم	-10.9586
▁يحب	-10.9587
▁والنساء	-10.9591
▁ذكرته	-10.9594
▁الاشغال	-10.9595
▁متطلبات	-10.9595
▁وصفها	-10.9596
▁غريبة	-10.9596
▁وبيخلي	-10.9597
▁بيرن	-10.9597
71	-10.96
▁السجائر	-10.96
▁تشخيص	-10.96
تذكر	-10.9601
▁مناهضة	-10.9604
ضمان	-10.9604
جمال	-10.9609
▁السلمي	-10.961
▁c	-10.9614
معدات	-10.9621
▁ويشارك	-10.9624
التخلص	-10.9627
ملف	-10.9628
ئت	-10.9628
▁رضا	-10.9629
z	-10.9632
▁موقعه	-10.9633
▁الحرائق	-10.9635
▁التقنيات	-10.9638
ليت	-10.9638
66	-10.9639
▁الديون	-10.9641
▁جماعي	-10.9645
نقص	-10.9646
▁التزامها	-10.9649
ستثمر	-10.9652
▁امريكيون	-10.9653
▁سلم	-10.9657
▁يفرض	-10.9657
▁توفيت	-10.9657
▁الجامعية	-10.9658
▁اداري	-10.966
▁اثبات	-10.9661
▁تخطط	-10.9662
▁بالدوري	-10.9662
▁تبعد	-10.9662
تمكين	-10.9663
كود	-10.9666
▁61	-10.9667
جبل	-10.9667
▁احتجاج	-10.9668
▁الاعصاب	-10.967
▁النيابية	-10.967
▁ريبيري	-10.967
▁الفدرالي	-10.967
ايرباص	-10.967
▁يتصدر	-10.967
▁الحافلة	-10.9671
▁وترك	-10.9671
▁ارضية	-10.9674
▁ادوارد	-10.9674
▁ملزم	-10.9675
▁تعاقد	-10.9676
وتي	-10.9676
▁الخطاب	-10.9678
▁مطارات	-10.968
▁الفرار	-10.968
اكو	-10.9682
▁رود	-10.9687
▁الشروط	-10.9688
غرفة	-10.9691
برامج	-10.9693
▁بالسرطان	-10.9696
▁للارهاب	-10.9696
▁موقفه	-10.9697
▁التالية	-10.9697
▁قالوا	-10.9697
▁والاطفال	-10.9697
▁يعبر	-10.9699
▁شهريا	-10.97
▁ضرورية	-10.97
▁ميلاد	-10.9702
▁اذاعة	-10.9703
▁انطلاقا	-10.9703
▁الاختبارات	-10.9704
▁قابل	-10.9706
▁للانضمام	-10.9708
▁لنحو	-10.9708
▁سهلة	-10.9709
▁والتجارة	-10.9709
▁موظفين	-10.971
76	-10.9711
▁منحت	-10.9712
قنصل	-10.9714
▁راكب	-10.9714
▁والمح	-10.9714
▁القرية	-10.9717
▁الاصل	-10.9719
فخر	-10.9722
▁اعلاميا	-10.9722
قاعدة	-10.9723
83	-10.9725
فوكس	-10.9725
▁نسبته	-10.9726
▁الحمض	-10.9727
▁حاسمة	-10.9728
▁الادب	-10.9728
▁وصلوا	-10.9728
▁جزئي	-10.973
▁لعبة	-10.9734
سائق	-10.9734
▁قابلة	-10.9736
كما	-10.9737
▁الملا	-10.9739
مدرسة	-10.9739
▁نزع	-10.9739
▁العدوان	-10.9741
اتش	-10.9741
▁قراره	-10.9742
تقوم	-10.9743
▁هيسن	-10.9745
صياغة	-10.9746
▁بحبس	-10.9746
▁يحتل	-10.9746
▁السمنة	-10.9747
معا	-10.9748
السلام	-10.9748
▁صفوفه	-10.975
تقليد	-10.9753
▁وبن	-10.9753
▁قمع	-10.9755
▁مستوطن	-10.9756
مشروبات	-10.9758
▁مرتفع	-10.9759
ضحك	-10.9761
▁افتراضية	-10.9761
▁اورد	-10.9764
▁القاتل	-10.9765
▁وعند	-10.9768
59	-10.977
▁قياس	-10.9773
وباء	-10.9773
▁المستدامة	-10.9779
▁الورق	-10.978
97	-10.978
▁الواردة	-10.9784
▁اخطاء	-10.9784
▁b	-10.9784
▁تدمر	-10.9784
▁تجميد	-10.9785
▁لتقرير	-10.9785
اونروا	-10.9786
▁محليا	-10.9787
ثم	-10.9788
فرانكفورت	-10.9789
▁تمرير	-10.9791
▁تقدمها	-10.9791
▁بعيدة	-10.9791
▁قلقها	-10.9794
▁سيد	-10.9796
كلي	-10.98
▁يشت	-10.9801
▁لافت	-10.9804
مادة	-10.9805
▁اعتصام	-10.9808
▁تدين	-10.9809
▁الادلة	-10.9809
▁مواطنا	-10.981
▁منتقد	-10.9811
▁سين	-10.9816
▁لجمع	-10.982
▁النشر	-10.982
▁هول	-10.9822
▁زايبرت	-10.9822
▁نافالني	-10.9822
▁باللقب	-10.9822
▁اراء	-10.9824
▁صادرة	-10.9824
▁الختامي	-10.9826
قون	-10.9826
▁مخيمات	-10.9827
▁اللاجئ	-10.9828
▁المفوض	-10.9828
طرف	-10.9829
▁الري	-10.9831
64	-10.9836
التي	-10.9838
استقلال	-10.984
▁افريقي	-10.9844
غزو	-10.9844
▁مجهول	-10.9845
▁الارتفاع	-10.9847
▁لقطات	-10.985
▁ولدي	-10.9855
▁بوجه	-10.9858
▁77	-10.9858
▁بسيط	-10.9859
هير	-10.986
▁مبدئي	-10.986
▁الحجاب	-10.9861
▁السم	-10.9864
▁علق	-10.9865
▁والبحر	-10.9865
▁التمهيدي	-10.9866
▁الفيروسات	-10.987
اخفاء	-10.9878
▁ومياه	-10.988
ستعرض	-10.9881
▁التغيرات	-10.9881
▁يرتبط	-10.9882
▁مهامه	-10.9884
▁المغ	-10.9886
▁اسلامي	-10.9887
مستشار	-10.9888
68	-10.9888
الابيض	-10.9894
▁يشبه	-10.9896
▁توحيد	-10.9896
▁يساهم	-10.9898
▁الابراهيمي	-10.9899
▁موجهة	-10.9899
▁يحيي	-10.99
▁ربيع	-10.99
▁لسوريا	-10.99
▁يانغ	-10.9902
نساء	-10.9903
▁مغلقة	-10.9909
▁والجيش	-10.9911
ايلول	-10.9913
▁اخلاء	-10.9914
▁للفيروس	-10.9914
▁والشام	-10.9915
▁بريد	-10.9915
▁مسح	-10.9916
▁كتبت	-10.9918
خسارة	-10.9918
▁نقله	-10.9919
▁وتعهد	-10.9919
▁نست	-10.9921
▁عزم	-10.9921
▁فيتامين	-10.9924
58	-10.9925
▁والنصف	-10.9926
▁اوف	-10.9927
▁مكونات	-10.9928
▁اوائل	-10.9928
▁كهربائية	-10.9929
تبقي	-10.9929
موند	-10.9931
▁السلوك	-10.9936
▁وفريق	-10.9937
ترسيخ	-10.9938
▁الحصن	-10.9938
▁تاخير	-10.9938
▁صحف	-10.9938
ارتفاع	-10.9939
▁وسلامة	-10.9939
▁الرباط	-10.994
▁غور	-10.9941
▁مجانا	-10.9941
46	-10.9944
احتمال	-10.9945
تحفيز	-10.9945
▁صعبا	-10.9948
قوس	-10.9951
▁حشد	-10.9954
▁لاختيار	-10.9955
▁المنافس	-10.9958
▁الجسدي	-10.996
▁بطولات	-10.9962
▁تتمثل	-10.9962
▁العقارات	-10.9964
▁بنهاية	-10.9965
التحالف	-10.9965
▁الشقيقة	-10.9967
مراسل	-10.997
▁الموج	-10.9973
▁توليه	-10.9974
▁هندي	-10.9975
كافة	-10.998
▁خرق	-10.9982
▁اركان	-10.9983
الخميس	-10.9984
بعة	-10.9985
ch	-10.9985
ميكرو	-10.9986
87	-10.9987
▁السكن	-10.9988
▁الملح	-10.9989
▁لهما	-10.9989
طبيب	-10.999
فيتامين	-10.9994
▁الخطيرة	-10.9995
▁اعاد	-10.9995
وجود	-10.9995
ناسا	-10.9998
▁كاب	-10.9998
▁شرعي	-11
▁برفع	-11.0002
▁الزيادة	-11.0004
صداقة	-11.0005
▁حض	-11.0007
▁لماذا	-11.0008
كراهية	-11.0009
▁المواصلات	-11.0013
الميرنغي	-11.0015
▁تذاكر	-11.0015
▁الاسكندرية	-11.0015
▁بالتاكيد	-11.0016
رقة	-11.0017
▁ورفضت	-11.0018
63	-11.0019
▁الاستهلاك	-11.002
▁انفاق	-11.0021
▁اولئك	-11.0021
فيلت	-11.0026
▁ورجال	-11.0026
▁موعدا	-11.0027
تعاقد	-11.0027
▁اغني	-11.0028
▁شمس	-11.0031
▁وتضم	-11.0034
▁المناهضة	-11.0034
▁وتراجع	-11.0038
▁الخيري	-11.0039
▁ايد	-11.004
▁افغاني	-11.004
▁الدر	-11.004
▁لحين	-11.0043
▁لمثل	-11.0045
سجن	-11.0047
▁السري	-11.0048
▁ندد	-11.0053
▁فاطمة	-11.0054
▁نخبة	-11.0054
▁المتعددة	-11.0054
▁الحذر	-11.0055
واحد	-11.0056
▁الملاحة	-11.0056
وذ	-11.0057
▁حظي	-11.0057
▁للسيطرة	-11.0057
▁وحقق	-11.0059
جفاف	-11.006
جلب	-11.006
▁بيريز	-11.006
ناصر	-11.0063
اتحاد	-11.0063
▁حقيبة	-11.0065
▁فشلت	-11.0067
▁يتوقف	-11.0071
القيام	-11.0072
باشر	-11.0075
▁انسان	-11.0077
دبلوماسي	-11.0077
▁هائل	-11.0078
▁يدل	-11.0079
استقالة	-11.0079
محاولات	-11.008
▁المجمع	-11.0083
▁دراستهم	-11.0089
▁لاعبو	-11.009
▁مميزة	-11.0091
▁ومركز	-11.0092
▁الاضافي	-11.0093
▁درس	-11.0094
▁يستبعد	-11.0095
▁استخدامه	-11.0102
▁دمج	-11.0103
▁مركب	-11.0104
▁لمنصب	-11.0106
اسيوي	-11.0106
▁140	-11.0106
▁المهارات	-11.0107
▁قانونا	-11.011
▁المسؤولون	-11.0116
▁مرتفعة	-11.0119
▁امنيا	-11.0121
44	-11.0121
▁للاتفاق	-11.0123
▁حقا	-11.0123
▁باك	-11.0126
▁المعلم	-11.0127
▁الخلفي	-11.0127
تصفح	-11.0129
محطات	-11.013
▁الثقيلة	-11.013
▁لتخفيف	-11.0133
▁اصاب	-11.0135
خيانة	-11.0138
▁مكثفة	-11.014
ازالة	-11.014
▁وسيكون	-11.014
فرسان	-11.0141
رؤساء	-11.0142
قميص	-11.0144
▁التجمع	-11.0144
▁68	-11.0145
▁النباتات	-11.0147
▁بتحقيق	-11.015
اتفاق	-11.015
حسب	-11.0151
تزلج	-11.0151
▁الشديدة	-11.0151
تجاهل	-11.0153
▁67	-11.0154
يبقي	-11.0154
▁تستغرق	-11.0157
▁المليون	-11.0158
▁استغل	-11.0158
-19"	-11.0158
تقنيات	-11.0159
▁اغتصاب	-11.016
▁الثلاثين	-11.0161
▁استضاف	-11.0163
▁تخطي	-11.0164
اردو	-11.0165
▁يكونوا	-11.0168
تنفس	-11.017
قلم	-11.0171
نخيل	-11.0171
▁تكساس	-11.0172
▁المراقبين	-11.0172
▁اللوا	-11.0174
▁انطلق	-11.0176
▁وفتح	-11.0176
▁الوثيقة	-11.0178
▁واطلق	-11.0182
'	-11.0182
▁التحذير	-11.0185
▁عينات	-11.0185
▁تفسير	-11.0187
▁وتشهد	-11.0188
▁احالة	-11.0189
▁الانتحار	-11.0189
▁الديني	-11.0192
▁تدريبية	-11.0196
▁تنتشر	-11.0196
▁الشكل	-11.0196
▁طريقه	-11.0197
▁محور	-11.0197
▁بالقاهرة	-11.0197
▁(2	-11.0198
اسواق	-11.0198
نصب	-11.0199
▁تيم	-11.02
▁قلبية	-11.0201
▁اصابتهم	-11.0204
▁راتب	-11.0206
▁اربعين	-11.0211
▁اليزابيث	-11.0212
▁باسعار	-11.0212
▁الاقبال	-11.0212
احذية	-11.0212
▁الكلاب	-11.0212
عتقل	-11.0216
سلي	-11.0218
▁حصوله	-11.0218
67	-11.022
▁بلاتر	-11.0221
▁تجد	-11.0223
ليكس	-11.0224
▁مؤثر	-11.0225
▁كري	-11.0226
سفير	-11.0227
▁السل	-11.0232
مكتب	-11.0234
وكو	-11.0235
اختيار	-11.0235
▁هائلة	-11.0235
▁يمكنهم	-11.0235
▁والثقافة	-11.0237
▁مهندس	-11.0237
▁اثارة	-11.0237
شاء	-11.0238
▁وكاس	-11.0238
▁اشد	-11.0242
▁عربيا	-11.0243
ريو	-11.0244
▁العظام	-11.0246
شيش	-11.0247
▁المشكلات	-11.0247
▁الذكور	-11.025
▁التفاعل	-11.0251
▁والشباب	-11.0252
نور	-11.0253
▁حاسم	-11.0255
▁محاكمته	-11.0257
▁محرك	-11.0258
اؤها	-11.0258
▁ودي	-11.0259
▁مشابهة	-11.0261
▁يرجع	-11.0263
مبادئ	-11.0264
تكلفة	-11.0266
▁صعدة	-11.0267
▁ابعد	-11.0267
▁المقدم	-11.0269
ريكس	-11.027
▁العضوية	-11.027
تنديد	-11.027
▁المفروض	-11.027
▁الحراك	-11.0272
▁اللازم	-11.0273
▁تقديرات	-11.0273
▁الماس	-11.0274
▁الحديد	-11.0275
تقليل	-11.0275
شاعر	-11.0276
▁خيارات	-11.0277
▁المصنف	-11.0277
اختبار	-11.028
▁الدماغية	-11.0281
خوف	-11.0286
سطو	-11.0286
▁يتابع	-11.0291
▁المنصرم	-11.0292
ورث	-11.0292
▁العريق	-11.0292
▁الجزاء	-11.0292
▁استضافت	-11.0292
▁ميشيل	-11.0292
▁للقدرة	-11.0292
▁ايرادات	-11.0293
▁تير	-11.0293
امتناع	-11.0293
▁قويا	-11.0293
▁والخاصة	-11.0295
▁اجمالية	-11.0296
تعمد	-11.0297
▁المعدية	-11.0297
▁اكتشفت	-11.03
▁قاطع	-11.0303
تداعيات	-11.0303
بادر	-11.0303
▁باعلان	-11.0305
▁الاحكام	-11.0306
التخطيط	-11.0306
▁يخرج	-11.0306
عتاد	-11.0309
▁يان	-11.0317
▁سيجري	-11.0317
يغا	-11.0318
300	-11.0319
▁الطعن	-11.032
69	-11.0321
▁يعلم	-11.0325
راجع	-11.0325
▁الرحيل	-11.0331
▁كلما	-11.0331
▁القطار	-11.0332
▁صوتا	-11.0337
رجال	-11.0346
▁رقمية	-11.0347
▁العائلات	-11.0348
▁العضلات	-11.035
▁خلصت	-11.0351
▁الحقيقية	-11.0352
▁الجنائي	-11.0352
▁يدور	-11.0354
▁المكسيكي	-11.0355
▁الاحتفالات	-11.0358
▁شقة	-11.0358
62	-11.0359
منتخب	-11.0359
▁62	-11.0362
▁المتصدر	-11.0363
جلي	-11.0365
سيادة	-11.0366
▁تزداد	-11.0367
طير	-11.0368
ذاكرة	-11.0371
▁الكتالوني	-11.0372
▁قاضي	-11.0372
خريطة	-11.0372
▁ضعيف	-11.0372
▁ابلاغ	-11.0372
▁الفارق	-11.0373
▁روبوت	-11.0374
▁مخصص	-11.0375
▁ناجحة	-11.0378
▁جواد	-11.0379
خيم	-11.038
▁عمق	-11.0381
▁والمع	-11.0381
▁المتشددة	-11.0381
يوتيوب	-11.0385
دفن	-11.0387
▁عوض	-11.0387
▁للدراجات	-11.0387
▁تتوقف	-11.0389
▁ستجري	-11.0389
▁لمنتخب	-11.0391
▁الراب	-11.0391
▁المدون	-11.0392
▁يؤيد	-11.0393
▁المستوطنات	-11.0394
▁مربع	-11.0395
▁يصيب	-11.0395
▁تغييرات	-11.04
قياد	-11.0401
▁غائم	-11.0403
دمار	-11.0405
ترشح	-11.0405
▁لتفادي	-11.0406
▁المشاركون	-11.041
بسط	-11.0411
▁استثمارات	-11.0411
▁غوتيريش	-11.0413
▁وقررت	-11.0414
▁بشرق	-11.0417
عجز	-11.0418
بينما	-11.0419
▁تعليمات	-11.0422
▁الدوائر	-11.0425
▁نفق	-11.0427
▁تسريع	-11.0428
حتوي	-11.0428
▁لدخول	-11.0428
كبد	-11.0432
▁الغالبية	-11.0434
▁احباط	-11.0435
▁الحصيلة	-11.0435
▁مندوب	-11.0436
▁عارض	-11.044
▁نصيب	-11.0441
▁برفض	-11.0443
استعداد	-11.0444
▁يربط	-11.0446
تقييد	-11.0448
▁امريكيين	-11.0449
▁رين	-11.0449
عمليات	-11.0452
▁التطوير	-11.0453
▁المملوك	-11.0453
▁انبعاثات	-11.0454
▁مغادرته	-11.0454
▁المبكرة	-11.0456
▁القنب	-11.0457
▁القسم	-11.0457
▁وقطر	-11.0459
▁واتهمت	-11.0464
▁بحقوق	-11.0464
▁سياح	-11.0465
▁الموظف	-11.0465
▁جنسيا	-11.0466
سيئ	-11.0468
قوارب	-11.0468
▁اسلام	-11.0474
اسهام	-11.0474
▁صلاحيات	-11.0475
▁المخطط	-11.0478
41	-11.0481
الاسلام	-11.0485
مواقف	-11.0488
▁تستضيفها	-11.0489
▁بالقتل	-11.049
▁لتسهيل	-11.049
53	-11.0493
▁المخصص	-11.0494
▁مارادونا	-11.0494
▁ومناطق	-11.0494
▁علاقته	-11.0494
▁المخضرم	-11.0494
▁اثينا	-11.0494
تمثل	-11.0494
▁الحافلات	-11.0495
جواز	-11.0495
▁جريحا	-11.0495
كتائب	-11.0499
▁تراوح	-11.0502
احلام	-11.0503
▁نيكو	-11.0504
▁لهدف	-11.0507
تكنولوجيا	-11.0507
وريس	-11.051
▁جرا	-11.0512
▁سجين	-11.0515
▁الاداري	-11.0517
▁لتطبيق	-11.0518
▁مسبقا	-11.0519
▁غرو	-11.0521
▁زلزال	-11.0522
▁استقال	-11.0523
▁البنتاغون	-11.0523
▁تخضع	-11.0523
▁اعدت	-11.0525
▁تعهدت	-11.0525
▁اياه	-11.0533
▁الاسئلة	-11.0535
▁والمناطق	-11.0535
▁المستديرة	-11.0535
▁الخريف	-11.0538
78	-11.0539
ro	-11.0539
▁القضاة	-11.054
▁العظمي	-11.0542
خش	-11.0547
▁المبادرات	-11.0547
▁الفيضانات	-11.055
▁رابعة	-11.0551
▁قيمته	-11.0556
▁ويواجه	-11.0559
43	-11.0563
▁المتاجر	-11.0564
اندرويد	-11.0567
مسجد	-11.0568
▁صينية	-11.057
▁ستبدا	-11.0571
▁تقر	-11.0573
هاتف	-11.0575
▁التصوير	-11.0576
▁المؤبد	-11.0576
▁تتويج	-11.0576
54	-11.0576
▁الجبلية	-11.0576
قصة	-11.0577
▁المستطيل	-11.0577
▁الضارة	-11.0577
▁ميديا	-11.0578
▁بسداد	-11.0579
اغلب	-11.0582
▁اسلاميين	-11.0583
▁اليهودي	-11.0583
▁استرالي	-11.0584
بطء	-11.0586
▁تمتلك	-11.0587
ركلات	-11.0588
ثمانية	-11.0588
▁خير	-11.0588
▁الاستعا	-11.0589
▁واليمن	-11.0589
▁صن	-11.0589
▁شهادات	-11.0591
فاض	-11.0591
توضيح	-11.0591
▁ومنظمة	-11.0592
فلاي	-11.0593
▁التوقف	-11.0593
▁اجتماعها	-11.0596
▁شكلت	-11.0599
▁دراج	-11.0601
61	-11.0602
▁الكندي	-11.0602
▁تطبق	-11.0603
▁معدات	-11.0604
▁المساعد	-11.0604
▁وكشفت	-11.0605
واجب	-11.0605
▁وممثل	-11.0605
سند	-11.0606
▁لقاءات	-11.061
تزود	-11.0612
اعداد	-11.0615
البرلمان	-11.0617
▁الانتباه	-11.0618
▁ميزانية	-11.0618
▁الغابات	-11.0618
ميثاق	-11.0618
▁الهدوء	-11.0621
▁بعمليات	-11.0621
▁نيابة	-11.0621
▁نددت	-11.0622
▁داود	-11.0625
ؤمن	-11.0627
▁الدولارات	-11.0629
▁الكاثوليكية	-11.0632
▁اصدره	-11.0632
▁المصالحة	-11.0632
▁اساليب	-11.0633
حزيران	-11.0633
تخفيض	-11.0633
طيلة	-11.0635
▁ليوم	-11.0637
▁وتدمير	-11.0638
▁لرفع	-11.0639
56	-11.0642
قناة	-11.0646
رؤية	-11.0647
▁الحيوي	-11.0647
▁المسرح	-11.0647
شيك	-11.0649
مرور	-11.065
▁الحديدية	-11.0651
الملك	-11.0653
▁اجتمع	-11.0653
عشرة	-11.0654
▁مؤ	-11.0654
▁التضامن	-11.0656
▁استرليني	-11.0659
▁قبرص	-11.0659
▁المطاف	-11.0659
▁تكريت	-11.0659
▁المتقدمة	-11.066
▁التدريبات	-11.066
▁للبيع	-11.0661
▁القياسية	-11.0663
▁محط	-11.0665
▁شددت	-11.0668
بحر	-11.0669
تنامي	-11.067
▁حرس	-11.0672
يوس	-11.0673
▁احتفل	-11.0675
وظيفة	-11.0676
اكتئاب	-11.0678
وكالة	-11.0678
يسهل	-11.0679
بتعد	-11.0679
مطالبة	-11.068
تبريد	-11.068
▁افتراضي	-11.0685
▁66	-11.0687
▁تركيز	-11.0687
▁التحرش	-11.0689
▁لمحارب	-11.069
▁بانتظام	-11.069
▁بحوالي	-11.0692
▁واعد	-11.0694
52	-11.0696
st	-11.0698
ne	-11.0699
▁مكاسب	-11.0701
▁ترتفع	-11.0701
▁الكوكب	-11.0701
▁متقدمة	-11.0702
تعيين	-11.0703
▁الصليب	-11.0703
an	-11.0705
▁القاه	-11.0706
▁63	-11.0708
▁سقف	-11.0712
▁موظفيها	-11.0712
▁ويؤكد	-11.0712
ودا	-11.0714
▁مستواه	-11.0715
عاصمة	-11.0715
▁طالما	-11.0717
▁النور	-11.0718
كتب	-11.0718
▁ماركوس	-11.0719
▁قناع	-11.0719
▁لعمليات	-11.072
▁وتل	-11.0722
▁المقيم	-11.0724
تقييم	-11.0731
▁الاصلاحات	-11.0734
▁تعثر	-11.0737
نهائي	-11.0737
▁الرصاص	-11.0743
▁الشعوب	-11.0743
▁بتوفير	-11.0743
▁باصواتهم	-11.0743
▁ووسائل	-11.0743
▁المؤدي	-11.0743
▁مقدمة	-11.0743
▁بادن	-11.0744
▁السراج	-11.0746
▁الطائفي	-11.0748
▁الايرانيين	-11.0749
صادق	-11.0749
▁خطرة	-11.0751
بولي	-11.0752
نيبال	-11.0755
حفل	-11.0759
اعط	-11.0762
▁الراهنة	-11.0763
▁مسؤوليته	-11.0765
▁غذائي	-11.0767
▁العوامل	-11.0771
▁المقابلة	-11.0771
▁مسافر	-11.0771
▁حرام	-11.0772
قائد	-11.0773
▁الرغبة	-11.0781
▁افاق	-11.0783
▁لجهود	-11.0783
▁المدرسي	-11.0785
▁سواريز	-11.0785
▁بقطاع	-11.0785
▁ادوات	-11.0787
▁سنوي	-11.0788
مزق	-11.0791
يسي	-11.0793
▁مسلحي	-11.0794
▁المنتخبات	-11.0796
▁مقررة	-11.0797
▁المعتمدة	-11.0799
▁روح	-11.0801
قائمة	-11.0803
▁الكندية	-11.0804
▁قمر	-11.0804
▁يفقد	-11.0805
حقوق	-11.0806
▁خدماتها	-11.0808
صدم	-11.0809
▁الاضراب	-11.0811
▁الاستماع	-11.0811
▁غري	-11.0812
▁واسبانيا	-11.0813
▁المدعوم	-11.0813
▁غرين	-11.0816
▁للرئاسة	-11.0816
الوضع	-11.0818
▁الاوقاف	-11.0822
▁عامر	-11.0823
▁والدته	-11.0823
اخطار	-11.0825
▁السويس	-11.0825
ستعد	-11.0825
▁ومؤسسات	-11.0826
▁طالت	-11.0826
▁الاجسام	-11.0827
▁المسابقات	-11.0827
▁عشوائي	-11.0827
▁والشركات	-11.0827
ستحوذ	-11.0828
▁ندوة	-11.0828
مئات	-11.0828
▁غاوك	-11.0828
▁الجرعة	-11.0829
مليون	-11.083
كافح	-11.0832
اكاديمي	-11.0832
▁المنصة	-11.0832
▁المؤلف	-11.0833
صراع	-11.0833
▁ممثلو	-11.0834
▁تساؤلات	-11.0835
▁منخفضة	-11.0835
▁الترجيح	-11.0835
التربية	-11.0835
▁اختطاف	-11.0836
▁ملكة	-11.0836
▁رائعة	-11.0837
طفل	-11.0839
▁مسيرات	-11.0841
▁تخرج	-11.0841
كير	-11.0844
▁طنا	-11.0847
▁جلد	-11.0848
▁الوافدين	-11.0849
▁تدعي	-11.085
حديقة	-11.0852
▁المفرق	-11.0858
▁مظاهرة	-11.0861
▁بموقع	-11.0861
اغلاق	-11.0864
▁للسياحة	-11.0866
▁العظيم	-11.0869
▁انشيلوتي	-11.0869
▁وتشغيل	-11.0869
▁اضعاف	-11.0869
▁ماليزيا	-11.0869
▁والثلاثين	-11.0869
▁والغاز	-11.0869
▁سلبا	-11.0869
▁للسامية	-11.087
▁الجالية	-11.087
▁تسريب	-11.087
لفت	-11.0871
▁الترويج	-11.0872
▁العصبية	-11.0873
اقتصادية	-11.0876
▁المقال	-11.0877
لوائح	-11.0877
▁بلاد	-11.0877
▁عدوي	-11.0881
ميني	-11.0883
تسلق	-11.0883
▁لجا	-11.0883
▁تصور	-11.0888
▁بمركز	-11.0888
▁وتطبيق	-11.0889
توقيف	-11.0889
▁مؤيدي	-11.0889
▁الاجنبي	-11.0896
شفا	-11.0897
▁تاكد	-11.0901
▁الاردنيين	-11.0902
▁وليام	-11.0905
افيا	-11.0905
▁متاجر	-11.0906
تقارير	-11.0909
▁توك	-11.091
▁الاخطاء	-11.0912
▁هكذا	-11.0912
▁غاضب	-11.0912
▁متكاملة	-11.0912
▁اسامة	-11.0914
حجب	-11.0914
▁جامع	-11.0914
▁والدفاع	-11.0915
▁مخدر	-11.0916
▁تقبل	-11.0917
تواضع	-11.0918
▁اولية	-11.0919
▁مرسيدس	-11.092
▁العقود	-11.092
▁يقبل	-11.0927
شط	-11.0929
▁لقناة	-11.0929
▁عسكريين	-11.0933
طموح	-11.0933
▁الناشطة	-11.0934
غسل	-11.0935
▁للاردن	-11.0936
تدني	-11.0936
▁لبناني	-11.0938
▁دهس	-11.0939
▁رابع	-11.094
▁لفت	-11.0945
قصور	-11.0946
▁فريدة	-11.0947
ذبح	-11.0948
الذي	-11.0949
▁منعت	-11.0952
▁95	-11.0953
▁المسيحية	-11.0953
▁الاوساط	-11.0954
▁طارئة	-11.0954
▁انتقاله	-11.0955
عربية	-11.0955
▁الكلام	-11.0956
73	-11.0957
▁اسبانية	-11.0958
▁البرد	-11.0958
▁لليمن	-11.0958
ضاعف	-11.0961
▁لاعبيه	-11.0961
▁3000	-11.0964
▁الطلبات	-11.0964
▁قصص	-11.0965
▁عملياتها	-11.0966
▁جابر	-11.0966
▁المواهب	-11.0969
▁عملهم	-11.097
▁وشيك	-11.0971
ناتو	-11.0974
▁ليبي	-11.0976
فضيحة	-11.0976
▁الافكار	-11.0981
▁الحجم	-11.0981
▁المصرف	-11.0984
مكاتب	-11.0985
امريكا	-11.0986
▁علاء	-11.0986
▁والبيئة	-11.0987
▁ووقف	-11.0987
انتحار	-11.0991
▁وتسعي	-11.0992
خليجي	-11.0992
▁مواز	-11.0993
▁ينشر	-11.0994
▁يمثلون	-11.0995
مشي	-11.0996
▁الشاطئ	-11.0997
▁ذراع	-11.0998
▁وشركات	-11.0998
▁التاسيسي	-11.0999
▁امان	-11.1001
▁المعلمين	-11.1001
▁حياتها	-11.1001
▁اربيل	-11.1002
▁اجتماعه	-11.1002
▁انتصارات	-11.1003
▁بيونغ	-11.1004
▁شهير	-11.1005
▁فعالياته	-11.1005
▁الحرارية	-11.1007
منافسة	-11.1008
▁الجبال	-11.101
معرفة	-11.1014
▁الضخمة	-11.1018
▁تصف	-11.1024
▁350	-11.1024
▁بلده	-11.1024
▁عنصرا	-11.1026
▁عنيف	-11.1027
▁تختلف	-11.1031
▁كروس	-11.1032
وير	-11.1032
بكتيريا	-11.1034
▁راسه	-11.1034
▁وواشنطن	-11.1035
▁يرتفع	-11.1035
▁توب	-11.1035
▁ايجار	-11.1036
امريكي	-11.1037
▁المعاصر	-11.104
▁النيجيري	-11.104
▁بصدد	-11.104
تلق	-11.104
▁امدادات	-11.104
▁ساعتين	-11.104
▁جميرا	-11.1041
تنشيط	-11.1041
▁مهر	-11.1041
▁المصلين	-11.1041
▁والفنون	-11.1041
▁تداولات	-11.1041
▁الحسن	-11.1043
▁لوسائل	-11.1045
▁مستهل	-11.1047
▁2002	-11.1049
▁بشن	-11.1051
▁تحميل	-11.1054
▁g	-11.1059
▁ويسعي	-11.1061
▁اليسري	-11.1062
احباط	-11.1064
▁المصالح	-11.107
▁بسيارة	-11.1075
▁دائمة	-11.1076
▁71	-11.1076
علق	-11.1079
▁وحاول	-11.1082
*	-11.1084
احتلال	-11.1084
راق	-11.1084
رموز	-11.1084
ستلزم	-11.1084
حيوانات	-11.1086
▁الجلوس	-11.1086
صباح	-11.1086
▁المراحل	-11.109
▁بالمرض	-11.109
▁غابريل	-11.109
▁ريد	-11.1091
طبيعة	-11.1091
▁بمجلس	-11.1093
مملكة	-11.1093
▁180	-11.1093
خطا	-11.1096
▁اجراه	-11.1096
▁تسلل	-11.1102
دقيق	-11.1103
▁الوقوف	-11.1104
▁حدثت	-11.1105
فايزر	-11.1107
ماني	-11.1107
بيئة	-11.1108
قطر	-11.111
▁كيلوغراما	-11.111
▁يدين	-11.111
▁كيلو	-11.1112
▁فكر	-11.1118
▁كيلومترات	-11.1118
▁امانة	-11.1122
نسق	-11.1125
مصادر	-11.1126
▁مقرب	-11.1126
▁متتالية	-11.1127
برمجيات	-11.1127
▁لتوسيع	-11.1127
▁المنحدر	-11.1127
▁الامعاء	-11.1127
▁للفنون	-11.1128
▁المسلمة	-11.1128
▁اندلع	-11.1129
▁ينفذ	-11.1131
▁الاصلية	-11.1131
راديو	-11.1131
▁تتطلب	-11.1131
▁اياها	-11.1132
▁قادمة	-11.1132
▁سمك	-11.1139
▁سارة	-11.114
▁زجاج	-11.114
▁تعاطي	-11.1141
احتجاج	-11.1142
▁قتال	-11.1144
▁علمي	-11.1145
▁وتشمل	-11.1148
لمصابين	-11.1149
▁الفنانين	-11.1151
▁والاستقرار	-11.1152
▁الجيد	-11.1153
▁للاعمال	-11.1153
▁العمرية	-11.1153
▁تنامي	-11.1154
▁78	-11.1154
▁تنظر	-11.1154
خريج	-11.1154
▁جعلت	-11.1157
امهات	-11.1159
▁بالمدينة	-11.1163
▁النزاعات	-11.1163
شكوي	-11.1164
قلة	-11.1166
▁مترو	-11.1167
▁اشبيلية	-11.1171
▁شفاينشتايغر	-11.1171
▁مايكروسوفت	-11.1171
▁كثيف	-11.1171
▁مقاتلو	-11.1171
▁احترازي	-11.1171
▁المحققين	-11.1171
57	-11.1171
لتلك	-11.1171
▁برلمانية	-11.1173
▁ومنح	-11.1174
▁كتابة	-11.1174
جرت	-11.1175
قبة	-11.1177
مهد	-11.1177
فقد	-11.1178
▁سوتشي	-11.1178
▁للقاء	-11.1179
▁الدستوري	-11.1183
▁لدفع	-11.1184
▁فقر	-11.1185
▁يواجهون	-11.1185
▁والدولية	-11.1185
▁تضمنت	-11.1194
فك	-11.1194
▁لخطر	-11.1194
▁لافضل	-11.1195
▁والاعلام	-11.1199
▁الخسائر	-11.1201
وفق	-11.1202
▁والاقتصادية	-11.1206
▁للعالم	-11.1211
▁الموسيقية	-11.1212
▁المنزلي	-11.1214
▁باجراءات	-11.1215
▁المباحثات	-11.1215
▁المخلافي	-11.1215
بريطاني	-11.1215
▁وتوقع	-11.1215
مستحضرات	-11.1215
▁تقسيم	-11.1221
ادوية	-11.1222
▁اسبوعيا	-11.1223
▁يقترب	-11.1229
▁نوعا	-11.123
▁عزز	-11.1232
▁نعرف	-11.1234
▁ضار	-11.1238
عواقب	-11.1239
اسلامية	-11.1242
▁الخطط	-11.1243
▁الحشرات	-11.1247
▁ملتقي	-11.1252
▁يستفيد	-11.1253
نهج	-11.1254
▁للاجانب	-11.1259
روابط	-11.1259
▁نابولي	-11.1259
▁ضئيل	-11.1259
فحم	-11.1259
▁قاسية	-11.1259
▁ظبي	-11.1259
متلازمة	-11.1259
▁اباد	-11.1262
▁تسديد	-11.1262
▁نظرة	-11.1263
▁اثبت	-11.1265
▁الطيب	-11.127
▁160	-11.1272
▁اصدقاء	-11.1275
لاغاثة	-11.1275
51	-11.1278
▁تثبت	-11.1278
تحفظ	-11.1278
سيء	-11.1278
مزاج	-11.1279
▁خطابه	-11.128
سحق	-11.128
▁هرمون	-11.128
▁للرياضات	-11.1281
▁اهلية	-11.1282
▁معادية	-11.1286
▁واقر	-11.1288
▁لحد	-11.1293
▁القلبية	-11.1293
رست	-11.1295
لخص	-11.1297
▁لشهر	-11.1297
▁تامل	-11.1302
te	-11.1303
صطدم	-11.1303
▁اوساط	-11.1303
▁فروا	-11.1304
▁اساسيا	-11.1304
تصحيح	-11.1304
لطيف	-11.1304
▁سافر	-11.1304
▁الميدان	-11.1306
حمايته	-11.1306
▁وسوف	-11.1308
تطعيم	-11.1308
▁كمبيوتر	-11.1313
▁تتحول	-11.1315
▁والثانية	-11.1316
▁يغير	-11.1317
السبت	-11.1321
▁73	-11.1331
ضيوف	-11.1332
▁المانشافت	-11.1332
▁5000	-11.1333
▁التقاط	-11.1338
▁بقايا	-11.1338
▁تستانف	-11.1339
▁المساواة	-11.134
▁المبالغ	-11.1345
حتضن	-11.1345
▁للحوار	-11.1347
▁لتحرير	-11.1347
▁استخبارات	-11.1347
▁الانقسام	-11.1347
▁لتمويل	-11.1347
ذنب	-11.1348
▁الهائل	-11.135
▁المشاهد	-11.135
▁وقطع	-11.1351
زملاء	-11.1352
▁المحلل	-11.1354
صبر	-11.1355
▁الشبان	-11.1355
▁دمرت	-11.1356
▁المجتمعات	-11.1356
هزيمة	-11.1357
▁الموضة	-11.1359
▁العادي	-11.1359
صادر	-11.1361
▁الانتهاكات	-11.1361
بلدية	-11.1361
▁للبرلمان	-11.1362
▁عموم	-11.1362
محادثات	-11.1363
▁مصابين	-11.1364
▁تفجيرات	-11.1365
▁كاي	-11.1366
نطوي	-11.1366
▁الترفيهية	-11.137
▁76	-11.1373
احتفاء	-11.1373
سباحة	-11.1375
▁والعلوم	-11.1375
تنتهي	-11.1377
▁جوزيف	-11.1377
مق	-11.1377
▁السعوديين	-11.1382
سلوكيات	-11.1383
جيد	-11.1383
▁3-	-11.1385
▁وتبادل	-11.1388
▁مصل	-11.1388
▁ماركو	-11.1389
▁تقتصر	-11.1392
لارتقاء	-11.1392
▁الكاميرون	-11.1392
▁اعضائه	-11.1392
▁باغلبية	-11.1392
▁يصاب	-11.1392
▁خوفا	-11.1393
▁قاصر	-11.1393
▁العائلي	-11.1395
▁تصرفات	-11.1395
▁باربعة	-11.1396
▁المهدي	-11.1396
يلولة	-11.1397
▁المرتقبة	-11.1397
▁رافض	-11.1397
كوت	-11.1398
موضوع	-11.1398
▁براي	-11.14
▁يتلق	-11.14
فرص	-11.1401
▁مصابا	-11.1405
▁الخمسين	-11.1407
▁تشغل	-11.141
▁نوم	-11.141
▁منسوب	-11.141
لدي	-11.1412
▁قديمة	-11.1413
99	-11.1415
غالبا	-11.1418
دليل	-11.142
خض	-11.1421
▁ممكنة	-11.1422
▁الفلسطينيون	-11.1423
▁للطفل	-11.1424
▁وعمل	-11.1426
▁غوت	-11.1427
صالة	-11.1428
▁مستفيد	-11.1429
▁تقضي	-11.1429
▁كامب	-11.1432
▁والثاني	-11.1432
▁الهوا	-11.1435
▁سلال	-11.1435
▁الحسابات	-11.1437
▁التلاميذ	-11.1437
▁تفتتح	-11.1437
▁للامراض	-11.1437
▁يفتتح	-11.1437
▁المحظور	-11.1437
▁الديوان	-11.1437
▁المتكاملة	-11.1437
▁الاولمبياد	-11.1437
▁تشبه	-11.1437
▁لبيانات	-11.1438
▁لثلاثة	-11.1438
عالي	-11.1438
▁وحذرت	-11.1439
▁اسود	-11.1439
▁مقاتلة	-11.144
▁المنخفض	-11.1445
اكتشاف	-11.1445
▁المعلن	-11.1446
▁فورت	-11.1449
▁نقلته	-11.1449
▁واشاد	-11.1451
مسلحين	-11.1451
حافة	-11.1453
▁جلب	-11.1455
▁فولف	-11.1456
▁للصحيفة	-11.1456
▁انتخابه	-11.1458
▁يقاتل	-11.1459
فاي	-11.1459
▁بفتح	-11.1461
▁الحادثة	-11.1461
▁اخبارية	-11.1462
▁ويعمل	-11.1464
ارتي	-11.1465
▁شتيفان	-11.1465
▁الصنع	-11.1466
▁يقر	-11.1468
▁اصابت	-11.1468
▁تعكس	-11.1469
▁الايجابي	-11.1471
▁الدائمة	-11.1476
▁التقاعد	-11.1477
▁(1	-11.1478
▁الاولوية	-11.148
▁الطفلة	-11.1482
▁الرائدة	-11.1482
▁غامض	-11.1482
▁مكالمة	-11.1482
▁للسلطات	-11.1482
مكالمات	-11.1484
▁المؤكدة	-11.1484
طعام	-11.1486
▁البث	-11.1488
ثري	-11.1493
▁الموجود	-11.1494
▁الغت	-11.1497
▁يعترف	-11.1498
▁بالطبع	-11.1499
▁حفر	-11.15
▁المري	-11.15
▁جورجيا	-11.1501
▁شركاء	-11.1501
محيط	-11.1502
▁بديلا	-11.1503
▁يقتصر	-11.1504
سيك	-11.1504
لتحق	-11.1504
ترتب	-11.1508
انفلونزا	-11.1508
▁شارل	-11.1508
لدخول	-11.1511
▁يخت	-11.1513
▁معاقل	-11.1514
▁الديمقراطيين	-11.1516
دوي	-11.1517
▁الفلك	-11.1518
▁سيئة	-11.1519
▁ادانة	-11.152
▁المتبادل	-11.1521
▁بسعر	-11.1524
كيو	-11.1525
سيكون	-11.1527
▁اعتزال	-11.1527
▁ستار	-11.1527
▁العقابية	-11.1528
▁الرباعي	-11.1528
▁اسقطت	-11.1528
▁وجبات	-11.1531
ديك	-11.1532
▁باليستي	-11.1533
▁للحياة	-11.1536
▁قصفت	-11.1537
اصدقاء	-11.1538
▁74	-11.1538
▁امتد	-11.1539
زمان	-11.154
▁البت	-11.1541
▁ابنة	-11.1543
▁حان	-11.1544
▁بوسع	-11.1545
▁لتولي	-11.1548
▁الصيفي	-11.155
تسلل	-11.1552
بريكست	-11.1555
▁تحطمت	-11.1559
كميات	-11.1561
▁استعادت	-11.1561
81	-11.1562
▁فقدت	-11.1562
اطفال	-11.1563
▁العادة	-11.1567
▁الثماني	-11.1568
▁ودخل	-11.1569
▁منافذ	-11.157
▁اليمينية	-11.1572
لارقام	-11.1574
▁والاملاك	-11.1575
مدفوع	-11.1576
▁التوسع	-11.1577
▁القران	-11.158
▁(6	-11.1583
شقق	-11.1584
▁الحمر	-11.1588
▁سدد	-11.1594
▁احتمالات	-11.1594
▁يسهم	-11.1598
نيران	-11.16
ارتباط	-11.1604
▁سراحه	-11.1604
▁مقربة	-11.1605
الشروع	-11.1605
▁القضائي	-11.1609
خصوم	-11.1611
▁توني	-11.1611
▁شاشات	-11.1613
▁الحراري	-11.1615
▁وسع	-11.1616
▁وشك	-11.1617
▁بواتينغ	-11.1618
▁دييغو	-11.1619
▁لانتخابات	-11.1619
▁محذرا	-11.1619
▁بارسال	-11.1619
▁الهضم	-11.162
روز	-11.1623
ستورد	-11.1624
▁شيخ	-11.1626
▁جمعتهما	-11.1627
عائلات	-11.163
مجزرة	-11.163
▁القطب	-11.163
▁كاميرات	-11.1633
▁حلقة	-11.1634
▁كريس	-11.1635
محاكم	-11.1636
▁مدخل	-11.1638
▁لفحص	-11.1641
▁حيوان	-11.1643
الامبراطور	-11.1647
▁للرجال	-11.1652
▁واثارت	-11.1653
▁اسفه	-11.1654
▁تنوي	-11.1654
▁المبرم	-11.1658
▁النازحين	-11.1659
▁المساء	-11.1661
▁بمنح	-11.1661
زعيم	-11.1662
شاحن	-11.1662
اصاب	-11.1664
▁للحوثيين	-11.1664
▁التكتل	-11.1664
استحقاق	-11.1664
▁مونت	-11.1664
▁المشجعين	-11.1665
▁البروتين	-11.1665
▁النهار	-11.1666
▁قنابل	-11.1667
▁المستهدف	-11.1667
▁بسكين	-11.1669
▁لاعمال	-11.1672
▁وضعها	-11.1676
السلطات	-11.1678
▁المشاورات	-11.1678
▁الاحمد	-11.1685
▁وعي	-11.1686
▁والبالغ	-11.1686
▁السنية	-11.1687
▁الجودة	-11.1691
اساليب	-11.1694
▁الدكتورة	-11.1696
شهادات	-11.1697
اخلاء	-11.1698
العاشر	-11.1699
▁لشبكة	-11.1701
مشكلة	-11.1702
▁بدر	-11.1702
▁الغرفة	-11.1703
الوصول	-11.1705
▁شابا	-11.171
▁تيلرسون	-11.171
▁الرهائن	-11.171
▁الميزانية	-11.171
▁القنوات	-11.171
▁الكمامة	-11.171
▁الادني	-11.1711
▁المزمع	-11.1711
▁الاديان	-11.1711
تعبئة	-11.1712
تهنئة	-11.1712
▁الصغار	-11.1713
▁المناعي	-11.1713
▁شخصيا	-11.1714
تسريع	-11.1715
▁متوقعا	-11.1716
▁طفيفة	-11.1718
▁اعطي	-11.1718
▁يركز	-11.1718
عاهد	-11.1719
▁ايفان	-11.1719
تنكر	-11.172
تموز	-11.1721
جوائز	-11.1723
▁دوي	-11.1724
اسرع	-11.1725
نسبة	-11.1728
▁ينوي	-11.173
▁ونظيره	-11.173
▁وقود	-11.1734
▁لوجود	-11.1734
زايد	-11.1735
▁للاستخدام	-11.1735
▁صديقة	-11.1737
صاروخ	-11.1738
▁الفم	-11.174
ساعة	-11.1741
▁خشي	-11.1743
فيش	-11.1744
▁والصحة	-11.1745
▁دراسية	-11.1747
▁المغني	-11.175
▁اعتد	-11.1751
▁لنشر	-11.1751
▁متصدر	-11.1754
▁السياسات	-11.1757
لالتحاق	-11.1757
▁سعادته	-11.1757
▁الاذن	-11.1758
ائنا	-11.1758
▁الصفراء	-11.1758
▁ستيفن	-11.1758
▁اختارت	-11.1759
▁تغ	-11.1759
▁معقدة	-11.1759
▁الاعمار	-11.1759
▁المرشد	-11.176
قادة	-11.1761
▁(5	-11.1762
▁التعافي	-11.1762
كهربا	-11.1762
▁واخت	-11.1765
▁السمع	-11.1766
▁اخطر	-11.1767
▁جنب	-11.1769
▁يترك	-11.177
▁تكلفة	-11.1772
▁بالاجراءات	-11.1775
ليلة	-11.1775
ملايين	-11.1778
▁المعدنية	-11.1779
تجدد	-11.1781
▁التكاليف	-11.1784
▁متظاهر	-11.1785
راش	-11.1785
نكو	-11.1787
اختراق	-11.1789
▁تحمي	-11.1791
▁جاي	-11.1794
عرق	-11.1795
▁نيكولا	-11.1795
▁تشعر	-11.1798
▁بالعودة	-11.1799
▁لابحاث	-11.18
▁الشرعي	-11.1803
▁الاحتياجات	-11.1803
▁الفيدرالي	-11.1803
سامسونغ	-11.1803
▁طاولة	-11.1803
▁متطورة	-11.1804
▁الاوربي	-11.1804
▁مقررا	-11.1805
▁التعليمي	-11.1808
▁الكو	-11.1809
▁قاسم	-11.181
▁خارجي	-11.1811
▁المطر	-11.1812
▁الحاضر	-11.1812
▁ماراثون	-11.1816
▁ينفي	-11.1816
▁استعاد	-11.1817
▁الشيء	-11.1818
▁شكر	-11.1827
مترو	-11.1829
▁الفرد	-11.1839
or	-11.1842
▁الضريبي	-11.1842
▁لايجاد	-11.1843
▁مكثف	-11.1844
▁سمحت	-11.1847
شاشة	-11.1847
▁الصادرات	-11.185
▁كولومبيا	-11.185
ابتزاز	-11.185
استغناء	-11.185
تسمم	-11.1851
▁تلتزم	-11.1851
غطاء	-11.1852
▁يعتقدون	-11.1853
▁بالقوة	-11.1858
▁زميل	-11.1861
▁موسع	-11.1862
▁بسحب	-11.1862
▁سجون	-11.1863
▁لوحات	-11.1865
مقاول	-11.1865
مخالفة	-11.1867
▁الوان	-11.187
▁كريستوف	-11.1871
▁اسفل	-11.1872
طاب	-11.1874
▁الارضية	-11.1874
كبح	-11.1875
قياس	-11.1876
جودة	-11.1881
▁طفيف	-11.1882
▁الفنون	-11.1883
▁وتعادل	-11.1884
▁بحقه	-11.1885
▁تمكنوا	-11.1886
▁مرورية	-11.1893
▁برحيل	-11.1894
كاميرا	-11.1894
▁قدمه	-11.1894
▁86	-11.1895
▁ملامح	-11.1895
▁هدنة	-11.1896
▁69	-11.1896
▁تصاريح	-11.1897
▁الالقاب	-11.1897
▁المنصوري	-11.1897
▁لانتقادات	-11.1897
▁ثنائية	-11.1899
شعب	-11.1899
▁اصيبت	-11.1899
▁الشباك	-11.1899
▁الخلية	-11.19
▁ويستمر	-11.19
▁ووجد	-11.1902
▁وخارجها	-11.1907
▁يراه	-11.191
نوبات	-11.1911
نافس	-11.1913
▁تحركات	-11.1914
لغة	-11.1916
▁لابد	-11.1917
▁للاحتفال	-11.1919
▁يتبع	-11.192
79	-11.1921
فتاة	-11.1924
▁السلمية	-11.1928
▁للسفر	-11.1932
ايواء	-11.1934
▁الدنماركي	-11.1936
ورشة	-11.1938
▁مقيم	-11.1941
▁اعتقاله	-11.1942
▁منتخبات	-11.1943
▁امستردام	-11.1944
▁مراهق	-11.1944
▁تيريزا	-11.1944
▁مساجد	-11.1944
▁يخشي	-11.1945
▁ياباني	-11.1946
ارتياح	-11.1946
▁مدرج	-11.1948
شباط	-11.195
▁محتجز	-11.1951
تدقيق	-11.1951
▁وابلغ	-11.1951
▁توصيل	-11.1957
▁ومعارض	-11.1958
▁جريدة	-11.1958
مخلفات	-11.1959
▁e	-11.1963
▁تقريرها	-11.1964
▁قوته	-11.1964
▁راو	-11.1964
احتجاز	-11.1967
تنزه	-11.1968
▁تعطي	-11.1971
ma	-11.1975
▁التدريبية	-11.1976
▁تراث	-11.1977
▁انتوني	-11.1979
فيضانات	-11.1979
توصيل	-11.1981
▁يصب	-11.1981
عجب	-11.1982
علاقة	-11.1983
▁الانتخابي	-11.1986
▁داعية	-11.1989
افكار	-11.1989
مخالف	-11.1989
▁ابيض	-11.199
▁الاميرة	-11.1991
▁الانتظار	-11.1991
▁التسويق	-11.1991
▁يرتكب	-11.1991
تكلم	-11.1992
▁بالاسلحة	-11.1992
▁داي	-11.1992
▁2021)	-11.1994
▁تبعات	-11.1994
▁المحددة	-11.1994
▁ضحيته	-11.1994
▁لضم	-11.1995
بشر	-11.1995
ضحايا	-11.1996
ستعيد	-11.1998
▁بالاعتداء	-11.2005
▁للشطرنج	-11.2005
منهج	-11.2006
▁واطلاق	-11.2006
▁تعترف	-11.2008
▁يحق	-11.2009
▁ملاعب	-11.201
عيادات	-11.2011
عسكري	-11.2014
يرافق	-11.2016
▁الحربية	-11.2018
▁المعتقل	-11.2019
خيول	-11.2022
▁القطع	-11.2023
▁خلل	-11.2025
▁دبليو	-11.2027
▁m	-11.2029
غيل	-11.2029
يعزز	-11.203
▁الباكستاني	-11.2033
▁عملاق	-11.2035
▁توافر	-11.2037
مشاهدة	-11.2037
▁اصطناعي	-11.2039
▁اللاتينية	-11.2039
▁المحققون	-11.2039
▁يختلف	-11.2039
ويندوز	-11.204
▁افرج	-11.2041
▁الدامي	-11.2042
▁1967	-11.2043
▁تمتد	-11.2043
▁والاجتماعية	-11.2045
▁عمد	-11.2045
▁الجبير	-11.2046
▁ومح	-11.2047
موارد	-11.205
▁الناتجة	-11.2051
▁اختطف	-11.2053
▁غريمه	-11.2056
وادي	-11.2057
حجر	-11.2058
▁ينهي	-11.2059
▁الزيتون	-11.2059
سيتي	-11.2059
عضو	-11.206
▁تؤيد	-11.2062
▁كويس	-11.2063
▁العيون	-11.2066
▁الخطورة	-11.2067
▁وبقي	-11.2073
▁سيادة	-11.2074
لهجة	-11.2075
▁الاممية	-11.2076
▁خطته	-11.208
▁الاثيوبي	-11.2081
▁المرتقب	-11.2081
▁اضطراب	-11.2083
▁الجزر	-11.2084
▁استدعت	-11.2087
▁ينحدر	-11.2087
▁بالحبس	-11.2087
▁تكوين	-11.2087
▁واليابان	-11.2087
▁التمثيل	-11.2089
▁يضيف	-11.209
طالما	-11.2094
▁فرقة	-11.2095
▁رات	-11.2098
▁تمكين	-11.2102
▁ينتج	-11.2104
تخوف	-11.2105
شفرة	-11.2106
▁مشهد	-11.2108
تضر	-11.2112
ارساء	-11.2115
▁الاختيار	-11.2116
▁اغنية	-11.2118
▁وتوصل	-11.2118
▁البحرينية	-11.2122
مواهب	-11.2123
▁نقد	-11.2125
▁لاوروبا	-11.2125
▁متوقعة	-11.2125
▁الضمان	-11.2127
▁ملكية	-11.2127
قصص	-11.2129
▁وزاري	-11.213
وتشي	-11.2131
▁اوقع	-11.2132
▁اليمنيين	-11.2133
▁اللندني	-11.2135
▁صربيا	-11.2135
▁بالاجماع	-11.2135
▁تنتمي	-11.2135
▁طابع	-11.2136
▁التنقل	-11.2137
▁الفائت	-11.2137
▁الثنائي	-11.2138
حوالي	-11.2139
▁الموالين	-11.214
تحل	-11.2141
▁جولته	-11.2141
▁للمخرج	-11.2143
▁البول	-11.2144
▁هند	-11.2145
▁للتنظيم	-11.2146
▁شكوك	-11.2146
▁تجاهل	-11.2147
▁كاد	-11.2149
اجراء	-11.2151
▁المصرفية	-11.2152
▁المحاصر	-11.2153
▁ضيف	-11.2154
▁اسرار	-11.2155
▁صفحات	-11.2156
▁1.5	-11.2157
▁الجوار	-11.2157
▁دراجة	-11.2159
▁لسنوات	-11.216
▁ميلاده	-11.2162
▁تصيب	-11.2162
2%	-11.2164
▁العكس	-11.2165
▁وتحديد	-11.2167
▁موحد	-11.2173
de	-11.2176
▁مبارياته	-11.2176
▁فارس	-11.2176
▁يقرر	-11.2177
▁82	-11.2178
اقتصاد	-11.2182
▁الساخن	-11.2183
▁فرنسوا	-11.2183
▁مسئول	-11.2183
▁خميس	-11.2183
▁تعميم	-11.2183
▁حاشدة	-11.2183
▁اداة	-11.2186
لاداء	-11.2188
▁بغض	-11.2189
▁تفعل	-11.219
▁ليلي	-11.219
▁الواسعة	-11.2191
▁الروبوت	-11.2192
▁ووجه	-11.2194
مهارات	-11.2195
▁مصرعهم	-11.2197
رالي	-11.2198
▁وهنا	-11.2202
▁كردي	-11.2205
▁يثبت	-11.2205
▁واظهر	-11.2209
▁وافريقيا	-11.221
▁سيناريو	-11.2212
▁افعال	-11.2212
▁لقيادة	-11.2214
▁بتناول	-11.2216
▁واجري	-11.2217
▁ساني	-11.2218
▁توزع	-11.2221
▁سمح	-11.2225
▁تبذل	-11.2226
▁يدرك	-11.2229
▁نمط	-11.2229
▁صانع	-11.223
طائفة	-11.223
▁وخارج	-11.2231
▁فنزويلا	-11.2232
▁احتواء	-11.2233
▁مستدام	-11.2233
▁الحساب	-11.2233
وحشية	-11.2233
▁الضائع	-11.2234
▁ادارته	-11.2236
استثمار	-11.2238
الرئيس	-11.2239
يشن	-11.2241
▁روي	-11.2245
▁المارة	-11.2245
سلوك	-11.2246
▁ملعبه	-11.2246
▁لخفض	-11.225
▁ويشير	-11.2252
▁نسخته	-11.2253
مجموعات	-11.2254
▁لجائزة	-11.2255
شعور	-11.2256
حرس	-11.2257
المستشارة	-11.2259
▁المهاجمين	-11.2259
انقاذ	-11.226
▁بدوي	-11.226
▁اتصالا	-11.2261
▁للهيئة	-11.2263
غراب	-11.2263
▁يجتمع	-11.2263
▁مروري	-11.2268
-3	-11.2268
▁ويعود	-11.2268
▁مسمي	-11.2269
▁لفريقه	-11.2269
▁انقذ	-11.227
▁ولادة	-11.2271
ra	-11.2271
حصي	-11.2273
ثقل	-11.2274
▁الروهينغا	-11.2281
▁هشام	-11.2281
▁اولويات	-11.2282
▁بسوريا	-11.2282
▁دستور	-11.2282
حامل	-11.2283
▁الاستاذ	-11.2283
▁دستورية	-11.2286
▁اتصل	-11.2287
▁واغلاق	-11.2287
▁العائد	-11.2288
▁الامة	-11.2294
الشعب	-11.2296
لصفوف	-11.2299
▁جوهر	-11.2303
▁الشمل	-11.2303
▁تلميذ	-11.2304
ماك	-11.2306
ليست	-11.2306
▁تحكم	-11.2307
اعمال	-11.231
▁حصري	-11.2312
▁لاستئناف	-11.2316
اصدقائه	-11.2317
اختطاف	-11.2319
▁الطارئة	-11.232
▁للمباراة	-11.232
▁للسلطة	-11.2321
انسان	-11.2321
تفشي	-11.2324
▁الاتجار	-11.2326
لفظ	-11.2326
▁تقيم	-11.2328
▁واطفال	-11.2329
+	-11.233
▁ستوكهولم	-11.233
▁والابعاد	-11.233
▁كثب	-11.233
▁جوانب	-11.233
▁استثناء	-11.2331
▁الناقلة	-11.2331
▁بتعزيز	-11.2331
▁الجزائي	-11.2332
▁والغرب	-11.2332
▁مؤهل	-11.2332
عوض	-11.2333
توافد	-11.2333
▁كسب	-11.2334
▁الافتراضية	-11.2334
▁فرز	-11.2337
▁للخروج	-11.234
▁الميداني	-11.234
▁وعلق	-11.234
▁العبور	-11.2341
▁طرفي	-11.2342
▁عاصفة	-11.2343
▁ويل	-11.2344
▁اطاحت	-11.2344
▁الزجاج	-11.2345
▁الجثث	-11.2346
بطارية	-11.2346
▁دورات	-11.2348
▁وطالبة	-11.235
▁مدينتي	-11.2351
تحذير	-11.2352
مسيرة	-11.2356
▁البطن	-11.2358
▁التكنولوجي	-11.2358
ساينس	-11.2358
▁اللاتي	-11.2359
▁التقييم	-11.236
▁تشو	-11.2361
▁متاخرة	-11.2365
▁يعكس	-11.2365
ترشيح	-11.2369
فوت	-11.2371
▁متزايدة	-11.2372
▁التباعد	-11.2374
طوق	-11.2375
تنبيه	-11.2377
لحظ	-11.2378
▁سيارتها	-11.2378
▁البسيطة	-11.2379
▁ساكسونيا	-11.2379
▁والجزائر	-11.2379
▁الجزئي	-11.2379
تكريم	-11.2379
▁السبسي	-11.2379
▁مروحية	-11.2379
▁ناخب	-11.2379
▁الروماني	-11.2379
▁بخدمات	-11.238
▁الطبقة	-11.2385
رحلات	-11.2386
▁تعطيل	-11.2387
▁تدبير	-11.2387
الهجوم	-11.2387
▁اندماج	-11.2388
▁بيوت	-11.239
▁يتفق	-11.2391
▁لقبه	-11.2391
▁ماري	-11.2391
▁الشاملة	-11.2392
▁قدمها	-11.2397
▁ابدت	-11.24
▁وتحديدا	-11.2403
وظائف	-11.2403
▁المؤكد	-11.2404
اندماج	-11.2405
▁ادائه	-11.2406
▁(7	-11.2406
▁حقل	-11.2407
▁مغني	-11.2408
▁نهار	-11.2412
▁المحدد	-11.2412
▁تغريدات	-11.2414
عيوب	-11.2415
ؤيد	-11.2417
▁مراعاة	-11.2417
▁وشددت	-11.2418
استراليا	-11.242
▁الكيماوي	-11.2426
▁باغلاق	-11.2428
▁الهادفة	-11.2428
▁ولبنان	-11.2428
▁ينتقل	-11.2429
▁الصمت	-11.243
▁يتحمل	-11.243
▁الخطيب	-11.2431
▁والهند	-11.2433
▁لقانون	-11.2434
▁مواطنة	-11.2435
▁القري	-11.2436
▁الابن	-11.2437
مقابل	-11.2438
▁وامام	-11.2439
▁تاخذ	-11.2441
▁الجندي	-11.2441
▁ثقته	-11.2444
▁انصاره	-11.2445
▁الديموقراطية	-11.2447
▁جاك	-11.2447
▁كيلوغرام	-11.2448
▁الرياضيين	-11.2449
▁كليا	-11.2452
▁واستخدم	-11.2452
▁موقفها	-11.2454
▁صمت	-11.2454
▁سكن	-11.2457
دلتا	-11.246
مبادرات	-11.2461
▁للاحتجاج	-11.2462
▁بالطاقة	-11.2463
▁“	-11.2464
اغذية	-11.2465
▁الحساسية	-11.2465
▁باخر	-11.2467
▁تقلل	-11.2467
▁110	-11.2469
▁الحاكمة	-11.247
▁الخيارات	-11.2474
ؤسس	-11.2477
زيارة	-11.2477
خصائص	-11.2478
▁الوظيفي	-11.2478
▁بالاكراه	-11.2478
▁جزائري	-11.2478
▁دريسدن	-11.2478
▁يرجح	-11.2478
▁للسماح	-11.2478
▁كرامب	-11.2478
▁مستقرة	-11.2479
▁موافقته	-11.2479
▁الخفيف	-11.248
اخفاق	-11.2482
▁يستخدمون	-11.2482
▁والمعرفة	-11.2484
▁لبلاده	-11.2485
الهلال	-11.2485
▁الصلب	-11.2486
▁غيدو	-11.2488
▁الصوتية	-11.2489
▁المدمر	-11.2491
▁بمصر	-11.2492
▁لموظفي	-11.2493
▁الالب	-11.2493
▁الاخلاق	-11.2495
▁سياسته	-11.2496
اودي	-11.2496
▁والعنف	-11.2499
▁2019»	-11.25
▁الحكام	-11.2501
▁ونائب	-11.2502
▁سنغافورة	-11.2505
استفتاء	-11.2506
▁الاعلانات	-11.2506
▁مسؤولو	-11.2509
▁والثالث	-11.2509
▁ضربت	-11.251
اقصي	-11.2513
▁المحليين	-11.2516
▁بوسطن	-11.2516
مضادات	-11.2516
▁الذاتية	-11.2519
استعمال	-11.2519
اهمال	-11.252
▁ديون	-11.252
▁ذاتي	-11.2525
▁وجهها	-11.2525
▁لجان	-11.2526
▁المحتجزين	-11.2528
▁المفقودين	-11.2528
مواكبة	-11.2528
مفاجات	-11.2528
▁ساخن	-11.2529
▁حثت	-11.2529
▁لكم	-11.253
▁الامد	-11.2531
▁يتغير	-11.2532
▁وتونس	-11.2535
▁رافق	-11.2538
▁الرئة	-11.2538
تفاقم	-11.2538
▁بحكم	-11.2538
▁متوجه	-11.2539
▁الحادية	-11.2539
▁يراس	-11.254
انتهاكات	-11.2541
▁البري	-11.2541
مقاطعة	-11.2542
▁الحروب	-11.2542
العمل	-11.2543
▁الايجار	-11.2546
جنة	-11.2546
▁ويقوم	-11.2548
▁يشن	-11.2549
▁نجاحا	-11.255
▁نموا	-11.2553
ستيف	-11.2555
▁تخت	-11.2558
▁جراحة	-11.256
▁شتو	-11.2562
▁اهتماما	-11.2563
▁1200	-11.2564
▁دواء	-11.2564
▁الصلاة	-11.2565
▁مضيق	-11.2566
لكبار	-11.2569
▁للاسر	-11.2572
▁المرتفعة	-11.2573
▁وسم	-11.2574
▁مثالي	-11.2575
▁مضمار	-11.2577
شجاعة	-11.2577
▁موحدة	-11.2577
▁الفقيرة	-11.2578
▁غوتسه	-11.2578
▁محاور	-11.2578
▁وافراد	-11.2579
▁الخزانة	-11.2579
▁وحلفائه	-11.2579
▁الاصيلة	-11.2579
▁لشركات	-11.2579
يسر	-11.2579
▁التل	-11.258
▁مسقط	-11.258
لرئاسة	-11.258
بوابة	-11.258
باستيان	-11.2581
استفسار	-11.2581
▁مزمن	-11.2581
▁للهجوم	-11.2581
▁المناخية	-11.2582
▁للتسوق	-11.2582
▁بتعيين	-11.2582
▁الشغل	-11.2584
▁باتفاق	-11.259
▁بيزود	-11.259
موافقة	-11.2593
حروق	-11.2594
▁وتنفيذ	-11.2599
▁تكثيف	-11.26
▁والفرنسي	-11.2601
▁81	-11.2603
▁يحكم	-11.2605
▁تعطل	-11.2615
▁حظوظ	-11.2618
▁اراض	-11.2618
دويتشه	-11.2621
تشخيص	-11.2622
العدالة	-11.2622
▁المدة	-11.2625
▁الكنائس	-11.2629
▁كوسوفو	-11.2629
▁البلقان	-11.2629
▁بالمركز	-11.2629
اشعة	-11.2629
▁ودع	-11.2629
▁التلوث	-11.2629
▁الدواء	-11.2631
▁القادر	-11.2631
▁احتل	-11.2632
▁الضربة	-11.2632
▁الساخر	-11.2632
▁الاخباري	-11.2634
▁ومصادر	-11.2635
تحد	-11.2635
▁مخدرات	-11.2635
رعي	-11.2635
▁الكوادر	-11.2638
▁الجميل	-11.2638
▁فهذا	-11.2639
نجر	-11.264
وتس	-11.2641
قبضة	-11.2642
▁الدفاعية	-11.2644
▁تعليمية	-11.2645
▁الاقصر	-11.2646
▁كف	-11.2646
▁المساهمة	-11.2646
▁تاريخها	-11.2648
▁يجر	-11.2649
▁ايطالية	-11.2649
▁كثر	-11.265
▁لقياس	-11.2653
▁والشرق	-11.2658
▁تسو	-11.2659
▁لحادث	-11.2661
▁الفردية	-11.2665
▁قدرت	-11.2666
▁فضاء	-11.2667
▁خاطئة	-11.2667
مبادلة	-11.2668
▁فارق	-11.267
يشي	-11.2671
▁الاحتيال	-11.2675
تؤكد	-11.2676
اجزاء	-11.2677
▁المبيعات	-11.2678
▁الدقيقتين	-11.268
▁ينتقد	-11.268
▁بامارة	-11.268
▁وارتفع	-11.268
▁انظار	-11.268
جغرافي	-11.268
▁سوداني	-11.2681
بوليس	-11.2682
▁ينطبق	-11.2682
▁الاياب	-11.2682
▁دوائر	-11.2683
▁تضررا	-11.2683
▁4-	-11.2683
▁يتطلع	-11.2683
▁قاض	-11.2685
▁مشرف	-11.2685
حارة	-11.2685
▁امتار	-11.2685
▁القارات	-11.2686
قاتل	-11.2687
رسال	-11.2687
يجري	-11.2687
فتقر	-11.269
مضاعفات	-11.269
جوز	-11.2692
رواد	-11.2695
▁ومراكز	-11.2697
▁الافتتاح	-11.2698
▁اعتذار	-11.27
95	-11.2702
▁ناشد	-11.2704
▁متطوع	-11.2707
▁البلاستيكية	-11.2708
ميليشيا	-11.2708
▁بفريق	-11.2711
▁غار	-11.2712
▁ومجموعة	-11.2714
▁الحو	-11.2718
اقتحام	-11.2724
▁سكر	-11.2726
صفقة	-11.273
▁الكولومبي	-11.2731
نعتقد	-11.2731
▁والجرحي	-11.2731
▁بتسليم	-11.2731
▁الامانة	-11.2733
▁البضائع	-11.2737
▁حبيب	-11.2737
▁خالية	-11.2739
▁وحقوق	-11.2739
حاكم	-11.2739
▁العماني	-11.274
▁بارتفاع	-11.274
▁باولو	-11.2741
▁لانهم	-11.2741
▁بالمشاركة	-11.2744
▁الجدير	-11.2744
▁ياخذ	-11.2745
▁بيوفر	-11.2748
▁واسفرت	-11.2751
▁متوسطة	-11.2752
▁سيطرتها	-11.2753
▁مادية	-11.2757
نصف	-11.2757
▁اسمها	-11.2757
▁تناولت	-11.2757
▁لاستكمال	-11.2757
▁حلفاء	-11.2759
ملاحقة	-11.2759
خلط	-11.276
▁الجدار	-11.2769
▁السبعة	-11.277
▁تدل	-11.2771
▁احتجاجية	-11.2775
▁ترسل	-11.2775
مصير	-11.2776
▁موانئ	-11.2776
▁هوليوود	-11.2782
▁للتعبير	-11.2782
▁نافذ	-11.2782
▁ارهابيا	-11.2782
▁فضل	-11.2782
▁بيوم	-11.2783
▁اتش	-11.2784
▁دموية	-11.2784
▁السيئة	-11.2784
تالف	-11.2786
▁اوقعت	-11.2786
▁بالحصول	-11.2789
▁توقفت	-11.2789
▁الحلول	-11.279
▁الشوري	-11.2791
ينتهي	-11.2792
▁بقوله	-11.2793
ستهل	-11.2794
▁تحفظ	-11.2795
▁ومواقع	-11.2797
▁المنعقد	-11.2798
▁وتحت	-11.2799
▁بعودة	-11.2801
▁اسيويين	-11.2807
▁المصور	-11.2808
بورج	-11.2808
▁وغرب	-11.281
اعلام	-11.2812
▁اللتين	-11.2812
▁الضرر	-11.2812
▁بوكو	-11.2815
▁بالحكم	-11.2817
▁والاستثمار	-11.2817
يبدو	-11.2818
▁ويهدف	-11.2819
▁موضع	-11.2824
عتبة	-11.2824
دوافع	-11.2828
قلي	-11.2829
▁والمياه	-11.2829
تعود	-11.2832
▁ضرر	-11.2833
وزي	-11.2835
▁الممتد	-11.2835
▁البحار	-11.2836
▁المقاتلة	-11.2836
كبير	-11.284
▁فرانسوا	-11.2841
▁الاسماء	-11.2843
الخارجية	-11.2843
▁الرحم	-11.2844
▁محتاج	-11.2846
▁مفهوم	-11.2849
▁تنجح	-11.285
▁موارد	-11.2851
تفع	-11.2851
خزن	-11.2857
▁بتغيير	-11.2857
▁مشجعي	-11.2858
فكرة	-11.2859
نقطة	-11.2861
▁كيت	-11.2863
▁يخسر	-11.2863
▁ويامل	-11.2864
▁مساحات	-11.2864
▁الافتتاحية	-11.2866
▁صناعية	-11.2868
جامع	-11.287
▁تحديا	-11.287
▁تخص	-11.2871
▁الحظ	-11.2874
▁العاجل	-11.2876
▁التوافق	-11.2877
▁المنتجة	-11.2877
▁بلدانهم	-11.2878
▁صحيحة	-11.288
تسديد	-11.2882
▁وهولندا	-11.2885
▁انقسام	-11.2885
▁بمفرده	-11.2885
▁المنتشرة	-11.2885
▁والسودان	-11.2886
▁موالية	-11.2886
▁حافلات	-11.2887
▁حيوية	-11.2888
شهادة	-11.289
تنقي	-11.2891
▁سلع	-11.2892
▁الاهمية	-11.2892
▁موظفا	-11.2892
▁عروضا	-11.2893
▁الرائع	-11.2894
▁اختتم	-11.2894
▁مؤلف	-11.2895
▁تمثيل	-11.2898
▁لشخص	-11.2898
▁وتقليل	-11.2902
فجوة	-11.2902
▁بسب	-11.2902
▁الاعتصام	-11.2905
شيء	-11.2905
▁مفيد	-11.2906
▁للمنطقة	-11.2906
▁نسخ	-11.2906
▁والقي	-11.2908
▁87	-11.2908
▁دبلوماسيون	-11.2908
لمعايير	-11.291
نفاذ	-11.2912
▁هددت	-11.2913
▁ترحيب	-11.2913
▁كردية	-11.2914
▁عموما	-11.2921
▁الجمعيات	-11.2921
نيابة	-11.2922
▁تحتفل	-11.2924
تراس	-11.2926
▁توليد	-11.2926
▁سيدات	-11.2932
سليط	-11.2934
▁شويبله	-11.2937
▁سانشيز	-11.2937
▁الطاقم	-11.2937
▁يلزم	-11.2938
▁احتفالا	-11.2938
▁المميزة	-11.2938
▁تناقش	-11.2938
▁الوراثية	-11.2939
اخوة	-11.294
▁المناهض	-11.2941
▁الثقيل	-11.2941
▁ناجم	-11.2941
▁خليل	-11.2942
دجاج	-11.2942
▁لتفريق	-11.2944
نهايم	-11.2947
▁الصفدي	-11.2949
▁وبسبب	-11.2949
▁شكري	-11.2949
تجسس	-11.295
▁للعنف	-11.295
▁نظيف	-11.2951
▁الراحة	-11.2959
▁بلاغا	-11.2959
فريد	-11.2959
▁الانفلونزا	-11.296
▁ونجح	-11.2961
▁اطفالهم	-11.2962
▁حيوي	-11.2963
▁المعادية	-11.2964
ساد	-11.2967
▁احب	-11.2969
▁وتعمل	-11.297
▁جونز	-11.2975
▁صاروخا	-11.2977
,5	-11.2978
سلاف	-11.2979
▁ردت	-11.2986
▁التحدث	-11.2988
▁الكنيست	-11.299
▁الناجح	-11.299
▁صيانة	-11.299
▁حرائق	-11.2991
▁انتشر	-11.2992
▁سموه	-11.2993
▁يتجه	-11.2994
▁واعترف	-11.2997
▁مستودع	-11.2998
▁الحليب	-11.2999
▁الشفاء	-11.2999
▁سلمية	-11.3
▁الاجل	-11.3001
شاك	-11.3002
قاس	-11.3004
▁الكم	-11.3005
▁المذكور	-11.3006
▁فاعل	-11.301
▁وجميع	-11.3011
ائك	-11.3011
موضة	-11.3017
▁ويطالب	-11.3018
▁يرغبون	-11.3019
▁للمجتمع	-11.3023
تدابير	-11.3023
▁ديل	-11.3025
▁تعتقد	-11.3025
بارك	-11.3026
تحضير	-11.3027
▁نيته	-11.3027
اسعاف	-11.3028
▁الموز	-11.3029
▁فهد	-11.3031
هيمنة	-11.3031
▁تحفيز	-11.3032
انتصار	-11.3032
▁التوعية	-11.3033
▁لفرض	-11.3034
▁الكرك	-11.3035
▁والاعتداء	-11.3035
▁يختار	-11.3036
رئاسة	-11.3038
▁شوط	-11.3038
▁بطرق	-11.3041
▁استقطاب	-11.3042
▁ايرلندا	-11.3042
▁بشؤون	-11.3042
مصطلح	-11.3042
▁الاعاقة	-11.3043
▁اشياء	-11.3043
▁جاويش	-11.3043
▁وعقب	-11.3043
▁جرح	-11.3043
▁متاثرا	-11.3043
▁نفذتها	-11.3044
▁الساسة	-11.3044
▁الكاتبة	-11.3044
▁مهتم	-11.3045
▁جدوي	-11.3045
▁يسبق	-11.3046
▁المنشور	-11.3046
▁السائح	-11.3047
▁اعصار	-11.3047
▁للمحكمة	-11.3048
▁ملح	-11.3048
▁سيباستيان	-11.3049
خيال	-11.3049
▁ووجهت	-11.3049
▁للمدرب	-11.305
▁الخيار	-11.3053
▁شقيقه	-11.3057
▁يتحول	-11.3058
▁تنصيب	-11.306
▁باهمية	-11.3063
▁للنزاع	-11.3065
استشاري	-11.3066
لاستكشاف	-11.3068
▁ذاتية	-11.307
▁واستقرار	-11.3074
▁بالدم	-11.3075
▁بنسب	-11.3076
▁للوكالة	-11.308
▁محام	-11.3084
جائحة	-11.3088
▁لليهود	-11.3089
▁حتفه	-11.3092
مانشستر	-11.3093
▁محظور	-11.3095
▁يناهز	-11.3095
▁وقطاع	-11.3095
▁تكليف	-11.3095
▁هبط	-11.3095
كلاسيكو	-11.3095
▁الكونغو	-11.3096
▁تشر	-11.3096
▁الشم	-11.3097
▁مريم	-11.31
▁الفائدة	-11.3101
▁المقدس	-11.3102
▁3-1	-11.3105
▁تتميز	-11.3105
▁كارلوس	-11.3108
رفق	-11.3109
▁حيوانات	-11.311
▁وتظهر	-11.3121
▁لاتحاد	-11.3121
زاد	-11.3123
ساهمت	-11.3124
▁الجراح	-11.3127
▁عينة	-11.313
ربين	-11.3131
▁لمكتب	-11.3138
▁يمنية	-11.3139
▁امتلاك	-11.3141
اجيال	-11.3145
▁وتناول	-11.3145
▁لاغراض	-11.3148
▁طوارئ	-11.3148
▁تشلسي	-11.3148
ديل	-11.3149
▁الضالع	-11.3149
مؤامرة	-11.3149
▁ممارسات	-11.315
▁الالوان	-11.315
000	-11.3152
▁ضخ	-11.3154
▁الجنسيات	-11.3155
▁شرم	-11.3156
▁المتبقية	-11.3157
ايام	-11.3161
▁بنس	-11.3161
▁ستريت	-11.3165
▁83	-11.3166
▁الجيدة	-11.3167
وغا	-11.3169
الزعيم	-11.3171
روسيا	-11.3173
▁الطلاق	-11.3175
▁صقر	-11.3177
رؤي	-11.3178
ادانة	-11.3179
ثقافة	-11.318
▁ويضم	-11.3181
▁اممي	-11.3181
▁الشاعر	-11.3182
▁اميركيين	-11.3185
▁الاختبار	-11.3186
▁المتواجد	-11.3187
▁السعرات	-11.3192
▁المنظومة	-11.3192
منزل	-11.3193
منتدي	-11.3197
▁البريطانيين	-11.32
▁والمنطقة	-11.3201
▁للنفط	-11.3202
رابطة	-11.3202
الصقور	-11.3202
▁وكوريا	-11.3202
▁الباردة	-11.3202
▁تجربته	-11.3203
▁فصيل	-11.3203
كتيبة	-11.3203
▁اقامتها	-11.3204
▁علنا	-11.3204
▁حماة	-11.3205
▁مواطنون	-11.3205
▁حجب	-11.3206
▁متاحة	-11.3206
نبض	-11.3207
اولياء	-11.3207
بلغ	-11.3211
▁النقطة	-11.3216
زياء	-11.3216
▁مهددة	-11.3216
▁خيم	-11.3217
▁للمسابقة	-11.3217
▁الملفات	-11.3221
▁هجرة	-11.3221
▁انتزع	-11.3226
لزيارة	-11.3229
ادمان	-11.3232
▁علو	-11.3233
سوار	-11.3235
▁وتوجه	-11.3238
▁ووسط	-11.3238
مونديال	-11.3239
▁ابان	-11.3239
▁تشريع	-11.324
▁اجتماعي	-11.324
▁والقوي	-11.3242
▁وتجمع	-11.3245
تصعيد	-11.3246
▁التعديل	-11.3247
▁الشركاء	-11.3247
▁اولوية	-11.3248
الاستيلاء	-11.325
▁الصاروخية	-11.3254
▁للتفاوض	-11.3255
▁وبيقلل	-11.3256
▁تثبيت	-11.3256
▁الظهور	-11.3256
▁المثليين	-11.3256
▁المولود	-11.3256
▁تتحمل	-11.3256
▁يحظر	-11.3256
تجميد	-11.3257
▁متواصلة	-11.3257
▁الصالات	-11.3258
▁حرجة	-11.3258
▁المهلة	-11.3259
▁قيادته	-11.3259
▁لمركز	-11.326
▁وتبين	-11.3261
▁التربة	-11.3264
▁بغرب	-11.3265
خطير	-11.3267
▁والمغرب	-11.3271
▁وتجنب	-11.3274
▁بحالة	-11.3279
▁الصراعات	-11.3285
▁المتطوعين	-11.3285
▁بعرض	-11.3286
▁العلاجية	-11.3287
▁البطل	-11.3287
▁متظاهرون	-11.3288
▁الاماراتيين	-11.3289
▁نفذها	-11.3289
▁هزت	-11.329
▁النموذج	-11.3291
▁170	-11.3292
▁الجمهوريين	-11.3293
▁الفاعل	-11.3294
تضح	-11.3294
▁اللاجئون	-11.3295
▁الشاي	-11.3296
▁بلدهم	-11.3298
انجليزي	-11.3304
▁لفتح	-11.3304
▁للعراق	-11.3305
▁مفيدة	-11.3308
▁العشر	-11.3308
▁اختصاص	-11.331
▁خامنئي	-11.331
▁وافغانستان	-11.331
حفاظا	-11.331
▁المنافسات	-11.331
▁يشاركون	-11.3311
▁ثبوت	-11.3311
▁حضرموت	-11.3311
▁وهدد	-11.3311
بطاريات	-11.3312
مقارنة	-11.3313
▁تلت	-11.3314
▁خامس	-11.3315
▁يسير	-11.3316
▁تعريف	-11.3316
▁اشعة	-11.3318
▁بتاريخ	-11.3319
لمواد	-11.3319
▁المغنية	-11.3321
▁انفجارات	-11.3325
▁والتوطين	-11.3326
شيل	-11.3333
عصف	-11.3334
▁الجوع	-11.3346
الجيش	-11.3346
▁الانذار	-11.3348
▁اعتقاده	-11.3348
▁يتردد	-11.3355
بوك	-11.3358
معلم	-11.3359
هدنة	-11.3359
▁تيمو	-11.3361
برشلونة	-11.3361
مايكروسوفت	-11.3364
▁الخصاونة	-11.3364
▁يلتزم	-11.3364
▁مقبرة	-11.3364
▁انتخب	-11.3364
▁الشرف	-11.3365
▁(9	-11.3366
▁روبن	-11.3368
فضي	-11.337
▁بحظر	-11.3371
▁تعارض	-11.3371
شمس	-11.3376
▁84	-11.3378
▁نكون	-11.3379
▁المظاهرة	-11.338
▁شركتي	-11.338
▁تدافع	-11.3381
▁الصيانة	-11.3381
▁جامعات	-11.3382
▁الحريات	-11.3383
▁سيطرته	-11.3384
▁مزارع	-11.3385
▁استياء	-11.3387
▁سمير	-11.3387
01	-11.3388
▁المتقاعد	-11.3392
▁التشيكي	-11.3393
▁للاقتصاد	-11.3398
▁للخيول	-11.3398
▁المسلسل	-11.34
▁يحول	-11.3404
▁البحريني	-11.3408
ic	-11.341
▁اصطدام	-11.3413
j	-11.3419
▁فولفغانغ	-11.3419
▁النخبة	-11.3419
▁تاشيرات	-11.3419
▁ناهز	-11.3419
▁لفترات	-11.342
يتنا	-11.342
▁الهندسة	-11.3421
▁متقدما	-11.3421
روبوت	-11.3422
▁رسالته	-11.3422
مناخ	-11.3423
▁تكلف	-11.3425
نزوح	-11.3425
▁هزاع	-11.3427
▁100%	-11.3428
▁شير	-11.3431
قدرات	-11.3432
▁لضحايا	-11.3432
قرصنة	-11.3434
▁نبات	-11.3436
▁للمستقبل	-11.3437
مضاعفة	-11.3438
علينا	-11.344
لغاية	-11.3442
▁لوح	-11.3443
▁الطرفان	-11.3444
▁حرك	-11.3444
▁جدية	-11.3445
▁السنين	-11.3448
▁فايزر	-11.3454
▁ملموسة	-11.3455
▁الانتصارات	-11.3458
▁بديلة	-11.3462
واتساب	-11.3466
ايران	-11.3467
راين	-11.3469
فاصل	-11.3473
▁التداول	-11.3473
ازدهار	-11.3474
▁لتوزيع	-11.3474
▁استبدال	-11.3474
▁الحواجز	-11.3474
▁الشيوعي	-11.3474
▁الاعصار	-11.3474
استخدام	-11.3475
تفصيل	-11.3475
▁يستحق	-11.3476
▁ناقلة	-11.3477
▁براون	-11.348
▁بالتالي	-11.3481
▁بياثر	-11.3482
▁انشطته	-11.3484
▁اريد	-11.3484
▁القمع	-11.3484
▁للحكم	-11.3485
لمرحلة	-11.3486
▁450	-11.3486
▁شل	-11.3486
▁واجهت	-11.3489
▁لازال	-11.349
▁والعودة	-11.3491
▁محترف	-11.3493
▁نتج	-11.3494
2013	-11.3494
▁بالشراكة	-11.3495
▁الشاشة	-11.3495
▁المرسوم	-11.3501
▁كينيا	-11.3503
▁والاجراءات	-11.3505
▁الواجب	-11.3505
نبورغ	-11.3505
▁الغرض	-11.3505
اضطرابات	-11.3512
▁وتجري	-11.3513
▁لمهرجان	-11.3514
▁خلو	-11.3517
اردن	-11.3519
▁الشفافية	-11.3521
فندق	-11.3524
▁وغيرهم	-11.3526
▁ايل	-11.3529
▁التكهنات	-11.3529
▁تهدئة	-11.3529
▁المنكوبة	-11.3529
▁قروض	-11.3529
▁اجسام	-11.3529
حوافز	-11.3529
▁الاوعية	-11.3529
▁وعما	-11.353
▁بعام	-11.3531
▁حساسة	-11.3531
ابطال	-11.3531
▁1999	-11.3533
▁والاداري	-11.3533
▁تمارس	-11.3533
▁تلوث	-11.3533
مهاجمة	-11.3534
▁هروب	-11.3535
▁جنح	-11.3535
▁زيد	-11.3539
سينما	-11.354
▁الجنسين	-11.354
مجتمع	-11.3544
تخيل	-11.3549
▁مسلحا	-11.3554
▁تتعامل	-11.3554
▁مارين	-11.3555
▁الامهات	-11.3556
المانيا	-11.3561
▁شعارات	-11.3566
حدوث	-11.3568
▁كام	-11.3569
سايت	-11.357
▁مسلمة	-11.3571
▁900	-11.3572
▁وتضمن	-11.3574
لول	-11.3577
▁تميم	-11.3578
مخاوف	-11.3578
مقاومة	-11.3579
▁المقدسة	-11.3579
▁السنغال	-11.358
▁ملاحقة	-11.3581
▁اكسبو	-11.3584
▁لنفس	-11.3584
▁بارزة	-11.3584
▁كوتينيو	-11.3584
▁التجريبي	-11.3584
▁مانديلا	-11.3584
▁الفواكه	-11.3585
▁بالبقاء	-11.3585
▁باعدام	-11.3585
▁تلفزيوني	-11.3587
لاحياء	-11.3587
امتحان	-11.3588
▁اسعاف	-11.3588
▁الشكوك	-11.3589
▁الاثيوبية	-11.3591
▁تلبي	-11.3595
عوم	-11.3595
مسرح	-11.3596
▁العداء	-11.3596
▁حمام	-11.3596
▁المراهق	-11.3598
▁هونيس	-11.3602
▁المقاعد	-11.3603
▁اعجاب	-11.3603
▁يصادف	-11.3604
مفاوضات	-11.3605
▁اغلق	-11.3606
▁الزوجية	-11.3606
▁اكمل	-11.3609
▁الغالب	-11.3611
▁المهرجانات	-11.3613
▁متعمد	-11.3613
▁التصميم	-11.3615
▁ابنائهم	-11.3621
مناسب	-11.3622
▁استعراض	-11.3622
▁نصح	-11.3624
تسهل	-11.3624
زبائن	-11.3632
نظافة	-11.3632
▁ويستفاليا	-11.3632
▁العامري	-11.3632
▁المستقل	-11.3634
جماهير	-11.3635
▁واجراء	-11.3635
تصفيات	-11.3635
▁نفقات	-11.3638
اضطهاد	-11.364
▁المتنازع	-11.364
▁النفوذ	-11.364
▁الملياردير	-11.364
▁للقطاع	-11.364
▁التحريض	-11.364
▁باشراف	-11.364
▁وراثي	-11.364
▁الصناعات	-11.3641
▁التشكيلة	-11.3641
▁الجناة	-11.3643
▁ستيفان	-11.3644
▁الحجاج	-11.3644
ضواحي	-11.3644
▁مجهولين	-11.3646
▁ملاحق	-11.3649
شيف	-11.3651
▁الطارئ	-11.3651
▁الافق	-11.3652
▁للتعرف	-11.3653
▁الحبوب	-11.3655
▁الفصح	-11.3656
▁رحم	-11.3661
▁بلاغ	-11.3663
▁التجمعات	-11.3663
مائة	-11.3665
▁خليج	-11.3665
موديل	-11.3668
▁بتوفر	-11.3669
▁التونسيين	-11.367
فساد	-11.3673
▁الضعف	-11.3676
▁يوتيوب	-11.3679
قتحم	-11.3681
▁سقطوا	-11.3686
انعكاس	-11.3689
▁استرازينيكا	-11.3689
▁بالجيش	-11.3696
ازدحام	-11.3696
٪	-11.3696
▁البيشمركة	-11.3696
▁الاغوار	-11.3697
▁ترتبط	-11.3697
▁النشطاء	-11.3697
▁انجازات	-11.3698
▁الحقائق	-11.3699
▁احمر	-11.3699
▁للعاملين	-11.3699
▁انخفضت	-11.3699
▁حبوب	-11.37
▁وطلبت	-11.3701
▁الجينات	-11.3701
▁التصنيف	-11.3702
▁رضيع	-11.3702
▁2500	-11.3703
▁عملاء	-11.3703
▁الغازات	-11.3703
قطار	-11.3703
▁بتساعد	-11.3704
النصر	-11.3705
تاغ	-11.3708
▁وكما	-11.371
▁القدرات	-11.3713
▁عنصرية	-11.3713
▁ضيق	-11.3714
ثماني	-11.3716
▁عماد	-11.3718
سعودي	-11.3718
▁نفذه	-11.3719
▁موسيقية	-11.3719
▁سيعقد	-11.372
▁هارب	-11.372
▁لتقييم	-11.372
يؤدي	-11.3725
نهي	-11.3725
حبوب	-11.3725
▁شواطئ	-11.3727
▁طقس	-11.3729
▁تعاقده	-11.373
▁التنس	-11.3731
▁السيادة	-11.3731
▁يمينية	-11.3732
at	-11.3735
▁لتغيير	-11.3735
▁ترشح	-11.3735
▁المهر	-11.3737
▁لوفتهانزا	-11.3737
▁حوثية	-11.3738
▁'	-11.3739
▁موكب	-11.3741
▁الهي	-11.3742
ستمتع	-11.3745
زراعة	-11.3745
صانع	-11.3745
▁الاقلية	-11.3746
▁بالوقوف	-11.3746
el	-11.3747
▁امتحان	-11.3752
جزيئات	-11.3753
▁الشائعات	-11.3753
▁للاصابات	-11.3753
▁اكراد	-11.3753
▁رفيق	-11.3753
▁موزعة	-11.3753
▁المؤشرات	-11.3754
▁المغلقة	-11.3754
▁باصابات	-11.3754
موسوعة	-11.3754
▁الوبائي	-11.3757
▁المستحق	-11.3757
▁مؤيدة	-11.3757
▁بارزاني	-11.3758
توحيد	-11.3759
▁عادية	-11.376
▁توريد	-11.376
▁وممكن	-11.3764
▁اللياقة	-11.3764
▁اوليفر	-11.3764
▁علمت	-11.3768
▁التشيك	-11.3769
▁سماء	-11.377
قرية	-11.3772
▁لاسر	-11.3772
▁صفة	-11.3773
▁دفن	-11.3776
▁جددت	-11.3779
▁بثلاثية	-11.3781
رسائل	-11.3785
▁امتداد	-11.3788
كامب	-11.3789
6%	-11.3795
▁قراءة	-11.3796
▁تجمد	-11.3797
استراتيجية	-11.3798
▁والمنتخب	-11.38
▁الجمال	-11.3801
▁ومش	-11.3801
▁مداهمة	-11.3803
انتفاضة	-11.3803
▁المذكورة	-11.3806
▁متوقع	-11.3807
تقرير	-11.3807
خطوات	-11.3808
▁الوساطة	-11.381
▁الاشجار	-11.381
▁المخدرة	-11.381
▁مخزون	-11.381
▁شاهين	-11.381
اعماق	-11.3812
بندقية	-11.3812
▁منطقتي	-11.3813
▁هيلاري	-11.3813
▁العجوز	-11.3813
▁الهيكل	-11.3814
▁ونفي	-11.3814
▁وكبار	-11.3815
▁كروز	-11.382
استلام	-11.3821
كفالة	-11.3821
▁كهربائي	-11.3823
مبيدات	-11.3828
▁الشواطئ	-11.3828
▁الاشراف	-11.3832
▁للتصويت	-11.3833
▁يفيد	-11.3833
▁التبادل	-11.3834
▁يقولون	-11.3834
▁استجواب	-11.3836
كنت	-11.3836
▁علاقاتها	-11.3836
▁ويعيش	-11.3838
وكالات	-11.3839
▁يتعامل	-11.3839
▁اقتصاديا	-11.3842
▁مجمل	-11.3846
▁كرواتيا	-11.3849
محاصرة	-11.3849
▁البالغين	-11.3851
▁الاناضول	-11.3856
▁شيعية	-11.3858
رشاد	-11.3859
ستير	-11.3859
▁وشكل	-11.3861
مقعد	-11.3861
▁البلاستيك	-11.3864
سلك	-11.3866
▁ونادي	-11.3867
▁قوائم	-11.3867
▁بوغبا	-11.3867
▁والرياح	-11.3867
احاطة	-11.3868
▁اللوحي	-11.3868
▁عيار	-11.3869
مشتقات	-11.387
▁انتخابية	-11.3871
▁مواسم	-11.3871
▁مستحق	-11.3872
▁الجري	-11.3872
▁موجات	-11.3872
▁جثمان	-11.3873
▁تسهم	-11.3874
▁مهني	-11.3874
روايات	-11.3877
القاعدة	-11.388
▁الزراعي	-11.3881
▁شريف	-11.3882
اكاديمية	-11.3883
هواوي	-11.3883
▁الخيال	-11.3884
▁السهل	-11.3884
▁الافغان	-11.3885
▁بتعديل	-11.3887
▁مشير	-11.3889
▁بنتائج	-11.3891
▁اضرارا	-11.3891
شاشات	-11.3891
▁لعرض	-11.3892
▁العقل	-11.3893
▁متي	-11.3895
تكتيك	-11.3896
▁تخصيب	-11.3897
▁بالامر	-11.3904
عتذر	-11.3906
▁79	-11.3906
▁مبادئ	-11.3907
▁للتكنولوجيا	-11.3908
▁قطعت	-11.391
▁الخبز	-11.3911
▁تاثيرات	-11.3914
▁الحية	-11.3914
▁وشعب	-11.3917
وكل	-11.3918
جيو	-11.3919
▁تتابع	-11.3922
استهلاك	-11.3923
موانئ	-11.3924
▁المرزوقي	-11.3924
▁بتطوير	-11.3924
▁الاوبئة	-11.3924
▁احبطت	-11.3924
صيغة	-11.3925
▁اجبار	-11.3925
مزعج	-11.3925
▁وجرحي	-11.393
▁خبرة	-11.3935
9%	-11.3937
▁السينمائية	-11.3938
▁خاطئ	-11.3939
▁والخاص	-11.3939
رينو	-11.3939
▁يسود	-11.3939
فرانس	-11.3941
▁متاخرات	-11.3941
▁بنفسها	-11.3944
▁تفويض	-11.3945
▁المجاني	-11.3946
▁الخصوصية	-11.3952
▁يعلق	-11.3952
الداخلية	-11.3953
▁وصيف	-11.3953
حديد	-11.3958
▁عمرو	-11.396
▁ومجلس	-11.3961
▁يضطر	-11.3961
▁السحب	-11.3965
▁الغموض	-11.3969
تقاضي	-11.3969
فلت	-11.3971
▁العائدين	-11.3974
▁كلفت	-11.3976
▁اقليمية	-11.3978
▁شتيف	-11.3979
زعزعة	-11.3982
▁القصوي	-11.3982
▁الاجابة	-11.3982
▁بتصريحات	-11.3982
▁استيراد	-11.3982
▁ومنظمات	-11.3982
▁الثمين	-11.3983
انقلاب	-11.3983
▁الشبكات	-11.3983
تشابه	-11.3983
▁العطلة	-11.3984
▁الصاعد	-11.3984
▁المتبعة	-11.3985
▁يعتبرون	-11.3986
▁برلماني	-11.3987
تكاثر	-11.3987
▁اقليمي	-11.3988
مؤلم	-11.3988
مرصد	-11.3988
▁دانت	-11.3989
▁الحلقة	-11.3989
▁انجزت	-11.399
▁وظل	-11.3997
▁الاصغر	-11.3998
طبخ	-11.3999
▁استثنائي	-11.4
▁المشير	-11.4
▁النحل	-11.4001
▁للمركز	-11.4001
▁تكفي	-11.4008
▁اظهار	-11.4009
▁لاصلاح	-11.401
▁وجوه	-11.4012
▁مقار	-11.4015
تفهم	-11.4018
▁نيل	-11.4019
▁التوقيت	-11.402
▁والحد	-11.4022
▁الحمرية	-11.4023
▁وتتهم	-11.4025
▁عضلات	-11.4026
▁فاجا	-11.4027
لجنة	-11.403
فائدة	-11.4034
▁الثمن	-11.4035
▁لمواطني	-11.4037
▁احتلت	-11.4038
▁الاحتجاجية	-11.404
▁المزدوج	-11.404
غارد	-11.404
بلومبرغ	-11.404
ظافر	-11.4041
▁البعيد	-11.4042
▁مدعومة	-11.4042
▁فجاة	-11.4042
▁بالضرورة	-11.4042
▁والدواء	-11.4042
▁سوداء	-11.4043
▁روم	-11.4044
ماكولات	-11.4047
▁اتفاقيات	-11.4047
▁الشامسي	-11.4048
التعليم	-11.4051
▁92	-11.4052
▁معتمد	-11.4052
▁كثيرين	-11.4053
es	-11.4057
ظاهرة	-11.406
فرصة	-11.4062
▁اقلية	-11.4063
▁محملة	-11.4063
▁يتوج	-11.4063
▁جاهز	-11.4065
▁الترخيص	-11.4068
▁معسكرات	-11.4072
▁ضمت	-11.4073
▁مجهولة	-11.4078
ؤس	-11.4079
▁الاندونيسية	-11.4082
▁شفا	-11.4085
▁الاشتباه	-11.4094
▁ثور	-11.4095
▁ضواحي	-11.4095
08	-11.4096
▁اضافت	-11.4096
▁البصرة	-11.4097
جيش	-11.4097
▁تتصدر	-11.4099
▁البوسنة	-11.4099
▁للكثير	-11.4099
▁قلوب	-11.4099
▁المسجلين	-11.4099
استقدام	-11.4099
▁الماليزية	-11.4099
▁يونكر	-11.41
▁2020»	-11.41
▁شركائه	-11.4101
▁المربع	-11.4101
▁واتس	-11.4101
▁انساني	-11.4101
قيصر	-11.4101
▁الصومالية	-11.4101
▁سلفا	-11.4102
▁جرحي	-11.4102
الريدز	-11.4102
▁الفريد	-11.4104
▁توقيت	-11.4105
▁الالام	-11.4105
▁المتحركة	-11.4106
▁وحين	-11.4107
تقليص	-11.4108
▁وليبيا	-11.4109
▁ماكين	-11.4111
▁والامم	-11.4112
▁حوثي	-11.4116
▁يدير	-11.4117
تاك	-11.4118
▁صلب	-11.4118
▁العيار	-11.4121
▁الاصدقاء	-11.4123
▁والابتكار	-11.4123
▁باهتمام	-11.4125
منصة	-11.4127
ويب	-11.4131
▁التوطين	-11.4133
▁للانسان	-11.4136
▁الايجارية	-11.4137
▁لرصد	-11.4138
▁جيني	-11.4143
▁اوجه	-11.4144
▁بالنظر	-11.4145
▁ورقة	-11.4147
▁مضمون	-11.4148
▁للعبة	-11.4151
▁مراقبون	-11.4151
اضطراب	-11.4154
▁رعايا	-11.4158
▁فابيوس	-11.4158
▁ناحيته	-11.4158
▁يوقع	-11.4158
▁كاميرا	-11.4159
مداهمات	-11.4159
▁الموازنة	-11.4159
▁وصدر	-11.4159
▁المالكة	-11.4161
وود	-11.4163
us	-11.4164
للاسف	-11.4165
▁ببرلين	-11.4166
رخاء	-11.4166
▁حصان	-11.4169
▁وقائد	-11.4169
ارهاق	-11.4171
تحصين	-11.4173
نادي	-11.4174
▁للطب	-11.4176
▁وجمع	-11.4177
▁الهيئات	-11.4177
▁المنشا	-11.418
▁صاروخي	-11.4181
صدمة	-11.4182
▁بريكست	-11.4182
▁العشرة	-11.4183
▁ليغ	-11.4184
صمت	-11.4184
▁متكررة	-11.4184
فاعل	-11.4186
▁جيم	-11.4188
▁حصلوا	-11.419
▁مستثمر	-11.4191
▁بحقهم	-11.4193
▁النبي	-11.4193
▁وجعل	-11.4194
▁دعوته	-11.4196
▁للدراسة	-11.4197
▁حداد	-11.4207
un	-11.4209
▁فورمولا	-11.421
▁مكلف	-11.421
▁بمرور	-11.4212
▁تفوز	-11.4215
▁توطين	-11.4216
تشكيل	-11.4216
▁اوباميانغ	-11.4217
▁عبدالفتاح	-11.4217
▁والتطوير	-11.4217
استئصال	-11.4217
▁العشوائي	-11.4217
▁رائحة	-11.4217
▁الاشارات	-11.4217
▁يغيب	-11.4217
▁وقدرت	-11.4221
تصنيف	-11.4221
▁سيدني	-11.4223
اتهامات	-11.4226
الفجيرة	-11.4227
▁عقارات	-11.4227
ينبغي	-11.4228
600	-11.4229
▁مشار	-11.423
▁لحملة	-11.4232
▁خوان	-11.4233
▁التنوع	-11.4236
▁يتراوح	-11.424
هيوم	-11.4243
▁مطلقا	-11.4244
▁الحار	-11.4244
▁سيشارك	-11.4245
▁تسلمت	-11.4247
▁93	-11.425
عترف	-11.425
لاطلاع	-11.4251
▁ناجي	-11.4255
▁للاسلحة	-11.4257
▁لسباقات	-11.4259
▁ايواء	-11.4262
صادف	-11.4265
▁مدعي	-11.4267
قارن	-11.4268
▁التفجيرات	-11.4269
▁السعر	-11.427
▁حديد	-11.4274
­	-11.4276
▁الغماينه	-11.4276
▁كارلسروه	-11.4276
▁عريقات	-11.4276
▁وامراض	-11.4276
▁اقدام	-11.4277
▁حصص	-11.4277
▁مادورو	-11.4277
▁اللحظات	-11.4277
يتعلق	-11.4277
▁بجوار	-11.4277
▁المهدد	-11.4278
▁خصصت	-11.4279
▁لمستخدمي	-11.4279
▁الكيلة	-11.428
▁رؤيته	-11.4281
▁المحترف	-11.4281
▁لمونديال	-11.4282
خلايا	-11.4284
عضوية	-11.4284
▁ضمانات	-11.4287
▁الاحصاء	-11.4288
▁تتلقي	-11.4289
▁المكلفة	-11.4289
تفعيل	-11.429
حارس	-11.429
▁2030	-11.4291
ضباط	-11.4291
me	-11.4292
لط	-11.4292
اطراف	-11.4301
82	-11.4303
▁والتراث	-11.4305
8%	-11.4306
▁الاستعدادات	-11.4307
▁ازياء	-11.4308
تسري	-11.431
84	-11.4313
لنهائيات	-11.4313
▁السعي	-11.4315
▁ماجد	-11.432
▁العاصفة	-11.4322
▁يونغ	-11.4325
▁(8	-11.4325
▁طال	-11.4326
اوصت	-11.4332
نهاية	-11.4334
▁الجمارك	-11.4335
كارنباور	-11.4336
▁مطاعم	-11.4336
▁والترفيه	-11.4336
مفاهيم	-11.4336
▁ارمينيا	-11.4336
▁كاثرين	-11.4336
▁الدخان	-11.4336
▁88	-11.4337
▁المحاصيل	-11.4337
▁للالعاب	-11.4338
استقرار	-11.4338
▁كورت	-11.434
▁صديقته	-11.4344
▁الضريبية	-11.4346
▁ازمات	-11.4352
▁الفعلي	-11.4354
▁الهاتفية	-11.4354
▁ادم	-11.4356
▁تحتل	-11.4357
▁لوران	-11.4357
فرو	-11.4359
▁دشنت	-11.4362
▁يذهب	-11.4363
▁محسن	-11.4364
طارد	-11.4365
▁ويحتاج	-11.4365
رخي	-11.4367
▁بالبشر	-11.4367
▁واجراءات	-11.4367
▁يعجز	-11.4368
▁امكانيات	-11.437
▁محمية	-11.437
▁تيار	-11.4372
تحرير	-11.4372
07	-11.4373
بصمة	-11.4374
▁فلم	-11.4374
فرع	-11.4374
▁الانفصاليين	-11.4379
▁1-1	-11.4381
شراكة	-11.4382
2020	-11.4383
▁تحوي	-11.4384
▁للجسم	-11.4385
شفاء	-11.4385
▁استعرض	-11.4386
▁قدره	-11.4392
▁ترصد	-11.4393
▁امتحانات	-11.4394
بنغلاديش	-11.4396
▁استغرقت	-11.4397
▁المسموح	-11.4397
▁اغاثة	-11.4397
▁قضاة	-11.4397
▁بدعوي	-11.4397
▁لاذاعة	-11.4397
اقصاء	-11.4397
▁غريزمان	-11.4397
▁تكمن	-11.4398
▁واليونان	-11.4398
▁وطبية	-11.4399
لازم	-11.4399
مروحيات	-11.4399
▁البطاقة	-11.4399
▁قوبل	-11.4399
▁الحزم	-11.4402
▁تخطيط	-11.4404
▁ومواطن	-11.4405
▁لغم	-11.4406
▁للسكان	-11.4407
اشارة	-11.4407
▁النقدية	-11.4407
▁الصرف	-11.4408
▁الحليف	-11.4409
▁متفرج	-11.4411
رماية	-11.4412
▁قداس	-11.4415
▁الداعمة	-11.4416
▁الامثل	-11.4416
نجز	-11.4417
▁منافسيه	-11.4423
▁البلديات	-11.4425
3%	-11.4427
▁سحبت	-11.4437
▁الجاني	-11.4437
دستور	-11.4438
▁مفادها	-11.4439
سانا	-11.444
الالماني	-11.4443
عناوين	-11.4447
▁باكملها	-11.4449
▁جنائية	-11.4453
▁لشبونة	-11.4457
▁والبرازيل	-11.4457
▁هازارد	-11.4457
▁المحتجون	-11.4457
▁الامدادات	-11.4458
▁فريدريش	-11.4458
▁السكك	-11.4458
▁مزورة	-11.4458
▁غانم	-11.4459
▁اخفق	-11.4459
▁تحريك	-11.4461
▁دارفور	-11.4461
اجراءات	-11.4462
▁بقانون	-11.4462
▁للمجموعة	-11.4463
▁تبنت	-11.4464
▁1990	-11.4466
▁99	-11.4468
الاستخبارات	-11.447
مفخخة	-11.447
تركيا	-11.447
▁الحميد	-11.4471
الله	-11.4473
▁تجر	-11.4474
▁سيلتقي	-11.4474
رقم	-11.4476
▁لسكان	-11.4477
انتهاء	-11.4478
الوطني	-11.448
▁لطفل	-11.4483
▁عملاقة	-11.4485
▁الغام	-11.4486
▁واطلقت	-11.4487
▁تنوع	-11.4488
نجوم	-11.449
▁قوا	-11.4491
ثناء	-11.4497
▁مفتاح	-11.4499
▁للرد	-11.45
▁النقص	-11.4501
▁عرفت	-11.4502
فارغ	-11.4502
تقبل	-11.4503
▁العادل	-11.4503
▁تنافس	-11.4504
▁تعرضهم	-11.4504
▁الاقتراح	-11.4506
تفقد	-11.4508
▁عائد	-11.4508
سخي	-11.4508
▁خزان	-11.4508
▁يضر	-11.4511
ضحي	-11.4512
تسهيلات	-11.4513
احصائيات	-11.4515
▁المزمنة	-11.4518
▁وباكستان	-11.4518
▁جرعات	-11.4518
▁الجيزة	-11.4518
▁البترول	-11.4518
▁للفنان	-11.4518
▁البلقاء	-11.4519
▁ابراهيموفيتش	-11.4519
▁رواية	-11.452
▁معربا	-11.452
▁وكندا	-11.452
▁صاروخية	-11.452
▁المضرب	-11.4523
▁موكله	-11.4524
▁موجز	-11.4525
▁الكائنات	-11.4529
▁الاقمار	-11.4529
رتس	-11.4532
▁محمل	-11.4532
▁وطفل	-11.4533
عقار	-11.4534
▁تفهم	-11.4536
▁والوقاية	-11.4538
7%	-11.4539
▁البيئي	-11.4539
▁ملموس	-11.4539
▁بتخلي	-11.4541
▁والمعلومات	-11.4542
تعذر	-11.4542
▁المفضلة	-11.4544
▁واستمر	-11.4545
▁ركن	-11.4545
▁تميز	-11.4545
▁كارول	-11.4546
▁تدوير	-11.4546
1%	-11.4548
▁جامعي	-11.4548
▁ويقدم	-11.4548
▁الاسطورة	-11.455
▁الكتل	-11.4551
▁الصم	-11.4552
▁فروع	-11.4555
▁حذف	-11.4555
▁عالي	-11.4556
▁فرضتها	-11.4559
▁للدراسات	-11.4559
▁توم	-11.4559
▁متورط	-11.4559
▁الامكان	-11.456
▁الاورام	-11.4563
▁تمدد	-11.4564
▁الاقلاع	-11.4566
احتفال	-11.4567
اعمار	-11.4569
▁لتشجيع	-11.4569
▁ناري	-11.457
قاعة	-11.4572
▁بعقوبة	-11.4574
▁بنوك	-11.4577
‭	-11.4579
▁بمستشفي	-11.4579
▁لعشاق	-11.4579
الشياطين	-11.4579
▁براندنبورغ	-11.458
▁النامية	-11.458
▁التوازن	-11.4583
▁التليفزيون	-11.4584
▁الافطار	-11.4585
▁الصعود	-11.4586
▁سبا	-11.4588
▁الناخبون	-11.4589
▁هامة	-11.459
▁فيتنام	-11.4595
▁ويشكل	-11.4602
▁واليوم	-11.4605
▁عصابات	-11.4605
▁نجاد	-11.4608
روضة	-11.461
غراند	-11.4614
▁والقت	-11.4616
▁القصة	-11.4617
▁فاعلية	-11.4618
▁مقترحات	-11.4623
▁والمعروف	-11.4623
▁جاهزة	-11.4626
▁شرع	-11.4627
لصق	-11.4629
▁التبرعات	-11.4629
كتفي	-11.463
تجمد	-11.4632
▁تتناول	-11.4634
▁معاناته	-11.4637
▁بكفاءة	-11.4641
▁بوتشيمون	-11.4641
▁الرحيم	-11.4641
▁الزائر	-11.4642
▁طلال	-11.4643
تقويض	-11.4644
▁ناسا	-11.4645
زعماء	-11.4645
شقيق	-11.4648
احراق	-11.4649
▁الزبائن	-11.4651
▁رومان	-11.4652
▁وعمليات	-11.4652
▁حكام	-11.4655
▁وتري	-11.4655
▁وينص	-11.4657
▁ناشطون	-11.466
▁وتشجيع	-11.466
التركي	-11.466
▁عفو	-11.4662
▁لارسال	-11.4663
الحرية	-11.4665
▁وديا	-11.4666
▁الجوائز	-11.4667
▁اليكسي	-11.4668
▁تحتضن	-11.467
▁القصير	-11.4671
▁الائتمان	-11.4671
▁المغادرة	-11.4678
▁الايدز	-11.4681
▁الحملات	-11.4682
▁ستواصل	-11.4683
▁لحوم	-11.4683
الامر	-11.4687
▁القاع	-11.4688
صوم	-11.469
▁غرامات	-11.4691
▁سرق	-11.4695
▁المتكررة	-11.4696
▁مفتوحا	-11.4696
▁للرعاية	-11.4696
▁رقابة	-11.4697
▁كافيا	-11.4698
700	-11.4701
▁الطفولة	-11.4703
▁وتاهيل	-11.4704
▁شجرة	-11.4704
▁تسرب	-11.4704
▁مستحيل	-11.4705
▁المراهقين	-11.4706
▁يستغل	-11.4707
92	-11.4709
▁مراد	-11.4711
غايات	-11.4711
▁المختطف	-11.4713
▁منفصلة	-11.4715
مساج	-11.4716
لكرامة	-11.4717
تساوي	-11.4718
▁عدا	-11.4719
▁الصلة	-11.4723
▁مفاعل	-11.4723
▁الابلاغ	-11.4724
▁واربعة	-11.4729
▁واللجوء	-11.473
▁بالنادي	-11.473
4%	-11.473
اثبات	-11.473
▁والكويت	-11.4731
▁نبا	-11.4731
▁عادي	-11.4732
▁لتقليل	-11.4733
اللوم	-11.4733
▁الترفيه	-11.4734
▁عادات	-11.4737
احتراق	-11.4739
▁الوجود	-11.4745
حمض	-11.4745
▁التبرع	-11.4749
▁تعبر	-11.4751
▁بتوجيه	-11.4755
حتدم	-11.4755
▁الكارثة	-11.4757
▁الاصفر	-11.4758
ميدان	-11.4759
▁والتغيير	-11.4763
ضحية	-11.4763
▁مداخل	-11.4764
▁اذربيجان	-11.4766
▁بانتظار	-11.4766
▁يانوكوفيتش	-11.4766
▁الكفاءات	-11.4766
جراثيم	-11.4766
▁وموسكو	-11.4766
▁الايزيدي	-11.4766
▁مناصب	-11.4766
▁المصنعة	-11.4767
▁المغفور	-11.4767
▁وانتهت	-11.4767
▁الحمادي	-11.4767
▁المضادات	-11.4769
بيونتيك	-11.4769
▁اللجان	-11.477
▁مفصل	-11.4773
▁ميك	-11.4774
▁المنصات	-11.4775
▁ليند	-11.4778
▁30%	-11.4781
صحافي	-11.4783
تغريدات	-11.4783
سفينة	-11.4784
▁يضرب	-11.479
▁الحامل	-11.4792
نقض	-11.4795
حساب	-11.4796
▁المناهج	-11.4797
الشرق	-11.4803
li	-11.4807
▁المديرية	-11.4807
تقلل	-11.4807
تشويه	-11.4809
▁الاراء	-11.4811
is	-11.4816
▁نظيفين	-11.4816
▁خيرية	-11.4818
ميرور	-11.4821
▁المجن	-11.4826
▁تمثال	-11.4827
▁احادي	-11.4828
▁يميني	-11.4828
q	-11.4829
▁الضوئي	-11.4829
▁المسئول	-11.4829
انتعاش	-11.4829
▁متطابقة	-11.4829
▁التنموية	-11.4829
▁ترشحه	-11.4829
▁الوثبة	-11.4829
▁مجاورة	-11.4829
▁بحوزته	-11.4829
▁للفضاء	-11.4829
▁فاغن	-11.483
▁تفكيك	-11.4831
▁اريك	-11.4833
▁دراسته	-11.4836
▁القبول	-11.4836
▁العلوي	-11.4837
▁العنيفة	-11.4838
▁يونس	-11.484
▁شريحة	-11.4843
▁ينضم	-11.4844
▁النازيين	-11.4845
#	-11.4846
▁نيكولاس	-11.4847
la	-11.4853
▁محال	-11.4853
▁المخالفة	-11.4854
▁وقدمت	-11.4855
▁اسنان	-11.4857
▁وشملت	-11.4858
▁الفكرية	-11.4859
▁المصرفي	-11.486
▁السد	-11.4861
هندسة	-11.4861
▁للمفاوضات	-11.4862
ختلط	-11.4862
▁العنصري	-11.4863
▁عاني	-11.4864
▁شيخون	-11.4867
▁اضر	-11.4873
▁تشدد	-11.4876
خطاب	-11.4882
تعطي	-11.4883
▁تلقائيا	-11.4886
شعاع	-11.4887
نامل	-11.4887
▁مقبولة	-11.489
▁برلسكوني	-11.4892
▁وبموجب	-11.4892
▁الاستثنائية	-11.4892
▁ذروة	-11.4892
▁الطاولة	-11.4892
▁ريتشارد	-11.4892
▁الكعبي	-11.4892
▁الاعيان	-11.4892
▁والطاقة	-11.4893
▁والسياسية	-11.4893
▁خصوصية	-11.4893
▁التحليل	-11.4893
▁استدعي	-11.4893
▁دشن	-11.4894
▁شكاوي	-11.4895
▁الحفر	-11.4898
▁باعداد	-11.49
فترض	-11.4901
لخبراء	-11.4904
▁الاغتصاب	-11.4904
▁دبلوماسيين	-11.4904
06	-11.4908
شبكات	-11.4909
▁الجنح	-11.4912
▁ومدرب	-11.4913
▁يتعلم	-11.4913
تاجير	-11.4913
هامبورغ	-11.4914
09	-11.4915
مكافات	-11.4916
مذبحة	-11.4917
متوسط	-11.4921
▁للابحاث	-11.4921
▁ويرجع	-11.4923
▁تادي	-11.4925
▁مفتوح	-11.4926
▁سيبدا	-11.4927
▁التضخم	-11.4929
▁جيف	-11.4929
ثاني	-11.4933
▁المطعم	-11.4935
▁المعدات	-11.4938
▁ويتهم	-11.4939
▁اقترحت	-11.4939
▁تتكون	-11.4941
▁الحاق	-11.4942
موازنة	-11.4945
ياهو	-11.4947
▁والبرامج	-11.4948
ابحاث	-11.4949
اهمية	-11.4951
▁المسح	-11.4952
▁تحظر	-11.4956
▁الفنزويلي	-11.4956
▁حمزة	-11.4956
▁وجيزة	-11.4956
▁الباريسي	-11.4956
▁يستغرق	-11.4957
▁وعثر	-11.4957
▁الايمن	-11.4957
▁يختتم	-11.4958
▁ادرك	-11.4962
للتاكد	-11.4962
▁سيبقي	-11.4963
غريت	-11.4964
▁الانتفاضة	-11.4965
▁نزلاء	-11.4966
▁والاثار	-11.4967
تاكسي	-11.4968
▁الاجيال	-11.497
▁مارتين	-11.497
بطن	-11.4971
▁موثوق	-11.4972
قذائف	-11.4975
البنتاغون	-11.4975
▁واصبحت	-11.4975
▁الشيخوخة	-11.4976
ضغوط	-11.4979
لمعالجة	-11.498
▁اعرف	-11.4983
▁وحضر	-11.4984
▁ناسف	-11.4984
▁الحلو	-11.4986
▁بوفاة	-11.4986
▁غازي	-11.4987
الاتحادية	-11.4988
▁الفاصل	-11.4989
▁الشرط	-11.499
صطف	-11.499
▁بالتدخل	-11.4992
▁عارضة	-11.4992
▁التقت	-11.4994
▁ابوابه	-11.4995
▁قوارب	-11.4997
▁نعمل	-11.4999
▁الاحصاءات	-11.5007
▁قطارات	-11.5009
▁انعدام	-11.5012
▁لترامب	-11.5012
▁تتوفر	-11.5013
لينغ	-11.5019
▁التعويض	-11.502
سبوتنيك	-11.502
▁ملغومة	-11.502
▁الدقائق	-11.502
▁الاصدار	-11.502
▁التمارين	-11.502
▁والعاملين	-11.502
▁الفاخرة	-11.502
▁المتطورة	-11.502
▁مظلة	-11.5021
▁وتقع	-11.5021
ماذا	-11.5021
▁المقبول	-11.5022
▁انتشال	-11.5022
▁راموس	-11.5027
▁المنتظم	-11.5027
▁للوقوف	-11.5028
▁باكمله	-11.5029
▁يعارض	-11.5029
▁الجابر	-11.5031
▁لجوئهم	-11.5031
▁مجالس	-11.5032
جنون	-11.5038
▁توصيات	-11.5038
لابد	-11.5044
▁اوردته	-11.5044
فوق	-11.5045
▁نشب	-11.5046
▁المرتفعات	-11.5047
▁تظل	-11.5048
▁عمدا	-11.5052
▁يتعاقد	-11.5054
▁وتشكيل	-11.5056
▁تقاطع	-11.506
▁واحت	-11.5062
تجدر	-11.5062
معدل	-11.5067
▁للاعبين	-11.507
افلام	-11.508
▁الموجودين	-11.508
▁الكلمات	-11.5081
▁القارية	-11.5082
▁التاجي	-11.5083
▁والالتزام	-11.5083
▁الصداع	-11.5083
▁استهل	-11.5083
▁توثيق	-11.5084
▁لتسجيل	-11.5084
▁مفقود	-11.5084
▁بحجة	-11.5084
▁والسلع	-11.5085
▁خضيرة	-11.5085
▁الانواع	-11.5086
▁الركبة	-11.5087
استشارة	-11.5088
ذعر	-11.5089
▁العابدين	-11.5089
▁كرئيس	-11.5089
مطر	-11.509
▁فايز	-11.509
▁والجهات	-11.5093
تباين	-11.5095
▁حركات	-11.5099
▁السبل	-11.5099
بصمات	-11.5102
رشوة	-11.5103
▁المفاوضين	-11.5105
▁مهد	-11.5109
▁الخبرات	-11.5115
▁لاختبار	-11.5115
▁فلوس	-11.5117
مرتكب	-11.5118
▁ثوان	-11.5119
▁ازدياد	-11.512
انهيار	-11.512
▁حارة	-11.5122
▁ينتشر	-11.5123
▁البوب	-11.5124
▁انترنت	-11.5124
▁العلامات	-11.5127
▁خوف	-11.5128
▁يتمثل	-11.5128
▁قذائف	-11.513
▁مسجلة	-11.513
▁اقول	-11.5133
ممرات	-11.5133
▁للرياضة	-11.5135
▁تتراجع	-11.5135
▁نري	-11.5136
ابراج	-11.5137
متنع	-11.5141
▁احتفالية	-11.5142
▁وشرق	-11.5145
▁البيوت	-11.5148
▁اخذت	-11.5148
▁المبذولة	-11.5149
▁مزدوج	-11.5149
▁اللاسلكي	-11.5149
▁اللائحة	-11.5149
▁والاصلاحية	-11.5149
▁يقطن	-11.515
▁الشاحنات	-11.515
▁المهاجرون	-11.515
▁ارواح	-11.515
▁موناكو	-11.515
▁قضاه	-11.5151
▁جملة	-11.5152
▁غوميز	-11.5152
▁مهنة	-11.5155
▁برميل	-11.5157
▁الادمان	-11.5157
▁وسرق	-11.5158
▁اوبرا	-11.5158
▁تجول	-11.5158
▁يشكلون	-11.5159
▁النظافة	-11.5159
▁ليرفع	-11.516
▁حازم	-11.5161
▁ثقافية	-11.5163
اثنين	-11.5165
▁بالبرلمان	-11.5167
▁فرار	-11.517
استعراض	-11.5171
اضافة	-11.5171
▁لمنح	-11.5174
▁ويحاول	-11.5177
▁بالتدابير	-11.5178
نداء	-11.518
▁تضاعف	-11.5181
▁بالضرب	-11.5186
▁تشيلي	-11.5186
▁للمعارض	-11.5187
▁عمران	-11.5192
▁للمملكة	-11.5196
▁ماتيو	-11.521
▁العسل	-11.521
نبرغ	-11.5213
▁الالغام	-11.5215
▁التجزئة	-11.5215
▁مفعول	-11.5215
▁الرزاز	-11.5215
▁وهكذا	-11.5215
▁الثابت	-11.5215
▁نقطتين	-11.5215
▁يعالج	-11.5215
▁والتدريب	-11.5215
▁لتسليم	-11.5215
▁سينمائي	-11.5215
نوافذ	-11.5215
▁اوسكار	-11.5215
▁محمول	-11.5215
▁فادح	-11.5215
▁الامتحانات	-11.5215
▁التلقيح	-11.5215
▁التنافسية	-11.5215
▁الادوات	-11.5216
▁المنامة	-11.5216
▁يوجيل	-11.5217
▁وندد	-11.5218
▁وباريس	-11.5219
▁يدشن	-11.522
▁تساقط	-11.522
▁زورق	-11.5222
افراط	-11.5222
▁لحلف	-11.5223
▁الاثر	-11.5227
▁المستقيل	-11.5228
▁الاستشاري	-11.5229
▁بيير	-11.5233
حوادث	-11.5238
مسار	-11.5239
استجابة	-11.5239
مزايا	-11.524
مبيعات	-11.524
▁خلفيات	-11.524
▁غاري	-11.5243
▁المؤهل	-11.5245
▁الضابط	-11.5246
▁وثيق	-11.5246
سبورت	-11.5246
قترب	-11.5247
لافراج	-11.525
يتوجب	-11.5251
▁محافظتي	-11.5256
▁بالشرطة	-11.5256
برمجة	-11.5257
▁مزايا	-11.5257
▁دروس	-11.5258
▁تباع	-11.5261
▁الحرمين	-11.5262
▁المعاهدة	-11.5264
na	-11.5264
▁وشهد	-11.5268
نتزع	-11.5275
▁يتواجد	-11.5276
▁الجمركية	-11.528
▁اللوجستي	-11.528
تضييق	-11.528
▁للبقاء	-11.528
▁الوجهات	-11.5281
▁المخالفين	-11.5281
▁جذري	-11.5282
▁وذوي	-11.5282
▁محتجين	-11.5282
▁درعا	-11.5283
▁عجلة	-11.5284
▁الجلدية	-11.5285
دكتور	-11.5285
▁والسبب	-11.529
وهو	-11.5292
ريز	-11.5296
▁الاشعة	-11.5299
▁مدعو	-11.53
▁سيقوم	-11.5302
▁صافي	-11.5303
▁ميدانية	-11.5306
▁الاجور	-11.5307
مناوئ	-11.5313
▁صحو	-11.5316
ta	-11.5318
▁المعدن	-11.5318
▁العقلية	-11.5318
▁التغييرات	-11.5319
العنصرية	-11.5319
لحشد	-11.532
▁ساحق	-11.5325
▁الداعية	-11.5325
▁الميدانية	-11.5332
▁الحمام	-11.5335
▁الاهل	-11.5338
▁تفكر	-11.5338
ی	-11.5347
▁بتعويض	-11.5347
▁واتخاذ	-11.5347
▁واوكرانيا	-11.5347
تعريض	-11.5347
▁القبائل	-11.5347
▁تريليون	-11.5347
▁بالوقود	-11.5347
▁مناقشات	-11.5347
▁الكوارث	-11.5347
▁للقتال	-11.5348
▁كيليان	-11.5348
▁ترحب	-11.5348
▁سلفي	-11.5349
▁القس	-11.5349
وفسكي	-11.5355
▁بيضاء	-11.5356
▁اشتراك	-11.5357
▁اجور	-11.5361
▁اصر	-11.5362
2016	-11.5365
▁المفاصل	-11.5366
▁جاذبية	-11.5368
▁حماد	-11.537
اردوغان	-11.5372
▁المعروض	-11.5373
▁قدوم	-11.5373
▁غالبيتهم	-11.5374
وثائق	-11.5376
صداع	-11.5378
▁ايصال	-11.5379
▁القولون	-11.5382
▁ولايتي	-11.5382
▁لتمكين	-11.5383
▁المدرسين	-11.5387
▁براند	-11.5387
▁خاضع	-11.5391
▁وسجلت	-11.5392
▁والانقاذ	-11.5392
▁ملكي	-11.5393
▁الكاميرا	-11.5395
▁الزهايمر	-11.5395
▁تباين	-11.5395
اليسار	-11.5396
▁والتقي	-11.54
▁جنرال	-11.5401
▁مهدي	-11.5407
▁وزعيم	-11.5408
▁المحال	-11.5409
▁وخمسة	-11.541
▁الحقوقي	-11.5412
▁استخراج	-11.5413
▁النظيفة	-11.5413
▁ميزيير	-11.5413
▁ثقيلة	-11.5413
▁كيمنتس	-11.5413
▁الاليزيه	-11.5413
▁التعقيم	-11.5413
▁تجميل	-11.5413
▁الخاطف	-11.5414
▁عجلون	-11.5414
▁جونغ	-11.5414
اشعال	-11.5415
▁ادارات	-11.5416
▁كونتي	-11.5417
▁سيؤدي	-11.5418
خرق	-11.542
▁1998	-11.542
▁ويمثل	-11.542
قبع	-11.5423
▁واحدث	-11.5424
▁والمواد	-11.5426
▁الخصم	-11.5427
▁يحتاجون	-11.5427
▁المدرجة	-11.5428
مناظر	-11.5431
▁والتموين	-11.5431
▁معارضين	-11.5431
2017	-11.5433
▁المقاطعة	-11.5433
▁سيحصل	-11.5435
▁وامراة	-11.5436
▁محاولته	-11.5436
▁مسبقة	-11.5437
▁المزاد	-11.5437
▁انقذت	-11.5441
▁المشتري	-11.5441
▁يجوز	-11.5442
▁لاعداد	-11.5443
▁القابضة	-11.5443
امكانيات	-11.5444
▁استشهاد	-11.5445
مباريات	-11.5445
▁الصعوبات	-11.5447
▁للموارد	-11.5454
تماسك	-11.5455
الاسراع	-11.5459
▁التعليقات	-11.546
بالتحديد	-11.5462
2015	-11.5464
2014	-11.5465
▁يتراجع	-11.5467
▁نعي	-11.5468
▁المادية	-11.5469
▁جنسي	-11.5474
800	-11.5475
▁الانجاب	-11.5475
▁المولد	-11.5475
▁نشاطات	-11.5475
[...]
