<pad>	0
<unk>	0
<start>	0
<end>	0
.	-3.4751
▁في	-3.55811
،	-3.75229
▁من	-4.02966
ا	-4.34413
▁ان	-4.36763
▁علي	-4.43532
▁	-4.49953
▁"	-4.56765
ة	-4.6082
▁ب	-4.74104
▁و	-4.75902
▁الي	-4.81717
ه	-4.94888
"	-5.07085
ها	-5.18275
▁ال	-5.19705
ت	-5.21654
▁ل	-5.22628
/	-5.33218
▁عن	-5.40297
ي	-5.42056
ات	-5.4428
".	-5.49617
ين	-5.53648
▁التي	-5.5555
)	-5.55626
▁(	-5.589
▁مع	-5.63689
▁الذي	-5.65532
▁ا	-5.71688
ن	-5.78444
▁وال	-5.84409
ب	-5.84534
ون	-5.84618
د	-5.84975
ية	-5.86911
▁لل	-5.91098
▁ما	-5.92421
▁بعد	-5.95178
ع	-6.05352
ح	-6.10357
▁ت	-6.10769
م	-6.1369
▁اليوم	-6.14695
▁بال	-6.15184
وا	-6.168
▁ي	-6.18259
▁هذا	-6.18987
هم	-6.1974
▁م	-6.20432
▁لا	-6.22456
▁انه	-6.23896
▁بين	-6.26431
▁هذه	-6.27442
▁او	-6.29948
ال	-6.32378
▁الالمانية	-6.34648
▁وقال	-6.40203
▁ف	-6.4025
▁لم	-6.45184
▁المانيا	-6.46046
ان	-6.4909
▁قد	-6.54368
:	-6.54683
▁الالماني	-6.54818
▁خلال	-6.54846
▁الم	-6.56564
ج	-6.56813
▁ذلك	-6.5985
ف	-6.60498
▁كما	-6.62055
نا	-6.62535
▁الرئيس	-6.63231
▁قبل	-6.65906
▁المتحدة	-6.6654
ز	-6.6749
▁كان	-6.71252
"،	-6.72327
ك	-6.7638
▁اي	-6.783
▁رئيس	-6.79898
▁عام	-6.80281
▁ع	-6.80372
▁غير	-6.81711
▁منذ	-6.85017
▁وفي	-6.85542
س	-6.87226
▁العام	-6.88125
▁الا	-6.89503
ش	-6.91165
▁لكن	-6.93406
▁الماضي	-6.93468
▁اكثر	-6.96624
▁كل	-6.98821
▁هو	-6.99563
▁ايضا	-7.01117
▁الحكومة	-7.01382
▁قال	-7.04085
▁ن	-7.05468
▁سوريا	-7.06701
ص	-7.07458
▁حيث	-7.08669
▁بشكل	-7.09073
▁حول	-7.1001
▁فيما	-7.11428
ما	-7.12035
▁وت	-7.12253
▁وزير	-7.12441
▁واضاف	-7.12646
▁وي	-7.13085
▁مدينة	-7.16834
▁حتي	-7.16943
▁العالم	-7.18552
▁الخارجية	-7.18985
و	-7.19483
▁الثاني	-7.2012
▁الاوروبي	-7.20206
▁تم	-7.20244
▁وكان	-7.20281
▁الاول	-7.21206
غ	-7.21326
▁الاتحاد	-7.22589
خ	-7.22929
▁الشرطة	-7.25008
▁عدد	-7.25032
ته	-7.25228
▁امام	-7.2553
▁كانت	-7.25855
▁اخري	-7.26293
ر	-7.27174
▁ح	-7.27178
▁يمكن	-7.28004
▁الف	-7.29036
▁وا	-7.2983
▁انها	-7.29983
▁ضد	-7.30219
▁عاما	-7.31454
▁سي	-7.32717
▁هي	-7.33998
▁نحو	-7.34172
▁وهو	-7.34548
▁الولايات	-7.35128
▁ومن	-7.35694
؟	-7.36943
ط	-7.37527
▁يوم	-7.38117
▁د	-7.38325
▁بعض	-7.38899
▁هناك	-7.38933
▁فان	-7.39047
▁بسبب	-7.39819
▁بان	-7.40339
▁وقالت	-7.40453
ل	-7.41161
▁موقع	-7.41699
▁ميركل	-7.42426
▁الان	-7.43792
▁الامريكية	-7.45952
▁باسم	-7.48009
▁الامن	-7.49054
▁البلاد	-7.50665
▁وقت	-7.51663
▁اعلن	-7.51816
في	-7.5193
▁الجمعة	-7.5255
▁له	-7.52944
▁امس	-7.53133
▁السعودية	-7.53483
▁ك	-7.53961
▁وم	-7.55216
▁الامريكي	-7.55743
▁وذلك	-7.56653
▁عبر	-7.56971
▁اجل	-7.57569
▁الاحد	-7.58418
▁س	-7.58626
▁الخميس	-7.59826
▁الدولي	-7.59951
▁حزب	-7.59966
اء	-7.60071
▁مثل	-7.6033
▁احد	-7.60449
▁الثلاثاء	-7.60562
▁السبت	-7.60856
▁الاثنين	-7.61032
▁السوري	-7.61444
▁جديدة	-7.62513
▁اول	-7.62987
▁تنظيم	-7.63228
يا	-7.63241
▁اوروبا	-7.6335
▁ست	-7.63751
▁الجيش	-7.64067
▁الوقت	-7.64164
▁تركيا	-7.64524
▁بشان	-7.65273
▁الاربعاء	-7.65757
▁وان	-7.65871
▁السلطات	-7.6595
تها	-7.66008
▁قوات	-7.66065
▁دون	-7.66173
لا	-7.66224
▁بيان	-7.66225
▁ترامب	-7.66426
▁برلين	-7.66933
▁حسب	-7.66982
▁فريق	-7.67382
▁مليون	-7.675
▁رويترز	-7.67615
▁وكانت	-7.6769
▁اخر	-7.68466
▁ايران	-7.69068
▁اللاجئين	-7.69616
▁اعلنت	-7.69783
▁اذ	-7.70143
▁الدول	-7.70469
▁الامر	-7.70501
▁اذا	-7.70599
▁الاولي	-7.70835
▁عملية	-7.7202
ني	-7.72435
▁الوزراء	-7.72801
▁شخص	-7.72813
▁الاسلامية	-7.73245
▁القدم	-7.7411
▁يكون	-7.74221
▁فيها	-7.74672
▁دول	-7.75141
▁مصر	-7.75361
▁وزارة	-7.76025
▁كانون	-7.76341
▁تشرين	-7.77126
ض	-7.77133
▁كبير	-7.77515
▁دي	-7.77934
▁الحزب	-7.79076
▁السابق	-7.79303
▁وكالة	-7.79372
▁منطقة	-7.79573
▁مجلس	-7.79812
▁يتم	-7.80242
▁لدي	-7.81527
▁شمال	-7.81695
▁العمل	-7.81732
▁بها	-7.81823
تين	-7.82242
▁فقط	-7.82397
▁اسرائيل	-7.83535
▁الامم	-7.83869
▁صحيفة	-7.83955
▁الانسان	-7.84009
▁والم	-7.84732
▁الفريق	-7.85132
▁قالت	-7.85209
▁لها	-7.85831
▁وقد	-7.86518
▁عبد	-7.86657
▁ثلاثة	-7.8688
▁العراق	-7.87024
▁اكبر	-7.8711
▁داخل	-7.8754
▁الداخلية	-7.87647
دي	-7.8782
▁ش	-7.87918
▁العاصمة	-7.88021
▁ولم	-7.88286
▁بي	-7.88648
▁القوات	-7.88963
-	-7.90287
▁بايرن	-7.90378
▁روسيا	-7.90416
▁لي	-7.91261
▁كبيرة	-7.91715
▁وهي	-7.92691
ق	-7.92745
▁بن	-7.9355
▁المنطقة	-7.94441
▁المعارضة	-7.94504
▁عليها	-7.94959
▁ولا	-7.94959
▁الدولية	-7.95021
بي	-7.95408
▁الت	-7.95715
▁السورية	-7.95766
سي	-7.95904
▁شخصا	-7.96185
▁المستشارة	-7.96473
▁به	-7.96578
▁محمد	-7.96695
▁الاخيرة	-7.96772
▁الانتخابات	-7.97155
▁عدة	-7.97764
▁/	-7.97779
▁عدم	-7.97961
▁بحسب	-7.98408
▁الفرنسي	-7.98708
▁لن	-7.98953
تي	-8.00206
▁عند	-8.00492
ام	-8.00547
▁مقتل	-8.01128
▁تكون	-8.01894
▁الدوري	-8.02191
▁سنوات	-8.0243
▁اكد	-8.02811
▁التركي	-8.02955
▁البرلمان	-8.0308
▁وسط	-8.03596
▁عندما	-8.04475
هما	-8.05057
▁عليه	-8.05066
رويترز	-8.05067
▁فيه	-8.05083
اع	-8.05756
▁وجود	-8.06056
▁الاوروبية	-8.06172
▁الاسبوع	-8.06819
▁الدفاع	-8.06936
▁تلك	-8.06966
▁بينما	-8.07502
▁حين	-8.0759
لكرة	-8.07684
▁قتل	-8.08791
▁الدراسة	-8.08904
ار	-8.09176
▁نهاية	-8.09437
▁يورو	-8.09561
▁وب	-8.09651
▁فقد	-8.09899
اس	-8.10071
▁جانب	-8.10509
من	-8.10662
▁النظام	-8.11074
▁والتي	-8.11113
▁المنتخب	-8.1136
▁الهجوم	-8.1141
▁ولكن	-8.1144
▁مصادر	-8.11958
▁مساء	-8.12207
▁تحت	-8.12357
▁الله	-8.12582
▁شركة	-8.12721
▁المركز	-8.12811
▁خاصة	-8.12861
▁منظمة	-8.13068
▁ليس	-8.13184
▁اذار	-8.13353
▁استخدام	-8.13408
▁المصري	-8.13989
▁ميونيخ	-8.14197
▁المقبل	-8.14441
▁الجديد	-8.14592
▁جنوب	-8.1466
▁رغم	-8.14901
▁حكومة	-8.15144
▁قرار	-8.15186
▁الديمقراطي	-8.15565
▁المتحدث	-8.15864
▁ثم	-8.1603
▁بل	-8.16079
▁المحكمة	-8.1608
▁حالة	-8.16381
▁الاجتماعي	-8.16844
▁اما	-8.17018
▁نفسه	-8.18036
▁مجموعة	-8.18334
▁اب	-8.18526
▁حاليا	-8.19416
▁دور	-8.20317
▁جميع	-8.2041
▁الاف	-8.20515
▁اطلاق	-8.20818
▁الحرب	-8.21001
▁جديد	-8.21297
▁مؤتمر	-8.22004
▁المدينة	-8.2217
▁بلاده	-8.23159
▁اثناء	-8.23171
▁يذكر	-8.23308
▁الدولة	-8.23761
▁الانباء	-8.23897
▁مارس	-8.23898
▁يجب	-8.24393
▁ايار	-8.25542
▁اتفاق	-8.25639
▁ولاية	-8.26352
▁الحدود	-8.27024
▁حزيران	-8.27059
▁نيسان	-8.27082
▁الجديدة	-8.27333
اف	-8.27632
▁الكثير	-8.27697
▁بانه	-8.27751
▁ايام	-8.27752
▁الاتفاق	-8.27967
▁التركية	-8.28089
▁عمل	-8.28111
▁دولار	-8.28166
▁19	-8.28561
▁الاسرائيلي	-8.28656
▁واشنطن	-8.28815
▁مما	-8.29129
▁عشر	-8.29139
ول	-8.29687
▁واضافت	-8.29867
▁ذكرت	-8.30002
يات	-8.30145
داعش	-8.30496
▁المباراة	-8.30552
▁العربية	-8.30946
▁اليمن	-8.30947
▁وضع	-8.31187
▁ام	-8.31192
▁هجوم	-8.31209
▁كاس	-8.31425
▁السلام	-8.31478
▁دراسة	-8.31777
الدولة	-8.32168
هذه	-8.32231
▁ر	-8.32283
▁بعدما	-8.32445
▁وسائل	-8.32849
▁شرق	-8.33081
▁حوالي	-8.33517
▁الموسم	-8.33845
وي	-8.33911
▁باريس	-8.34212
▁دورتموند	-8.34321
▁الثانية	-8.3433
ذ	-8.35224
▁ص	-8.3554
▁حل	-8.35564
▁مايو	-8.35621
▁اللجوء	-8.35656
▁الشهر	-8.35678
كل	-8.35799
▁دولة	-8.36401
▁طريق	-8.36416
▁جدا	-8.3643
▁نفس	-8.36498
▁اردوغان	-8.36536
لوكالة	-8.36563
▁مرة	-8.36834
▁ط	-8.36931
ست	-8.3707
▁اثر	-8.37287
▁التواصل	-8.37436
▁الاطفال	-8.377
اب	-8.37796
تر	-8.37847
▁مدريد	-8.37912
▁القانون	-8.37988
▁العامة	-8.38047
▁تصريحات	-8.38244
▁والذي	-8.38252
▁الاقل	-8.38359
▁للم	-8.38559
▁العديد	-8.38664
▁اللي	-8.387
▁وعلي	-8.38744
▁افضل	-8.38749
▁ليبيا	-8.38755
▁لان	-8.38867
▁مباراة	-8.38952
يين	-8.38974
▁نظام	-8.39087
▁المصرية	-8.39099
▁مصدر	-8.39127
▁ضمن	-8.39168
▁عقب	-8.39298
▁المسيحي	-8.39528
▁الروسي	-8.39704
▁عمليات	-8.39971
▁طلب	-8.4026
▁الانترنت	-8.40351
ئ	-8.40576
▁واوضح	-8.40604
▁بت	-8.40615
لي	-8.40695
يل	-8.40764
▁خ	-8.40799
▁واحد	-8.41038
▁حركة	-8.41184
▁مقابل	-8.4136
▁اطار	-8.41372
▁سابق	-8.41398
▁بالنسبة	-8.41506
وس	-8.41592
▁تحقيق	-8.41649
▁الاشخاص	-8.42296
(	-8.42539
▁اعمال	-8.42657
)،	-8.43124
▁-	-8.43152
▁ز	-8.43205
▁تقدم	-8.43576
▁السياسية	-8.43599
▁برس	-8.43749
▁واكد	-8.44013
▁ابريل	-8.44202
▁التحالف	-8.44388
▁الاسد	-8.4444
▁الحالي	-8.44807
▁النار	-8.44859
▁فرنسا	-8.44963
▁تقرير	-8.45159
▁ج	-8.45163
▁اشهر	-8.45417
تهم	-8.45586
▁حقوق	-8.45865
▁فترة	-8.45914
▁ايلول	-8.45937
▁بينهم	-8.46104
▁حال	-8.46216
▁المجلس	-8.46237
▁الوضع	-8.46293
▁محكمة	-8.4631
▁مناطق	-8.46582
▁اربعة	-8.46711
ري	-8.46953
▁الاصابة	-8.47428
▁لاعب	-8.4759
▁20	-8.47683
اي	-8.47749
▁شهر	-8.48242
▁الناس	-8.48474
▁اوباما	-8.48492
▁الن	-8.48691
دة	-8.48784
▁برشلونة	-8.48785
هن	-8.49066
▁وفق	-8.49117
▁منها	-8.49504
▁يونيو	-8.49948
▁15	-8.5006
▁ادارة	-8.50488
انغيلا	-8.50656
بر	-8.50713
▁اشخاص	-8.50843
زي	-8.50957
▁الع	-8.51044
▁الازمة	-8.51223
▁الدقيقة	-8.52125
▁مسؤول	-8.5229
▁وتابع	-8.52431
▁الارهاب	-8.52441
ظ	-8.52628
در	-8.52836
▁بلد	-8.52869
▁وذكرت	-8.52907
اق	-8.53019
▁تموز	-8.5317
▁مركز	-8.533
▁12	-8.53313
▁اخرين	-8.53345
▁ممكن	-8.53401
▁مشروع	-8.53449
يس	-8.53793
▁الموقع	-8.53858
▁الالمان	-8.5392
▁الوطني	-8.53999
▁ظل	-8.54016
▁الخاصة	-8.54174
▁العسكرية	-8.54176
▁وبعد	-8.54302
▁مكان	-8.54442
▁النووي	-8.54573
▁مواقع	-8.54796
▁ذكر	-8.54858
▁بهدف	-8.54951
▁اعلان	-8.55135
▁حماية	-8.55206
▁المجتمع	-8.55229
▁نقل	-8.55299
▁اجتماع	-8.55366
▁بما	-8.55705
▁وقف	-8.5571
▁الاسباني	-8.55875
▁السياسي	-8.55921
▁زي	-8.56082
▁نشر	-8.56122
▁لكنه	-8.56249
▁العالمية	-8.56317
▁الاعلام	-8.56351
▁بم	-8.56425
▁يناير	-8.56476
▁الايراني	-8.56503
▁كورونا	-8.56728
▁القرار	-8.56869
▁ثلاث	-8.56871
▁المهاجرين	-8.57165
▁خمسة	-8.57344
▁يبدو	-8.57366
لو	-8.5755
▁جاء	-8.57727
▁سن	-8.57756
▁العراقية	-8.57852
▁شباط	-8.58312
▁2018)	-8.58471
▁عشان	-8.58503
▁اجراء	-8.58538
مر	-8.58548
▁الاسلحة	-8.58653
▁فرانس	-8.58831
▁لت	-8.58834
▁وبحسب	-8.59268
▁نقطة	-8.59311
▁نوفمبر	-8.59463
▁الحياة	-8.60022
▁المنظمة	-8.60085
▁اعادة	-8.60178
▁دوري	-8.60267
▁وده	-8.60713
▁امر	-8.61041
رغم	-8.61219
▁اكدت	-8.61328
▁العمر	-8.61625
▁الشرق	-8.61734
▁النادي	-8.61738
▁دعا	-8.61848
▁المسلمين	-8.6185
▁2017)	-8.61858
▁طالب	-8.61884
▁دونالد	-8.61887
▁مستوي	-8.6191
▁الفرنسية	-8.62031
▁نسبة	-8.62108
▁الروسية	-8.62572
▁وفقا	-8.62849
▁العنف	-8.62919
▁مدير	-8.63031
▁الجاري	-8.63448
▁تعرض	-8.63608
▁النساء	-8.63702
▁انهم	-8.64193
▁الاوسط	-8.64196
▁لو	-8.64377
▁السعودي	-8.64381
▁تقارير	-8.64547
▁معلومات	-8.64574
▁قام	-8.64705
▁دفع	-8.64872
▁اعضاء	-8.65027
ث	-8.65129
▁نتائج	-8.65143
▁العملية	-8.65275
▁قرب	-8.6543
▁اكتوبر	-8.65451
▁الماضية	-8.65728
▁العسكري	-8.65747
▁نادي	-8.65912
▁قطر	-8.65947
ود	-8.65976
▁صباح	-8.66032
▁حد	-8.66047
▁مضيفا	-8.66235
▁تونس	-8.6691
▁ريال	-8.67024
▁رفض	-8.67138
▁الاسرائيلية	-8.67256
▁سبتمبر	-8.67357
▁العلاقات	-8.67658
▁غرب	-8.67804
لم	-8.67823
مكافحة	-8.67871
▁الحكم	-8.6802
▁الطائرة	-8.68225
يف	-8.68288
▁اهداف	-8.68437
▁الامنية	-8.68509
▁بناء	-8.6887
اني	-8.69008
▁بدا	-8.69035
مان	-8.69061
▁هجمات	-8.69168
▁بدات	-8.69295
▁الاميركي	-8.69373
▁المانية	-8.69527
▁ديسمبر	-8.69758
▁البريطانية	-8.69761
▁2013)	-8.70228
▁محادثات	-8.70377
▁الغربية	-8.70519
▁ذات	-8.70606
▁مهمة	-8.70642
▁المقرر	-8.70693
جي	-8.70807
▁dw	-8.70896
▁اقل	-8.71117
▁واشار	-8.71213
▁دعم	-8.7123
▁اجراءات	-8.71298
▁الاشتراكي	-8.71621
▁مليار	-8.72051
▁بالمائة	-8.72237
▁اسم	-8.72341
▁هؤلاء	-8.72352
▁وذكر	-8.72369
▁بيد	-8.72744
تم	-8.72842
▁الشعب	-8.73015
هيئة	-8.73057
▁عسكرية	-8.7332
يه	-8.73329
▁كانوا	-8.73352
▁10	-8.73453
الم	-8.73468
▁قائلا	-8.73472
▁التقرير	-8.73694
▁زيارة	-8.73737
▁الصحة	-8.74092
▁11	-8.74139
▁بداية	-8.74234
▁البحث	-8.74383
▁كشف	-8.74493
لمدة	-8.74509
▁يعد	-8.74543
▁المائة	-8.74673
▁عشرة	-8.74877
▁الثالث	-8.74924
▁المناطق	-8.74936
▁خارج	-8.74975
▁الباحثون	-8.75051
▁30	-8.751
1	-8.75105
▁نائب	-8.75138
▁عقد	-8.75201
هل	-8.75227
▁اس	-8.75263
▁هدف	-8.75443
▁وقع	-8.75489
فر	-8.75626
▁تقديم	-8.76022
▁المن	-8.76058
▁يوليو	-8.76173
كي	-8.76266
▁الشركة	-8.76313
▁التنظيم	-8.76406
▁للامم	-8.76441
▁اثار	-8.76446
▁واحدة	-8.76734
▁جامعة	-8.76835
▁المعلومات	-8.76901
▁التوصل	-8.76961
▁مشيرا	-8.77095
ير	-8.7716
▁الارض	-8.77183
▁متحدث	-8.77216
فا	-8.77285
▁كي	-8.77621
▁مكتب	-8.77784
▁نجم	-8.77818
وف	-8.77908
▁القاهرة	-8.77927
▁البيان	-8.78154
▁حرب	-8.78171
▁الاخري	-8.78176
▁بذلك	-8.78183
▁يتعلق	-8.78398
▁رد	-8.78498
▁ده	-8.78785
▁بالاضافة	-8.79009
▁محافظة	-8.79014
▁ادي	-8.79061
▁افريقيا	-8.7956
▁3	-8.79996
▁المجموعة	-8.80159
▁فبراير	-8.8025
▁طويلة	-8.80449
اج	-8.80887
▁وتم	-8.8092
▁مش	-8.80962
▁است	-8.81002
▁انتخابات	-8.81028
▁الاخير	-8.81128
حصول	-8.81199
▁كرة	-8.81419
▁زيادة	-8.81468
▁الجسم	-8.81599
▁البحر	-8.81649
▁الالكتروني	-8.81779
▁بينها	-8.81879
قر	-8.82279
▁مدي	-8.82347
▁وجاء	-8.8235
▁ارتفاع	-8.82482
▁والا	-8.82506
▁حق	-8.82513
▁بهذا	-8.82548
▁برنامج	-8.82612
▁العربي	-8.82749
تس	-8.82752
وم	-8.82866
▁الشباب	-8.82886
▁بدون	-8.8301
▁المدرب	-8.83033
▁مختلفة	-8.83275
▁14	-8.8332
▁امنية	-8.8332
▁لهم	-8.83372
%	-8.83372
▁مؤخرا	-8.83598
▁18	-8.83615
▁ستة	-8.8373
▁بغداد	-8.83916
▁الفلسطينية	-8.84107
▁المملكة	-8.84416
▁الوزير	-8.84539
▁منتخب	-8.84583
▁محاولة	-8.84734
مدينة	-8.84917
امكانية	-8.85089
▁عناصر	-8.85269
▁الهدف	-8.85369
▁الطاقة	-8.85392
سن	-8.85472
دو	-8.85475
▁بريطانيا	-8.85563
▁افغانستان	-8.85779
▁وسي	-8.85831
▁قضية	-8.85941
▁بانها	-8.86052
▁ازمة	-8.86289
▁موسكو	-8.86496
▁يقول	-8.8663
▁الابيض	-8.86675
▁صحفي	-8.86677
▁بيانات	-8.86738
▁حكم	-8.86744
▁مقر	-8.86852
▁نتيجة	-8.8703
▁القاعدة	-8.87055
▁الهجرة	-8.87127
▁سان	-8.87135
▁عرض	-8.87167
ور	-8.87247
▁1	-8.87252
▁دمشق	-8.87283
▁تناول	-8.87361
▁تنفيذ	-8.87404
▁وما	-8.87439
▁كشفت	-8.87617
▁تشكيل	-8.87789
▁الصحيفة	-8.8779
▁المؤتمر	-8.88031
▁الفوز	-8.88072
▁فتح	-8.8829
▁وزراء	-8.88473
▁احدي	-8.88485
▁المشاركة	-8.88584
▁الش	-8.88847
▁قائمة	-8.88902
▁ابطال	-8.88999
▁طهران	-8.89007
▁خطر	-8.89047
▁حظر	-8.89509
▁الاميركية	-8.89547
▁مجال	-8.89709
▁يزال	-8.89751
▁اغسطس	-8.89924
▁بدء	-8.89936
▁المصدر	-8.90196
▁الايطالي	-8.90449
▁لما	-8.9067
▁سنة	-8.90766
▁المفاوضات	-8.9091
الي	-8.91001
▁مجددا	-8.91036
▁2	-8.91136
▁يعني	-8.91158
▁الج	-8.91265
▁التحقيق	-8.91281
▁تويتر	-8.91283
▁2015)	-8.91291
▁المرصد	-8.91453
▁للغاية	-8.91525
2	-8.91529
▁اللاعب	-8.91539
▁وجه	-8.91567
▁عشرات	-8.91609
▁السلطة	-8.9187
▁نصف	-8.91887
▁غزة	-8.91998
▁البيت	-8.92074
▁يقوم	-8.92345
▁منهم	-8.92475
▁الرسمية	-8.92525
▁العراقي	-8.92581
يب	-8.92629
▁الاتحادية	-8.92632
▁سيارة	-8.92768
▁انقرة	-8.92843
نت	-8.92857
▁الر	-8.92872
▁2019)	-8.9314
▁نهائي	-8.93159
حل	-8.93211
▁الاسلامي	-8.93253
▁لجنة	-8.93369
▁الجوية	-8.93373
▁ضرورة	-8.93457
▁سقوط	-8.93756
▁البلد	-8.93766
▁قدم	-8.93817
▁جماعة	-8.93855
▁مت	-8.93905
▁مرسي	-8.93977
▁الفترة	-8.94174
▁رجال	-8.9418
كم	-8.94206
▁مطار	-8.94212
▁مجلة	-8.94246
▁البعض	-8.94355
▁ساعة	-8.94543
▁المرحلة	-8.94616
▁13	-8.94642
▁وكذلك	-8.94654
▁خصوصا	-8.94727
▁2014	-8.94743
▁ونقلت	-8.95002
▁اليه	-8.95048
▁مباريات	-8.95068
اش	-8.95105
▁طائرة	-8.95154
انحاء	-8.95329
▁الائتلاف	-8.9539
▁ول	-8.95422
▁ساعات	-8.95438
▁الهجمات	-8.95459
▁النجم	-8.95488
▁لحقوق	-8.95709
▁جانبه	-8.95741
وك	-8.95794
▁راي	-8.95834
▁وصل	-8.9627
▁اللجنة	-8.96573
▁لبنان	-8.96599
وت	-8.96686
▁مدرب	-8.97021
▁قانون	-8.97054
▁القبض	-8.97249
▁ملايين	-8.97365
▁حملة	-8.97451
زم	-8.97456
▁ليست	-8.97488
▁شيء	-8.97536
▁16	-8.9757
▁الحادث	-8.97619
▁كيف	-8.9762
▁العلماء	-8.97639
▁جهة	-8.9776
▁كبيرا	-8.97862
▁رجل	-8.97871
وب	-8.97885
▁امن	-8.97991
▁اضاف	-8.98031
▁سيكون	-8.98104
▁خطوة	-8.98109
قيادة	-8.98114
▁الدم	-8.98164
▁المراة	-8.98231
▁وحسب	-8.98268
▁بوتين	-8.98288
▁البافاري	-8.98368
▁ياتي	-8.98686
▁17	-8.98726
▁فعل	-8.9878
▁سوي	-8.98796
▁الدور	-8.99116
▁احمد	-8.99164
▁25	-8.99224
▁الدين	-8.99448
▁دخول	-8.99666
▁القضية	-8.99718
مة	-8.99811
بل	-8.9983
ولاية	-8.99849
دين	-8.9992
▁المالية	-8.99973
▁يعرف	-9.00026
▁جنيف	-9.00041
▁بنسبة	-9.00126
00	-9.00154
▁قطاع	-9.00163
▁اعداد	-9.0034
▁العالمي	-9.00471
▁ق	-9.00489
▁الرجل	-9.00798
اض	-9.00828
▁الانسانية	-9.00984
▁وهذا	-9.01013
▁العليا	-9.01406
جر	-9.0146
▁التعاون	-9.01557
▁التابعة	-9.016
كر	-9.01652
▁اصابة	-9.01687
▁جهاز	-9.01713
▁الحكومية	-9.02126
▁تعد	-9.02158
▁افراد	-9.02159
▁الخاص	-9.02387
▁سياسية	-9.02394
▁المتوسط	-9.02733
▁ورغم	-9.02761
لت	-9.0285
▁مواجهة	-9.0291
▁قوله	-9.02997
▁مختلف	-9.03197
▁خط	-9.03238
▁المزيد	-9.03385
▁القدس	-9.03386
▁المغرب	-9.03401
▁الخبراء	-9.03433
يون	-9.03485
وز	-9.03517
▁ابو	-9.03585
رق	-9.03588
▁النزاع	-9.03621
▁عنه	-9.03631
▁لقاء	-9.03905
▁المسلحة	-9.04148
▁تحديد	-9.04287
▁سكان	-9.04349
▁مطلع	-9.04367
يو	-9.04404
▁البيانات	-9.04416
▁يعتبر	-9.04463
▁السيارات	-9.04552
▁خمس	-9.04625
▁2014)	-9.04741
▁اهم	-9.04831
▁اسلحة	-9.04865
▁عربية	-9.04892
▁تراجع	-9.04923
▁قائد	-9.0495
▁اشارة	-9.05103
▁50	-9.05145
▁ربما	-9.05155
▁ار	-9.05161
▁نقلت	-9.05271
▁يكن	-9.05383
رس	-9.05395
▁يشار	-9.0549
▁للمر	-9.05853
▁تطبيق	-9.06029
▁مئات	-9.06146
▁يري	-9.06228
▁مباشرة	-9.06577
▁اجهزة	-9.06664
▁السيطرة	-9.06708
▁ارهابية	-9.06868
▁خلفية	-9.06909
▁فال	-9.06949
▁مؤكدا	-9.07006
▁لندن	-9.07168
▁المتوقع	-9.07201
حي	-9.07369
▁تماما	-9.07418
▁الصين	-9.07543
▁لهذا	-9.07674
اعادة	-9.07704
▁القادم	-9.0788
▁قيادة	-9.07901
تان	-9.07964
وق	-9.07976
▁بشار	-9.07996
▁جو	-9.08079
▁تاثير	-9.08087
▁بالم	-9.08089
▁كيري	-9.08139
▁تاريخ	-9.08158
▁كثيرا	-9.08212
▁شرطة	-9.08357
▁افاد	-9.08433
▁لكنها	-9.0844
▁نقاط	-9.08537
ؤ	-9.0858
سل	-9.08856
▁المسؤول	-9.0889
▁زعيم	-9.08906
▁الشركات	-9.08948
▁الواقعة	-9.08999
▁افادت	-9.09073
▁فرض	-9.09162
رت	-9.09183
▁الس	-9.09325
▁الق	-9.09344
مارس	-9.09416
▁2011	-9.09528
▁تزال	-9.09621
▁البريطاني	-9.09783
▁الفلسطيني	-9.10337
فت	-9.10409
▁الطريق	-9.10452
▁رفع	-9.10683
▁المقابل	-9.10789
▁ون	-9.10805
▁المحلية	-9.10938
▁الامير	-9.10983
▁يؤدي	-9.10993
▁الام	-9.10994
▁سبب	-9.1117
▁تعمل	-9.11203
▁معظم	-9.11324
▁طيب	-9.1155
▁حالات	-9.11788
▁بتهمة	-9.11817
▁الرياض	-9.11865
▁لذلك	-9.11981
▁مقارنة	-9.1209
▁الرئاسة	-9.12124
▁يت	-9.12143
▁مفاوضات	-9.12203
▁عمر	-9.12285
▁مراجعة	-9.12332
▁المواطنين	-9.12381
▁بحق	-9.12398
▁الشرقية	-9.12414
▁وراء	-9.12426
▁جون	-9.12503
يك	-9.12556
▁الماني	-9.12559
▁الاراضي	-9.12622
▁ثاني	-9.1264
▁اربع	-9.12664
▁تقوم	-9.12678
▁سجل	-9.12739
▁السيسي	-9.12791
▁الكبري	-9.12956
▁للرئيس	-9.13065
تنا	-9.13123
▁المشروع	-9.13127
▁ميسي	-9.13133
▁هنا	-9.13158
▁الايرانية	-9.13164
▁24	-9.13277
▁تصل	-9.1333
▁اوكرانيا	-9.13378
▁فرص	-9.13415
▁فما	-9.13566
غير	-9.1357
▁اصبح	-9.1359
▁وس	-9.13733
▁ومع	-9.13793
▁يصل	-9.13806
▁الانجليزي	-9.13979
▁لصحيفة	-9.14031
بت	-9.14056
3	-9.14059
لحصول	-9.14069
بة	-9.14185
▁الصحية	-9.14256
▁جهود	-9.14351
▁خبراء	-9.14513
▁قوية	-9.14542
▁الدستور	-9.14648
▁اعوام	-9.14666
▁4	-9.14714
▁هل	-9.14815
▁شبكة	-9.14862
▁صاحب	-9.1492
▁الرجال	-9.14937
▁الملك	-9.15087
▁اشار	-9.15129
▁المحادثات	-9.15191
▁الوكالة	-9.15206
▁فوق	-9.15211
▁اعلام	-9.15213
▁الاجراءات	-9.15228
▁الحاكم	-9.15259
رة	-9.15323
▁المقبلة	-9.15469
▁اطلق	-9.155
▁غدا	-9.15559
▁حذر	-9.1556
▁القضاء	-9.15668
▁شكل	-9.15672
▁عسكري	-9.15806
▁الشمالية	-9.15807
▁الاخوان	-9.15866
▁الادعاء	-9.15877
▁صفوف	-9.15877
▁التصويت	-9.1594
▁راس	-9.15964
▁لكل	-9.15993
▁بالسجن	-9.16013
▁القلب	-9.16113
▁الحر	-9.16241
▁الوطنية	-9.16286
▁2016	-9.16519
▁غض	-9.16529
▁المفوضية	-9.16593
▁قتلوا	-9.16593
رو	-9.16762
▁السوريين	-9.16853
▁ظهر	-9.16928
▁النهائي	-9.16988
▁غ	-9.17011
▁البالغ	-9.17029
▁انتاج	-9.17118
شر	-9.17245
▁النتائج	-9.17248
▁العلاج	-9.17304
▁اتخاذ	-9.17338
▁الساعة	-9.1735
▁تسجيل	-9.17387
▁باستخدام	-9.17415
▁القيام	-9.17437
▁النظر	-9.1751
▁الخ	-9.17726
▁حصل	-9.17797
▁الوصول	-9.17949
كت	-9.18087
▁اسابيع	-9.18099
▁5	-9.18218
يت	-9.18259
▁رجب	-9.18387
▁شهدت	-9.18389
▁مقابلة	-9.18449
▁جري	-9.18492
▁الجنوبية	-9.18715
▁العقوبات	-9.18769
▁التلفزيون	-9.18779
▁نظيره	-9.18855
▁الحوثيين	-9.18904
▁الاقتصاد	-9.18926
▁شتاينماير	-9.18999
▁صرح	-9.18999
لة	-9.19075
▁واسعة	-9.19086
مي	-9.19225
▁وصف	-9.19257
▁المواد	-9.19296
فارق	-9.19301
▁نشرت	-9.19372
دير	-9.19374
بو	-9.19404
▁خاص	-9.19448
او	-9.19528
▁تقول	-9.19593
كان	-9.19599
نس	-9.19664
▁حدود	-9.19705
▁المت	-9.1987
▁فريقه	-9.19877
حق	-9.19922
▁المدنيين	-9.19997
مثل	-9.20017
▁لقب	-9.20092
▁رسميا	-9.20109
▁وليس	-9.20212
▁الح	-9.20219
▁السكان	-9.20279
▁منتصف	-9.2028
يم	-9.20297
▁الرئاسية	-9.20305
▁مانشستر	-9.2032
▁السودان	-9.20345
▁انتشار	-9.20361
▁تغيير	-9.20702
▁الشاب	-9.20752
▁الاتحادي	-9.208
▁الاعلان	-9.20928
▁وافاد	-9.20928
▁فيروس	-9.2093
هر	-9.20969
▁الراي	-9.21134
▁فاز	-9.21181
▁بحث	-9.21271
▁يعمل	-9.2128
▁بطولة	-9.2136
▁وبين	-9.21367
▁تحمل	-9.21573
نة	-9.21664
▁التوتر	-9.21723
▁فرصة	-9.21837
▁تجري	-9.21902
▁اسباب	-9.21959
▁تعتبر	-9.22086
▁واوضحت	-9.22129
▁قمة	-9.22138
▁تمكن	-9.22196
يز	-9.22206
▁يريد	-9.22235
طريقة	-9.22267
▁اهمية	-9.22311
▁الرسمي	-9.22344
▁عالم	-9.2237
▁بالفعل	-9.22371
▁الاخر	-9.22392
▁الاقتصادية	-9.22449
▁ويقول	-9.22548
▁الاكثر	-9.22551
▁الاعمال	-9.22627
▁ووفق	-9.22661
▁تدريب	-9.2275
▁ايطاليا	-9.22778
▁اظهرت	-9.22796
▁واعلن	-9.2285
قا	-9.2286
▁للحكومة	-9.22873
▁مر	-9.22891
▁المكتب	-9.22902
▁الايام	-9.22921
▁الامين	-9.22934
▁جراء	-9.22991
▁فوز	-9.2312
▁علاج	-9.2325
▁سا	-9.23329
▁سلسلة	-9.23351
▁اسبوع	-9.23512
▁علاقة	-9.23533
▁تطوير	-9.23623
▁وصول	-9.23657
▁قوة	-9.23673
▁لصالح	-9.23756
▁الحركة	-9.23814
▁استطلاع	-9.23847
▁يبلغ	-9.23858
▁القوي	-9.23978
▁بالمئة	-9.24198
قد	-9.24217
▁طريقة	-9.24278
▁الديمقراطية	-9.24321
▁تسبب	-9.24375
▁شركات	-9.2448
▁السابقة	-9.24608
▁موقف	-9.24608
▁نفسها	-9.24719
▁الفلسطينيين	-9.24741
▁الاجتماع	-9.24827
▁الاستخبارات	-9.24834
▁النوم	-9.24974
▁رسالة	-9.25101
▁طائرات	-9.25151
▁سبعة	-9.25278
▁بجروح	-9.2546
▁تلقي	-9.25514
▁2015	-9.25555
▁لاجئ	-9.25737
▁9	-9.25788
▁معه	-9.25825
▁22	-9.25872
▁اقامة	-9.25893
5	-9.2591
▁حوار	-9.25914
▁اعتبر	-9.25951
▁الصراع	-9.25975
▁يد	-9.26032
▁يوجد	-9.26079
مت	-9.26157
▁الوزارة	-9.26249
▁قامت	-9.2629
▁اللبناني	-9.26293
▁امريكية	-9.26383
▁القومي	-9.2639
▁علم	-9.26433
يان	-9.26655
▁الكبير	-9.26772
▁الجولة	-9.26983
▁حجم	-9.27031
▁كامل	-9.27131
▁البرلمانية	-9.2719
▁المعارض	-9.27234
قي	-9.27305
يد	-9.27305
▁سياسي	-9.27362
▁رونالدو	-9.27393
▁صورة	-9.27421
▁التونسي	-9.27423
بان	-9.27457
رد	-9.27466
▁موعد	-9.27506
▁بلغ	-9.27537
▁المدير	-9.27633
▁21	-9.27636
▁مطالب	-9.27829
غو	-9.2783
اك	-9.27902
وه	-9.27912
▁2016)	-9.2798
▁وحتي	-9.27982
▁اقليم	-9.28025
▁فرانكفورت	-9.28054
▁المياه	-9.2808
▁استمرار	-9.28187
▁تجمع	-9.28239
▁تدخل	-9.28258
▁يعتقد	-9.28319
▁وانه	-9.28355
▁اعتقال	-9.28416
▁حياة	-9.2846
▁قناة	-9.28672
▁درجة	-9.28672
▁الجنسية	-9.2878
▁سياسة	-9.28791
▁سيتم	-9.28807
▁الالاف	-9.28846
▁السجن	-9.2885
▁انتقادات	-9.28922
▁الارهابية	-9.29094
▁البلدين	-9.29132
▁السياق	-9.29176
▁السيارة	-9.29258
اذا	-9.293
▁للاجئين	-9.2937
▁السياسة	-9.29424
▁خارجية	-9.29458
▁النواب	-9.29471
▁صالح	-9.29473
▁المرض	-9.29473
▁المتظاهرين	-9.2957
0	-9.29573
▁العمال	-9.29633
▁الرابع	-9.29696
▁المشتبه	-9.29728
▁ثمانية	-9.29747
▁تصريح	-9.29757
!	-9.29771
لشؤون	-9.29776
مل	-9.30008
▁100	-9.30061
▁مرات	-9.30161
▁باراك	-9.30189
▁خطة	-9.30219
▁رو	-9.30361
▁جائزة	-9.30392
نحن	-9.30412
▁البرازيلي	-9.3045
▁سواء	-9.30528
▁واشارت	-9.30546
▁الكرة	-9.30581
▁القتلي	-9.30639
▁الدعم	-9.30688
▁البطولة	-9.31071
▁تفاصيل	-9.31106
▁وقعت	-9.31145
▁خلف	-9.31327
ادي	-9.31512
مواصلة	-9.31563
▁المستقبل	-9.31742
7	-9.31774
▁الامارات	-9.31829
▁الليبية	-9.31857
مس	-9.31932
▁ضحايا	-9.31956
ابريل	-9.32077
▁اسفر	-9.32188
▁نيويورك	-9.3226
▁نتنياهو	-9.3228
▁استهدف	-9.32309
▁ه	-9.32337
▁لحزب	-9.32374
▁امراة	-9.3238
▁اللاعبين	-9.32396
▁مزيد	-9.32397
تك	-9.32398
▁منصب	-9.32409
▁الحل	-9.32426
▁مستقبل	-9.32459
▁2012	-9.32525
▁كولونيا	-9.32528
▁اعرب	-9.32531
▁حلب	-9.32535
▁اعلي	-9.32775
▁واكدت	-9.32803
▁هامبورغ	-9.32809
▁تحدث	-9.32814
▁وقوع	-9.32878
▁جزء	-9.32942
▁قاعدة	-9.33059
اخر	-9.33118
...	-9.33149
▁وفاة	-9.33419
▁تقريبا	-9.33432
▁الضحايا	-9.33433
▁قيام	-9.33463
▁صور	-9.33548
▁مرور	-9.3366
عة	-9.3386
▁بروكسل	-9.33882
▁المساعدات	-9.33942
▁بصورة	-9.34009
▁يشكل	-9.3408
القرب	-9.34082
▁دعت	-9.34102
ارت	-9.34243
▁تابعة	-9.34298
فة	-9.3432
ليس	-9.34329
علي	-9.3435
▁الاطراف	-9.34387
▁صلاح	-9.34494
▁جوية	-9.34514
▁الثالثة	-9.34524
▁شبه	-9.34533
▁حي	-9.34535
▁بطل	-9.34538
▁6	-9.34542
▁كذلك	-9.34624
▁الحوار	-9.34629
▁الاحتجاجات	-9.3464
▁دقيقة	-9.34709
▁الاطباء	-9.34746
4	-9.34767
▁المدن	-9.34782
▁الثلاثة	-9.34882
▁اطفال	-9.34942
▁قادة	-9.34982
▁قررت	-9.35012
طي	-9.35045
لن	-9.35048
▁العودة	-9.35092
▁الليبي	-9.35095
▁المستوي	-9.35122
▁الحالية	-9.35205
▁40	-9.3523
جو	-9.35231
▁بشدة	-9.35256
▁للاتحاد	-9.353
▁الصحفي	-9.35393
▁بريمن	-9.35481
▁تشير	-9.3556
▁يقدم	-9.35573
▁الاطلسي	-9.35573
▁يوما	-9.35597
صل	-9.3565
▁الرئيسي	-9.35797
▁السنوات	-9.35822
زيادة	-9.35844
▁دير	-9.36
▁سبيل	-9.36024
▁نوع	-9.36027
لل	-9.36059
▁الغ	-9.3612
شي	-9.36285
▁صوت	-9.36305
▁داعش	-9.3641
سا	-9.36502
غل	-9.36805
▁2018	-9.36899
جن	-9.36902
▁دخل	-9.36919
▁حماس	-9.36936
هذا	-9.3696
▁فيسبوك	-9.36968
▁جهته	-9.36982
▁للا	-9.37002
▁يجري	-9.37024
▁بهذه	-9.37085
نو	-9.37131
بن	-9.37137
▁الخطوة	-9.37234
▁سوري	-9.37343
يونيو	-9.3736
▁المسؤولين	-9.37492
▁التعامل	-9.37515
▁23	-9.3754
▁عباس	-9.37549
غر	-9.37551
▁المتطرف	-9.37653
▁يعاني	-9.37752
▁المحلي	-9.3778
▁خطيرة	-9.3779
▁جنود	-9.37834
▁سوق	-9.37835
▁كلمة	-9.37878
▁اليها	-9.38077
▁لتنظيم	-9.38102
▁حدوث	-9.38346
▁بس	-9.38376
▁الاجانب	-9.38386
▁احتمال	-9.38415
▁الكشف	-9.38453
بين	-9.38453
▁اللقاء	-9.38482
▁عنها	-9.38561
▁تشهد	-9.38661
▁لانه	-9.38667
▁جلسة	-9.38719
▁يحمل	-9.3873
▁السلاح	-9.38783
؛	-9.38825
اوي	-9.38913
▁تجاه	-9.38952
▁يعود	-9.3897
▁توماس	-9.39016
▁الحديث	-9.3904
▁ضيفه	-9.39276
ائية	-9.39339
▁ابرز	-9.39391
▁مراكز	-9.39392
▁تساعد	-9.39408
▁اولي	-9.39516
▁اعلامية	-9.39587
هي	-9.3963
▁المهاجم	-9.39658
▁رسمية	-9.3966
▁النفط	-9.39662
▁كال	-9.39671
تعين	-9.39702
▁اسطنبول	-9.39728
▁طرابلس	-9.39822
▁اخرون	-9.39874
▁كافة	-9.39916
▁بوروسيا	-9.39943
▁انصار	-9.39968
سر	-9.39982
▁شالكه	-9.40045
▁اليميني	-9.40071
▁الكردية	-9.40231
▁ضغط	-9.40232
8	-9.40256
▁عقوبات	-9.40264
▁يساعد	-9.40288
▁السفر	-9.40304
▁استهدفت	-9.40305
▁الممكن	-9.4039
وياتي	-9.40596
▁حديثة	-9.40665
▁اختيار	-9.40719
▁القرن	-9.40721
▁2017	-9.40726
▁باي	-9.40845
▁الامراض	-9.40899
▁ماس	-9.40901
▁يجعل	-9.4091
▁الطعام	-9.40916
▁جرائم	-9.40925
▁الطيران	-9.41015
▁بلا	-9.41144
▁رقم	-9.41213
▁جزيرة	-9.41216
▁الاعضاء	-9.41235
▁معهد	-9.41283
▁وست	-9.41321
زل	-9.41361
▁كم	-9.41423
مار	-9.41441
▁كوريا	-9.41468
فل	-9.41531
▁التحقيقات	-9.41549
كاس	-9.41576
▁شن	-9.41711
▁مقاتلي	-9.41739
▁تت	-9.41769
▁سياق	-9.41796
▁حقق	-9.418
▁امريكي	-9.41825
▁خطط	-9.41941
▁خطاب	-9.41965
▁ستكون	-9.42005
▁مرض	-9.42051
▁الكبيرة	-9.42093
▁حدث	-9.42142
▁تعليق	-9.42166
▁النووية	-9.42178
▁الخضر	-9.4225
▁انباء	-9.4232
▁الشيخ	-9.42368
بيلد	-9.42386
▁الز	-9.424
▁دولية	-9.42426
▁تظهر	-9.4244
▁الطبيب	-9.42508
▁فرانك	-9.42532
▁قرر	-9.42549
▁صحافي	-9.42689
▁طفل	-9.42744
▁امني	-9.42755
صح	-9.42759
▁عضو	-9.42796
▁السنة	-9.42831
▁وبي	-9.42835
را	-9.42866
▁يزيد	-9.42873
▁الشوط	-9.42873
▁صغيرة	-9.42924
جامعة	-9.43058
اري	-9.43092
▁الالكترونية	-9.43096
▁لعب	-9.43464
▁مشاكل	-9.43475
موجة	-9.43503
▁الواقع	-9.43506
▁مهاجم	-9.43553
▁الصادر	-9.43613
بار	-9.43677
▁تن	-9.43709
وج	-9.43737
▁الجريمة	-9.43748
▁فيلم	-9.43873
▁ردا	-9.43889
▁الاسلام	-9.43947
▁اوروبية	-9.43961
▁الرئيسية	-9.43986
▁اليونان	-9.44004
▁المع	-9.44032
9	-9.4404
▁المعروف	-9.4405
▁التونسية	-9.44155
▁عاصمة	-9.44272
▁الهيئة	-9.44324
يوم	-9.44422
▁اليمني	-9.44452
راد	-9.44486
لقد	-9.44526
▁شاب	-9.44567
▁تضم	-9.44606
▁فشل	-9.44615
▁وبدا	-9.44639
ولي	-9.4477
جل	-9.44807
دل	-9.44825
▁واعلنت	-9.4487
تو	-9.44954
▁بالقول	-9.45015
dw	-9.45024
شت	-9.45026
▁اتهامات	-9.45081
▁العمليات	-9.45092
▁صحة	-9.4524
صف	-9.4532
▁الارهابي	-9.45367
▁لمكافحة	-9.45417
▁المجال	-9.45612
▁مسؤولون	-9.45614
▁الاساسية	-9.45619
▁السبب	-9.45623
▁ويمكن	-9.45624
▁مالي	-9.45644
▁واصيب	-9.45666
▁الطفل	-9.45667
▁مدن	-9.45725
▁تل	-9.45735
▁الغاز	-9.459
▁وبالتالي	-9.45902
▁القادمة	-9.45935
شق	-9.45959
▁البرتغالي	-9.45971
▁حسن	-9.45974
▁ادلب	-9.46022
▁سلمان	-9.46083
▁القمة	-9.46098
▁كبار	-9.46111
بق	-9.46152
▁منع	-9.46175
تش	-9.46187
▁ذاته	-9.46279
يته	-9.46291
كا	-9.4634
▁السن	-9.4642
▁تعزيز	-9.46431
تل	-9.46434
▁الاسبانية	-9.46453
روس	-9.46481
▁مشكلة	-9.46733
▁نيمار	-9.46739
▁اسبانيا	-9.46801
▁تواجه	-9.4685
▁26	-9.46868
▁الجزائر	-9.46942
▁60	-9.46997
▁مو	-9.47018
▁الاشارة	-9.47066
▁لوف	-9.47085
▁ازاء	-9.47094
▁الك	-9.47112
▁اصل	-9.47156
▁8	-9.47177
▁الامور	-9.47182
▁الانفجار	-9.47201
t	-9.4725
▁يواجه	-9.4739
قم	-9.4748
▁التعليم	-9.47676
▁الاحمر	-9.47813
وية	-9.47827
بات	-9.47827
بري	-9.47871
▁المخ	-9.4789
يق	-9.47898
▁مشترك	-9.47914
▁انتهاء	-9.48075
▁المتهم	-9.48123
▁تستخدم	-9.48154
▁الاكبر	-9.48155
▁يسمح	-9.48288
دون	-9.48368
ائي	-9.48369
منطقة	-9.48391
▁يمثل	-9.48401
▁خاشقجي	-9.48417
▁ماكرون	-9.48418
▁الضغط	-9.48513
▁الجانب	-9.48518
▁رفضت	-9.48572
▁المشاركين	-9.48625
▁مادة	-9.48626
▁نتانياهو	-9.48718
▁الجهاز	-9.49033
▁اطلقت	-9.49123
خر	-9.49131
▁بول	-9.49194
▁الفا	-9.49347
▁ليفربول	-9.4938
▁عودة	-9.49402
خفض	-9.4942
▁28	-9.49444
▁تعرضت	-9.49449
▁معينة	-9.49458
▁جيرمان	-9.4949
▁اثنين	-9.49603
رز	-9.49715
▁تعرف	-9.49756
مير	-9.49791
▁(...)	-9.49885
▁النوع	-9.49896
▁المرة	-9.49922
▁ونقل	-9.49936
فو	-9.50043
i	-9.50071
▁ينبغي	-9.50107
▁ورئيس	-9.50145
▁محطة	-9.50152
سبتمبر	-9.50253
▁تتعلق	-9.50256
▁بسرعة	-9.50258
▁القيادة	-9.50305
▁زيهوفر	-9.50377
▁البرنامج	-9.50403
▁مساعدة	-9.50542
▁انفجار	-9.50663
▁مرحلة	-9.50723
دار	-9.50772
▁علماء	-9.50816
▁27	-9.5083
▁للحزب	-9.50968
وزارة	-9.50974
▁رئاسة	-9.51034
▁اشارت	-9.51097
▁موضحا	-9.51122
▁الادارة	-9.51128
لف	-9.51179
▁جرت	-9.51306
جد	-9.51332
▁الاجتماعية	-9.51425
▁تسعي	-9.51442
▁كثيرة	-9.51473
▁لديهم	-9.51503
▁متن	-9.51557
▁الخامس	-9.51584
▁الخليج	-9.51588
▁العثور	-9.5167
▁وزيرة	-9.51785
▁بكل	-9.51798
مايو	-9.51859
▁مشاركة	-9.51915
▁بلغت	-9.51987
▁ففي	-9.51995
▁سؤال	-9.52046
كون	-9.5218
▁انواع	-9.52213
▁وقتل	-9.52419
▁وصلت	-9.52468
▁يقل	-9.52516
▁اغلاق	-9.52549
تعرض	-9.52601
▁بيع	-9.52604
▁والت	-9.5265
▁يحدث	-9.5285
▁7	-9.52909
▁البديل	-9.52947
▁فيديو	-9.52969
▁يحصل	-9.52991
▁2013	-9.53018
▁اليمنية	-9.5303
▁مواد	-9.53031
▁سابقة	-9.5311
▁المان	-9.53127
قل	-9.53143
▁فوزه	-9.53157
▁ولي	-9.53268
ستر	-9.53308
▁السادس	-9.53351
▁السفير	-9.53402
▁بات	-9.53438
▁قبيل	-9.53524
▁ارسال	-9.53774
▁الطبية	-9.53907
▁عيد	-9.53924
ينغ	-9.53925
▁المساعدة	-9.5397
▁للت	-9.54038
▁الفني	-9.5404
صناعة	-9.54055
▁بر	-9.54066
▁تشكل	-9.54076
▁الاصوات	-9.541
مع	-9.54101
▁والعشرين	-9.54158
▁هم	-9.54179
▁النيابة	-9.54196
▁الصادرة	-9.54231
▁حصيلة	-9.5426
▁كتير	-9.54315
▁شارك	-9.54329
وري	-9.54381
▁علاقات	-9.54438
دور	-9.54459
▁قضايا	-9.54502
▁ميونخ	-9.54544
▁جمع	-9.54594
▁التابع	-9.54651
▁بحلول	-9.54721
▁الموضوع	-9.54802
▁مالية	-9.54839
▁ملف	-9.54852
▁بقوة	-9.54902
▁الفيديو	-9.54902
قة	-9.54988
▁الشخص	-9.54991
▁صحفية	-9.55037
▁فجر	-9.55081
▁الوحيد	-9.55105
▁المهمة	-9.55157
▁سيطرة	-9.55239
▁يتوقع	-9.55273
▁ممارسة	-9.55345
اته	-9.55362
▁سحب	-9.55368
▁ودعا	-9.55382
▁تاكيد	-9.55392
▁السفارة	-9.55581
▁ظهور	-9.55609
▁الشخصية	-9.55622
▁المصادر	-9.55665
▁الاستفتاء	-9.55786
▁المستشفي	-9.55796
▁عددا	-9.55835
وض	-9.55837
6	-9.55868
اور	-9.55964
▁مخاطر	-9.55965
▁خلالها	-9.55983
▁يوميا	-9.56006
▁محمود	-9.56051
▁يشارك	-9.56145
▁توجه	-9.56349
▁بنيامين	-9.56366
▁بعدم	-9.56463
▁اشتباكات	-9.56497
يش	-9.56509
▁العدل	-9.56522
▁سوف	-9.56525
▁اداء	-9.56525
▁قتيلا	-9.56564
مو	-9.56789
▁واضحة	-9.56867
رش	-9.56912
▁باحثون	-9.56961
▁الصيف	-9.57139
▁منصبه	-9.57187
▁بدلا	-9.57222
▁مؤسسة	-9.57233
▁الاستطلاع	-9.57245
▁حديث	-9.57251
▁مهاجر	-9.57329
▁قطع	-9.57344
▁الجمعية	-9.5739
اتها	-9.57461
ائه	-9.57525
كو	-9.57566
▁دائما	-9.5759
▁مسالة	-9.57607
▁مخاوف	-9.57625
▁جيدة	-9.57648
دان	-9.57677
▁سبق	-9.57801
▁خدمات	-9.57823
وش	-9.57886
▁اتصال	-9.57905
حر	-9.57911
ارات	-9.57933
▁توصل	-9.57961
▁الطرق	-9.58008
راس	-9.58022
▁الانتخابية	-9.58033
▁لديها	-9.58036
لاند	-9.58069
سحب	-9.58092
▁الضوء	-9.58156
اكتوبر	-9.58179
دعم	-9.58263
▁2020)	-9.58263
s	-9.583
سار	-9.58314
▁عديدة	-9.5832
بال	-9.58347
▁الخارج	-9.58464
▁هدفا	-9.58527
▁طالبان	-9.58545
▁ملعب	-9.58582
▁قوي	-9.58598
▁يعانون	-9.58624
▁يعيش	-9.58708
▁البر	-9.58711
▁ناحية	-9.58758
▁الاقتصادي	-9.58845
وار	-9.58883
▁الحملة	-9.58892
▁نجاح	-9.5893
▁المئة	-9.5899
▁نطاق	-9.59043
▁مل	-9.59047
▁مون	-9.59117
اتهم	-9.5912
▁2010	-9.59171
▁عامين	-9.59234
▁الغذائية	-9.59301
▁يؤكد	-9.5941
▁ليفركوزن	-9.59449
▁غياب	-9.59456
▁منظمات	-9.59472
▁البابا	-9.59503
▁اوضح	-9.5952
▁تري	-9.59706
▁نقلا	-9.59742
▁الشان	-9.59827
p	-9.59839
▁وانما	-9.59849
▁البرازيل	-9.59878
▁المصابين	-9.59886
▁والولايات	-9.59925
▁مشيرة	-9.60123
▁العفو	-9.60137
▁اصيب	-9.60178
▁امل	-9.60292
▁العدد	-9.60304
حركة	-9.60312
▁الايطالية	-9.60332
▁الجهود	-9.60403
▁بيخلي	-9.60417
▁اليمين	-9.60449
▁الاجهزة	-9.60496
▁زيارته	-9.60526
▁خروج	-9.60562
كن	-9.60581
▁حرية	-9.60665
غي	-9.60767
▁ترك	-9.60834
▁انقاذ	-9.60839
▁تغريدة	-9.60933
▁لاي	-9.61035
▁سيارات	-9.61142
▁حادث	-9.61147
▁تحرير	-9.6115
▁انطلاق	-9.61311
▁الوزن	-9.6137
▁الاردن	-9.61452
▁الاعلي	-9.61493
▁الرياضية	-9.61543
▁كا	-9.61566
▁ومنذ	-9.61649
▁المر	-9.61652
▁مك	-9.61728
▁اقر	-9.6191
نر	-9.61999
▁العرب	-9.6201
▁الهاتف	-9.62017
▁لمواجهة	-9.62025
تراوح	-9.62117
▁منح	-9.62124
▁لاسيم	-9.62172
ديسمبر	-9.6218
▁لاحق	-9.62288
وان	-9.62309
▁الولاية	-9.62501
▁حساب	-9.62572
▁الفيروس	-9.62582
▁النائب	-9.62608
▁قيمة	-9.62614
▁نجح	-9.62691
▁مستشفي	-9.62776
▁الجنود	-9.62799
▁عليهم	-9.62844
▁نقص	-9.62847
▁توجد	-9.62857
▁تو	-9.6293
عاد	-9.6294
▁مواطن	-9.62946
▁حفل	-9.63012
▁مبني	-9.63055
▁الخلايا	-9.63123
▁الفور	-9.63198
كس	-9.63204
▁وروسيا	-9.63253
▁يظهر	-9.63316
▁والعراق	-9.63325
بول	-9.63369
▁التوالي	-9.63402
▁سيتي	-9.63532
▁يسعي	-9.63622
▁للجيش	-9.63639
▁الصغيرة	-9.63666
▁صفقة	-9.63676
▁الطائرات	-9.63722
▁الامني	-9.6374
وفر	-9.63746
▁تغير	-9.63786
▁وفد	-9.63808
مجموعة	-9.63819
▁الاكراد	-9.63862
▁سراح	-9.63863
▁المح	-9.63881
e	-9.63892
حاجة	-9.64058
▁تحالف	-9.64083
▁فون	-9.64207
▁اف	-9.64255
لق	-9.64276
▁توفير	-9.64356
▁نظر	-9.64366
▁وحدة	-9.64381
▁محل	-9.64411
▁يونايتد	-9.6443
▁الغاء	-9.6446
▁ثانية	-9.64507
▁جمال	-9.64637
▁جانبها	-9.64659
▁الاحزاب	-9.64715
▁المدني	-9.64732
▁200	-9.64733
▁وفرنسا	-9.6474
▁الخلاف	-9.64822
راف	-9.64831
▁ري	-9.6485
جب	-9.64913
▁مسؤولية	-9.64919
يناير	-9.64919
▁متصل	-9.64938
وصي	-9.64974
d	-9.65012
▁اصبحت	-9.65048
▁تبلغ	-9.65093
▁تسعة	-9.65119
بناء	-9.6521
▁مد	-9.65213
طلق	-9.65215
▁لاول	-9.65414
▁الرابعة	-9.65423
حياة	-9.65432
▁مصير	-9.65472
▁معرض	-9.65474
▁وايران	-9.65499
سان	-9.65525
▁رحلة	-9.65569
▁البحرية	-9.65583
ولا	-9.65802
▁المتحدثة	-9.65833
غن	-9.65857
▁اصدرت	-9.65959
▁حكومية	-9.65991
بط	-9.66001
▁تقوده	-9.66076
اصابة	-9.66156
قول	-9.66259
▁ائتلاف	-9.66263
▁تقل	-9.66288
▁المخابرات	-9.66298
صار	-9.66303
نوفمبر	-9.66347
▁غالبا	-9.66354
▁اكتشاف	-9.66362
▁قريبا	-9.66393
ساهم	-9.66409
▁الملكي	-9.66534
▁كردستان	-9.66641
اغسطس	-9.66641
▁الاعتداء	-9.6673
▁تواصل	-9.66879
ضرب	-9.66906
▁صدر	-9.66943
▁واضح	-9.66972
▁وبال	-9.66985
▁طالبت	-9.67037
▁ضربة	-9.67061
▁بدعم	-9.67104
▁سلام	-9.67108
▁الدرجة	-9.67237
▁احتجاجات	-9.67267
▁تطور	-9.67297
▁مارك	-9.67298
▁حاجة	-9.6731
▁عما	-9.67311
▁القتال	-9.67321
▁كثير	-9.67371
▁القائمة	-9.67406
▁اضافية	-9.67428
▁العزيز	-9.67624
▁الموصل	-9.67691
▁تكن	-9.67714
▁القوة	-9.6772
▁الغرب	-9.67741
▁بيتر	-9.67742
▁الجوي	-9.67858
▁قلق	-9.67884
قيم	-9.67916
▁واسع	-9.67967
▁جديدا	-9.68043
▁انتقال	-9.68119
جزء	-9.68125
▁تحتوي	-9.6824
▁جعل	-9.68253
يلي	-9.68259
▁لمنع	-9.68336
▁الارجنتيني	-9.6834
▁صنعاء	-9.68376
▁تجاوز	-9.68389
▁وطالب	-9.68516
▁الاتهامات	-9.68552
▁تمثل	-9.68581
▁الضفة	-9.68585
▁السماح	-9.68585
▁توجيه	-9.68635
▁تسليم	-9.68646
▁مضيفه	-9.68649
▁والح	-9.68655
يوليو	-9.68724
▁غربي	-9.68853
▁غد	-9.68855
▁موسم	-9.68874
وجه	-9.689
▁2009	-9.68908
يتها	-9.68924
زر	-9.68971
▁الجو	-9.69091
▁لديه	-9.69092
▁بافاريا	-9.69094
▁نظرا	-9.6913
ران	-9.69155
▁اتهم	-9.69218
▁ووصف	-9.69224
▁بلقب	-9.69246
ضع	-9.69252
ضم	-9.69299
▁مباشر	-9.69345
▁سنويا	-9.69357
▁انتقد	-9.69393
▁المكان	-9.69395
▁سير	-9.69397
▁لفترة	-9.69419
▁اساس	-9.6944
▁عالية	-9.69465
▁الدينية	-9.69554
▁قرارات	-9.69592
▁الحكومي	-9.69596
▁لجوء	-9.69612
▁لاطلاق	-9.69626
▁الاخضر	-9.69691
▁التقدم	-9.69803
▁الشعبوي	-9.69807
عندما	-9.69838
▁وغير	-9.69888
▁الجمهورية	-9.69893
▁الحالات	-9.69896
▁جندي	-9.69946
سو	-9.70017
▁تريد	-9.7003
▁وتقول	-9.70079
▁شديدة	-9.70126
▁اعقاب	-9.70142
▁الطرفين	-9.70142
▁ارهابي	-9.7022
▁الباحثين	-9.70264
اكثر	-9.70282
لاف	-9.70316
▁سابقا	-9.70411
▁الكمبيوتر	-9.7052
▁تي	-9.70622
▁تر	-9.7066
▁الحد	-9.70673
▁29	-9.70772
▁بعيد	-9.70784
▁جيد	-9.70871
▁روبرت	-9.70879
▁طالبي	-9.70887
▁فضلا	-9.70915
▁تعتزم	-9.70974
فبراير	-9.71003
▁لاجراء	-9.71046
تقدم	-9.71067
▁برامج	-9.71067
▁احياء	-9.7116
▁وكتب	-9.71196
كين	-9.7122
▁البيئة	-9.71271
▁المثال	-9.71315
▁بو	-9.71335
▁كتب	-9.71352
▁الثلاث	-9.71473
▁الشعبية	-9.71512
▁سلطات	-9.71512
عملية	-9.7154
▁السرطان	-9.71548
▁امريكا	-9.71589
▁عادة	-9.71713
▁انسانية	-9.71963
▁سورية	-9.71986
▁فرق	-9.71993
▁الفتاح	-9.72005
▁بموجب	-9.72039
▁مسؤولين	-9.72052
سام	-9.7208
▁مهم	-9.72123
▁للصحفيين	-9.72147
راك	-9.72199
▁تولي	-9.72287
▁المختلفة	-9.7243
▁حامل	-9.72481
▁عاد	-9.72553
جمع	-9.72558
ضيف	-9.72561
▁فانه	-9.72572
▁تمديد	-9.72585
▁اللقب	-9.72585
▁الموقف	-9.72612
▁استقبال	-9.72627
▁تبادل	-9.72644
▁الدبلوماسية	-9.7265
▁مبارك	-9.72779
جان	-9.72805
▁يسيطر	-9.72831
▁قصف	-9.72862
▁اوروبي	-9.72881
▁حلف	-9.72889
▁المنتظر	-9.72892
▁وعدم	-9.72893
▁(19	-9.72924
▁والس	-9.72927
▁الاهداف	-9.72958
▁طرح	-9.73054
▁السوق	-9.73058
▁مدار	-9.73095
شعر	-9.73144
▁انتحاري	-9.73164
▁اتحاد	-9.73173
▁عنف	-9.73218
جائزة	-9.73257
▁والمانيا	-9.73289
تز	-9.73353
▁فلاديمير	-9.73358
▁اصحاب	-9.73358
▁للجدل	-9.73359
▁دويتشه	-9.7338
▁70	-9.73427
▁قليلة	-9.73445
قضاء	-9.7345
انهاء	-9.73452
▁فكرة	-9.73501
▁بور	-9.73568
▁المرضي	-9.73571
▁كون	-9.73688
▁الوسط	-9.73741
▁المدي	-9.7376
▁يومين	-9.73767
▁الطريقة	-9.7379
▁ممن	-9.73978
▁التدخل	-9.73998
▁الجزائري	-9.74008
▁المناخ	-9.74013
▁تؤكد	-9.74095
▁الرياضة	-9.74107
▁منزل	-9.7413
▁للانتخابات	-9.74139
بور	-9.74252
ذي	-9.74256
▁طلبات	-9.74296
▁تشمل	-9.74308
▁الحماية	-9.74344
▁ظروف	-9.74349
▁ويشار	-9.74357
▁الجميع	-9.74443
▁طيار	-9.74473
▁قلب	-9.74477
▁الفضاء	-9.74478
▁اللبنانية	-9.74484
▁والي	-9.74537
▁وحدات	-9.74556
▁مراقبة	-9.74585
▁امرا	-9.74591
▁الملف	-9.74628
▁شبيغل	-9.74681
▁اسمه	-9.74724
▁تزيد	-9.74779
▁والان	-9.74796
▁النهائية	-9.74802
ائها	-9.74803
▁توقف	-9.7481
▁النتيجة	-9.74858
▁الجزيرة	-9.7488
▁احداث	-9.74967
▁يع	-9.75019
ضرورة	-9.7503
▁قتلي	-9.75035
▁ينصح	-9.75044
بوندسليغا	-9.75173
▁دار	-9.75183
▁الافراج	-9.75235
▁ثان	-9.75316
▁طبية	-9.75358
▁بد	-9.75375
▁دورا	-9.75434
▁اماكن	-9.75437
▁الجدل	-9.75453
▁ميل	-9.75478
درجة	-9.75515
▁مونديال	-9.75526
▁تصدر	-9.75564
▁القضايا	-9.75611
▁الصحي	-9.75615
شار	-9.75625
▁موضوع	-9.75706
▁الحفاظ	-9.75711
▁الاخرين	-9.75778
فتح	-9.75787
▁امراض	-9.75804
▁يشتبه	-9.75846
▁احدث	-9.75909
▁انهاء	-9.75984
▁اجري	-9.75987
نظر	-9.76006
▁مساعدات	-9.7601
▁صحية	-9.76035
▁يعتزم	-9.7604
▁مس	-9.76087
▁كو	-9.76126
لحماية	-9.76145
▁استعادة	-9.762
▁جا	-9.76244
▁لحل	-9.76246
▁الدستورية	-9.76257
▁وعن	-9.76452
اث	-9.76502
سعي	-9.76611
o	-9.76612
انا	-9.76627
▁البشر	-9.76655
▁مست	-9.76655
▁المتعلقة	-9.76678
داء	-9.76715
▁وتركيا	-9.76754
بدا	-9.768
▁سيناء	-9.76869
▁مرشح	-9.76902
▁التزام	-9.76929
▁اللعب	-9.7696
▁واعتبر	-9.77015
▁قدمت	-9.77138
▁اصول	-9.77167
▁الصور	-9.77171
▁عدن	-9.77192
▁شتوتغارت	-9.77193
▁تحول	-9.77206
شن	-9.77217
انه	-9.77258
▁تهدف	-9.77312
ذر	-9.77371
وغ	-9.77457
▁لازم	-9.77459
▁جولة	-9.77461
▁مؤكدة	-9.7749
▁البداية	-9.77492
▁تبدا	-9.77544
▁كبري	-9.77567
▁ارض	-9.77573
▁المركزي	-9.77624
▁شريك	-9.77665
▁السابع	-9.7769
▁نفي	-9.7769
▁لدعم	-9.77814
▁شؤون	-9.77814
▁مجرد	-9.77999
▁300	-9.781
▁بهم	-9.78131
▁يلعب	-9.78159
▁محاكمة	-9.78261
كار	-9.78265
▁الجنسي	-9.78289
هناك	-9.78365
▁المعارك	-9.78369
▁القطاع	-9.78409
▁اطراف	-9.78412
قطع	-9.78467
▁عددها	-9.78589
▁وصرح	-9.78631
▁تمت	-9.78668
▁لوقف	-9.78686
▁ترحيل	-9.78702
▁حذرت	-9.78736
▁الفساد	-9.78766
▁80	-9.78786
▁الفيلم	-9.78853
▁حاول	-9.78867
▁الشعبي	-9.78891
▁طرد	-9.78942
▁اتفاقية	-9.78957
▁تفجير	-9.78959
▁طرق	-9.78987
علم	-9.79101
تقل	-9.79148
▁غضب	-9.79153
▁الاسبق	-9.79153
▁للهجرة	-9.79178
▁صلة	-9.7919
▁خفض	-9.79196
▁الليل	-9.79196
▁صعوبة	-9.79305
▁اسبوعين	-9.79316
▁وتاتي	-9.7939
طلب	-9.79435
▁باب	-9.79611
▁الهولندي	-9.7962
لر	-9.79622
سير	-9.79681
▁35	-9.79692
▁شهد	-9.79711
▁وهم	-9.79746
سد	-9.79764
20	-9.79773
لان	-9.79855
▁والد	-9.79862
▁جاءت	-9.79908
▁(20	-9.79987
▁بيل	-9.80009
▁الثورة	-9.80162
▁تحسين	-9.80171
است	-9.80183
▁المنزل	-9.80191
▁اوغلو	-9.80335
▁القديمة	-9.80347
▁المدارس	-9.8037
▁التكنولوجيا	-9.8037
▁سجن	-9.80397
▁تقييم	-9.804
▁الشمس	-9.80402
انظمة	-9.80445
▁اجمالي	-9.80455
▁مولر	-9.80483
▁عقده	-9.80552
▁بيت	-9.80621
ء	-9.80627
▁تابع	-9.80654
▁استئناف	-9.80708
▁شخصية	-9.80731
▁اثارت	-9.80743
ثق	-9.80806
▁الزعيم	-9.80824
▁صواريخ	-9.80899
▁ودول	-9.809
مسافة	-9.80997
تويتر	-9.81021
▁تعود	-9.8104
▁الحيوانات	-9.81104
كه	-9.81146
▁الاسرة	-9.81168
▁تسايتونغ	-9.81186
▁وجهت	-9.81195
▁محلية	-9.81215
▁رسمي	-9.81218
▁المعنية	-9.81222
▁تزايد	-9.81243
▁الماء	-9.81284
▁(27	-9.81309
ركز	-9.8141
▁مثلا	-9.81415
▁توقيع	-9.8146
▁دقائق	-9.81461
▁بقيمة	-9.81478
▁المس	-9.81499
▁يشعر	-9.81518
50	-9.81612
▁الاقتراع	-9.81628
ذا	-9.81689
▁ليل	-9.81709
تشرين	-9.81719
▁ردود	-9.81738
بس	-9.81744
به	-9.81775
زعماء	-9.81874
▁تدفق	-9.81891
▁يتع	-9.8192
يري	-9.81951
مساعدة	-9.81952
▁دولي	-9.81981
▁تجنب	-9.82076
▁التعادل	-9.82145
راب	-9.8225
▁الاست	-9.82385
صور	-9.82388
▁(16	-9.82407
▁فولفسبورغ	-9.82478
▁الفرق	-9.82516
▁دا	-9.82541
▁الل	-9.826
سوف	-9.82627
▁31	-9.82649
اقامة	-9.8266
▁الدخول	-9.82745
▁فر	-9.82774
عود	-9.82802
▁كيلومترا	-9.82898
▁دفاع	-9.82901
قتل	-9.82906
▁باكستان	-9.82923
▁قواعد	-9.82932
وها	-9.83001
ريك	-9.83014
▁منافسات	-9.83023
▁حارس	-9.83061
▁توفي	-9.8323
▁عقود	-9.83264
▁(14	-9.83416
فصل	-9.83416
طول	-9.8342
امي	-9.83525
▁بهدفين	-9.83552
▁منصور	-9.83636
طف	-9.83658
▁جي	-9.83675
▁الثقة	-9.83684
▁يحتاج	-9.83736
▁يتعرض	-9.83804
قلق	-9.83805
خلف	-9.83823
▁ادت	-9.83839
▁لاسرائيل	-9.83853
▁الشرعية	-9.83873
▁الاوكرانية	-9.83881
▁للعمل	-9.83917
حماية	-9.83943
▁تاتي	-9.83968
▁البحرين	-9.83994
▁اليسار	-9.84114
رف	-9.84135
▁المال	-9.84203
▁طرف	-9.84214
▁يبقي	-9.84292
سك	-9.84293
كيفية	-9.84303
▁المستشار	-9.84315
▁مضيفة	-9.84377
▁يتمكن	-9.84404
▁المواقع	-9.84467
اول	-9.84494
▁وسجل	-9.84517
▁كمان	-9.84523
▁هانوفر	-9.84547
خت	-9.84597
▁معرفة	-9.84646
▁الكيماوية	-9.84656
▁انسحاب	-9.84784
▁غوارديولا	-9.84785
▁عثر	-9.84903
▁اسرائيلية	-9.84936
▁الجلد	-9.84941
▁سلاح	-9.84942
▁رصيده	-9.84947
▁القائم	-9.84956
▁العلمية	-9.84979
عين	-9.85028
▁الحق	-9.85039
▁تجربة	-9.85059
▁وخاصة	-9.85082
▁المشتركة	-9.85086
ورد	-9.85192
طر	-9.8521
▁وغيرها	-9.85216
▁الخامسة	-9.8524
يتش	-9.8528
▁نشاط	-9.85285
▁طول	-9.85295
▁افتتاح	-9.85419
▁طراز	-9.85431
▁العهد	-9.85516
▁(18	-9.85522
▁اغلب	-9.856
▁حدة	-9.85645
▁وكل	-9.85709
وح	-9.85728
▁مسار	-9.85741
اضافة	-9.85749
▁حمل	-9.85756
▁العشرين	-9.85872
▁العشرات	-9.85922
شجع	-9.85942
▁الاعدام	-9.85947
▁تبقي	-9.85952
▁بار	-9.86068
▁تقع	-9.86068
مركز	-9.861
▁غابرييل	-9.86124
▁مسيرة	-9.86213
▁جهتها	-9.8629
▁تؤدي	-9.86376
▁(25	-9.86401
▁لنا	-9.86409
ساعد	-9.86454
▁خلاف	-9.8651
دافع	-9.86511
▁باتجاه	-9.86579
خلي	-9.86581
▁معتبرا	-9.86659
▁للمشاركة	-9.8673
▁اجريت	-9.86736
▁وقبل	-9.86821
▁العلاقة	-9.86834
خير	-9.86836
طب	-9.86842
▁الكويت	-9.8688
▁سعيد	-9.86885
▁الاشهر	-9.86892
▁المنافسة	-9.8692
▁اسفرت	-9.87057
▁سائق	-9.87064
▁واعرب	-9.87065
▁المحتمل	-9.87091
▁النفسية	-9.87198
▁المغربي	-9.87213
▁الانقاذ	-9.87216
▁قسم	-9.87216
▁القتل	-9.87244
▁ليلة	-9.87307
▁بخصوص	-9.87315
▁يصبح	-9.87356
▁الصحافة	-9.87369
▁صعيد	-9.8739
▁الجانبين	-9.87412
▁هجوما	-9.87433
جين	-9.87451
▁الحرية	-9.8747
ادارة	-9.87491
▁غالبية	-9.87634
▁مسجد	-9.87634
▁اولا	-9.87665
▁يسمي	-9.87683
لك	-9.8769
بعد	-9.87772
▁عزل	-9.87773
فور	-9.87808
▁العدالة	-9.87851
▁(17	-9.87891
▁مشتركة	-9.8795
▁صفر	-9.87957
ترا	-9.88016
▁ايه	-9.88021
▁ورفع	-9.88037
▁السواحل	-9.88088
لاسابيع	-9.88088
امر	-9.88131
سون	-9.88175
▁بالمانيا	-9.88191
▁مسابقة	-9.88334
▁لتحقيق	-9.88346
▁جزءا	-9.88363
▁الاوضاع	-9.88375
▁كول	-9.884
▁لعام	-9.88403
ائق	-9.88424
▁كر	-9.88425
▁رصد	-9.88427
▁يستطيع	-9.88449
اير	-9.8845
▁جريمة	-9.88517
راء	-9.88542
▁تاييد	-9.88578
▁ضم	-9.88619
▁ضربات	-9.88655
▁للشرطة	-9.88727
▁حفتر	-9.8874
▁2008	-9.88826
▁توقيف	-9.88829
▁المرشح	-9.88842
▁اللازمة	-9.88931
▁التاريخ	-9.8895
▁نحن	-9.89002
طور	-9.8903
▁اليومية	-9.89042
▁عهد	-9.89094
▁بدوره	-9.89145
▁حصلت	-9.89218
جار	-9.8931
فير	-9.89347
▁بينهما	-9.89354
▁الذكري	-9.89364
لات	-9.89369
▁تعادل	-9.89385
تدخل	-9.89404
▁هامش	-9.89408
▁ثالث	-9.89419
▁واذا	-9.89481
دفع	-9.89506
c	-9.89521
▁(30	-9.89529
▁بمناسبة	-9.89543
▁ووتش	-9.89544
▁الفائز	-9.89636
▁الد	-9.897
▁عين	-9.89705
▁الحالة	-9.89727
▁دعوة	-9.89741
▁وكشف	-9.89746
تواصل	-9.89776
يكي	-9.89793
▁الاتصال	-9.8984
▁مستشار	-9.89915
▁واصاب	-9.89936
▁غاز	-9.89969
▁النهاية	-9.89981
▁يواخيم	-9.90092
▁يستخدم	-9.90106
ظهر	-9.90113
▁ريف	-9.9016
▁المست	-9.90206
▁شي	-9.90238
بون	-9.90423
▁وشدد	-9.90434
▁الاعلامية	-9.9052
▁انشاء	-9.90572
▁وخلال	-9.90579
قرار	-9.90622
▁ختام	-9.90648
▁(26	-9.9068
▁المركزية	-9.90683
▁البلدان	-9.90688
▁90	-9.9084
▁المنظمات	-9.90859
▁القول	-9.90918
▁ولكنه	-9.90949
▁(22	-9.90962
▁اقوي	-9.90994
▁الفنية	-9.91063
▁تركية	-9.91105
ائهم	-9.9116
▁ولد	-9.91196
▁المادة	-9.91224
▁جان	-9.91231
▁الاقليم	-9.91235
▁اساسي	-9.9128
▁بث	-9.91283
▁اسوا	-9.91288
سلط	-9.91365
زعامة	-9.9139
▁–	-9.9141
▁نيوز	-9.91418
▁المسؤولية	-9.91419
▁قضت	-9.91477
قوي	-9.91539
b	-9.91582
▁شراء	-9.91591
▁بوست	-9.9163
▁دو	-9.91635
▁التعبير	-9.91636
▁(15	-9.91659
▁الذكية	-9.91686
▁المجلة	-9.91687
لعب	-9.91692
مور	-9.91697
▁قدر	-9.9171
▁اللغة	-9.91712
▁هادي	-9.91718
▁والاتحاد	-9.9174
▁تحليل	-9.91905
▁الاستقرار	-9.91906
جري	-9.92027
▁نشرته	-9.92035
▁ث	-9.92044
لون	-9.92049
m	-9.92084
▁لشؤون	-9.92145
ائح	-9.92208
عل	-9.9221
▁التقنية	-9.92212
▁الطب	-9.92256
شركة	-9.92272
▁صعبة	-9.92304
▁قدرة	-9.92317
بير	-9.92321
▁احرز	-9.92326
▁الخبر	-9.92339
▁فحسب	-9.92365
▁يضم	-9.92448
▁مرمي	-9.92504
▁المتمردين	-9.92513
▁المقاتلين	-9.92513
▁(21	-9.92525
▁زيدان	-9.92582
▁لاسباب	-9.9259
▁وافق	-9.92651
▁مواجهات	-9.9267
حقق	-9.92706
▁قانوني	-9.9271
▁استمرت	-9.92777
▁مسلحة	-9.92779
▁سبع	-9.92831
▁45	-9.92852
▁رمضان	-9.9289
▁قانونية	-9.92926
▁ابراهيم	-9.92951
يجب	-9.92984
▁تجدر	-9.93059
▁الاموال	-9.93117
▁المغربية	-9.93123
▁ايجاد	-9.93146
▁وهناك	-9.93168
▁مي	-9.932
▁500	-9.93267
▁غارات	-9.93295
▁يحاول	-9.93324
برا	-9.93348
مشاركة	-9.93355
▁(13	-9.93381
محافظة	-9.93392
▁النهضة	-9.93401
▁روسية	-9.93419
▁ووزير	-9.9346
▁شهود	-9.93461
▁صادر	-9.93461
▁الميلاد	-9.93462
▁الهواء	-9.93464
▁اوزيل	-9.93552
▁بالذكر	-9.9357
▁البقاء	-9.93571
قود	-9.93586
▁المشكلة	-9.93647
▁الشيوخ	-9.9365
▁القذافي	-9.9365
▁(28	-9.93665
▁عنيفة	-9.93847
▁تعلن	-9.93855
▁اهتمام	-9.9388
يتي	-9.93899
▁400	-9.9393
▁ولل	-9.93993
▁المدعي	-9.94138
▁الاحداث	-9.94179
ائل	-9.94184
محاولة	-9.94185
▁المدافع	-9.94185
بحث	-9.9419
▁اعتبارا	-9.94206
▁فصل	-9.94219
▁بفيروس	-9.94225
▁استخدم	-9.94306
▁مدة	-9.94308
خط	-9.94332
▁الض	-9.94394
مول	-9.94398
فاء	-9.94459
a	-9.9449
▁احكام	-9.94526
▁الاوكراني	-9.94537
مين	-9.94568
بطولة	-9.94591
▁الكيميائية	-9.94612
▁حضور	-9.94616
ائر	-9.9462
عرض	-9.94643
▁يو	-9.94683
لين	-9.94686
▁انتهت	-9.94715
▁داخلية	-9.94742
▁هوفنهايم	-9.94801
▁الكردستاني	-9.94801
▁روحاني	-9.94808
▁(23	-9.94838
▁مستمر	-9.94883
▁الطوارئ	-9.9493
▁اصدار	-9.94951
اجهزة	-9.94985
▁احتجاجا	-9.94994
بيت	-9.95001
▁المسابقة	-9.95025
▁غرار	-9.95027
نغ	-9.95042
راق	-9.95068
▁الخبير	-9.9509
▁لرويترز	-9.95093
▁وخصوص	-9.95123
تحول	-9.95156
▁اليورو	-9.95221
▁لانها	-9.953
سور	-9.95308
طل	-9.9533
▁الخطر	-9.95339
▁لضمان	-9.95462
▁سو	-9.95482
▁النقل	-9.95496
▁اسلامية	-9.95533
▁اتهام	-9.95545
▁كلم	-9.95546
▁نسخة	-9.95571
▁للفريق	-9.95614
g	-9.95621
اخذ	-9.95648
▁بشمال	-9.95678
▁السامية	-9.95732
▁المشترك	-9.95754
▁لالمانيا	-9.95762
▁التنفيذي	-9.95762
ضغط	-9.958
ربما	-9.95846
▁الراين	-9.95854
19	-9.95858
▁محيط	-9.95916
▁القانونية	-9.95918
▁جبهة	-9.95984
▁ونصف	-9.95992
▁(11	-9.96009
▁وبريطانيا	-9.96057
▁تصاعد	-9.96132
▁ضعف	-9.96135
▁اسرائيلي	-9.96233
تكون	-9.96297
▁لاجئين	-9.96369
▁سعودي	-9.96369
▁المتهمين	-9.9641
▁يبدا	-9.9641
رج	-9.96485
▁الاصابات	-9.96552
▁الخدمات	-9.96553
▁معارضة	-9.96584
▁(24	-9.96714
▁نو	-9.96733
▁بارز	-9.96746
▁لافروف	-9.96748
▁يوسف	-9.96755
▁مياه	-9.96783
r	-9.96793
▁الرياضي	-9.96813
▁الافلام	-9.9684
▁اعتداء	-9.96875
▁الاسلاميين	-9.96913
قصف	-9.96914
▁بعضهم	-9.96934
▁خليفة	-9.96945
▁موافقة	-9.97057
▁التدريب	-9.97069
▁اظهر	-9.97071
▁لايبزيغ	-9.97072
▁يتمتع	-9.97085
▁الناخبين	-9.9718
▁اتهمت	-9.97186
▁الدكتور	-9.97221
▁مهما	-9.97232
ابر	-9.97242
▁(29	-9.97324
▁العين	-9.97375
▁رايتس	-9.97382
▁كلوب	-9.97387
▁الحال	-9.97465
▁اقرب	-9.97597
▁تس	-9.97601
▁المباريات	-9.97619
▁يطلق	-9.97626
▁التجارية	-9.97717
▁توصلت	-9.97754
▁اصوات	-9.97761
▁الطبيعية	-9.97819
فار	-9.97851
▁الخروج	-9.97856
▁الكنيسة	-9.97863
▁مجموعات	-9.9789
▁الموجودة	-9.97894
سرع	-9.97894
▁احترام	-9.97902
▁الجمهوري	-9.97916
▁الاصطناعي	-9.97935
▁تمكنت	-9.97953
▁الجنائية	-9.97965
▁اكتر	-9.98001
▁فيله	-9.98074
▁يشير	-9.98141
▁الشعر	-9.98239
▁شعبية	-9.98271
▁:"	-9.98319
▁بمثاب	-9.98334
▁اصابات	-9.98343
▁الحريري	-9.98346
▁فمن	-9.98353
هدف	-9.9844
غان	-9.98482
▁الفن	-9.98533
▁قبالة	-9.98534
▁انذاك	-9.98536
▁يدفع	-9.98562
▁تحدثت	-9.98608
▁الكونغرس	-9.9862
▁البوندسليغا	-9.98622
▁تتم	-9.98657
▁باتت	-9.98684
▁اعتبرت	-9.98688
▁تطالب	-9.98694
▁زال	-9.98755
▁المالي	-9.988
▁اليابان	-9.98803
▁تعهد	-9.9887
▁التقليدية	-9.98903
▁وتابعت	-9.98926
▁الهواتف	-9.98931
▁2006	-9.98949
▁سفينة	-9.98978
▁الالتزام	-9.99007
▁خسر	-9.99055
▁وقوات	-9.99056
▁المريض	-9.99084
▁ابدا	-9.99104
نجم	-9.99108
▁العاملين	-9.99113
▁الاساسي	-9.99117
▁يتحدث	-9.99144
▁المهم	-9.99185
روم	-9.99221
▁النقاب	-9.99274
رجح	-9.99279
▁فكيف	-9.99302
▁الاعتراف	-9.99388
حمي	-9.99448
▁مغادرة	-9.9945
▁جورج	-9.99502
▁احتجاز	-9.99537
▁تسمح	-9.99537
سبب	-9.99654
بك	-9.99672
▁النفس	-9.99711
▁تدعم	-9.99713
▁حصول	-9.99719
▁بجنوب	-9.99732
عمل	-9.99751
▁عراقي	-9.99766
▁قيد	-9.99773
▁يؤثر	-9.99786
▁اعترف	-9.99811
▁لموقع	-9.99831
▁2019	-9.99873
عدم	-9.99929
▁حكومته	-9.99946
▁تعيين	-9.99948
▁سعر	-9.99953
▁التقارير	-9.99955
▁فور	-9.99966
▁المستجد	-9.99982
حاصر	-9.99982
▁الزيارة	-10.0001
▁شديد	-10.0006
▁بنحو	-10.0013
▁ضوء	-10.0016
▁حكومي	-10.0017
▁الحرارة	-10.0023
▁يرغب	-10.0027
▁تستمر	-10.0027
▁خطورة	-10.003
حتاج	-10.0035
▁الحمل	-10.0036
▁للانباء	-10.004
▁الاطلاق	-10.0041
تق	-10.0043
شير	-10.0048
▁ضابط	-10.0049
▁ني	-10.005
▁فهو	-10.005
خار	-10.0053
نج	-10.0054
f	-10.0056
▁معدل	-10.0057
الا	-10.0058
شط	-10.0063
غلق	-10.0066
▁ساحة	-10.0067
▁الاوروبيين	-10.0068
▁عددهم	-10.0076
▁دام	-10.0082
▁تحقق	-10.0083
▁وجاءت	-10.0094
▁التنفيذ	-10.0095
▁المجموعات	-10.0096
انية	-10.0096
▁خدمة	-10.0097
▁الدموية	-10.0098
▁ربع	-10.01
▁ويعتبر	-10.0101
ستان	-10.0105
ريس	-10.0105
▁مصرية	-10.011
▁المجاورة	-10.0114
▁المطار	-10.0115
▁واست	-10.0116
قف	-10.0117
▁باير	-10.0124
▁جسم	-10.0126
▁المصريين	-10.0126
▁الموت	-10.013
▁كريستيانو	-10.0135
▁الباب	-10.0139
نشا	-10.0139
ترك	-10.0146
حافظ	-10.0146
يرو	-10.0152
كشف	-10.0154
▁للقوات	-10.0154
ميل	-10.0155
▁مسلحين	-10.0156
▁الشوارع	-10.0162
▁ذكري	-10.0166
▁الجرائم	-10.0166
▁كار	-10.0168
▁اجزاء	-10.0173
▁لرئيس	-10.0173
▁الجامعة	-10.0174
▁التاسع	-10.0178
▁الصحراء	-10.0179
لس	-10.0185
▁الحظر	-10.0186
▁الذهاب	-10.0186
▁الاولية	-10.019
▁ويبدو	-10.0192
▁التالي	-10.0196
رات	-10.0197
▁الصدد	-10.02
▁المنتمي	-10.0202
▁وتعتبر	-10.0205
ئة	-10.0205
▁ورد	-10.0205
صنع	-10.0207
▁علينا	-10.0215
ويل	-10.0217
▁القصف	-10.0217
▁مساعد	-10.0228
▁توزيع	-10.0228
شو	-10.0233
▁مراسل	-10.0235
▁تبني	-10.0238
▁يمكنه	-10.0238
▁برصيد	-10.0241
▁والع	-10.0245
▁الدراسات	-10.0259
▁الاندماج	-10.0263
▁ديفيد	-10.0263
▁لقي	-10.0265
▁الاس	-10.0269
عدة	-10.0274
نتج	-10.0278
▁الملعب	-10.0278
▁النقد	-10.0281
▁الشارع	-10.0283
▁المحامي	-10.0288
▁150	-10.0294
▁اموال	-10.0296
قوم	-10.0297
زيد	-10.03
▁مور	-10.0302
▁الاماكن	-10.0308
▁الانتاج	-10.0309
▁جماعات	-10.0309
▁محتمل	-10.031
كور	-10.0316
الك	-10.0316
▁دوليا	-10.0316
▁اصابته	-10.0318
▁بتقديم	-10.0319
▁نص	-10.0319
▁عقوبة	-10.0321
تحدث	-10.0327
▁الافغانية	-10.0327
▁التقي	-10.0329
قدم	-10.0335
فجر	-10.0335
ليك	-10.0337
رعاية	-10.0348
▁الظروف	-10.0349
هو	-10.0351
▁الشهير	-10.0352
▁نفت	-10.0354
▁لدينا	-10.0356
▁القاء	-10.0363
▁فهم	-10.0367
▁(12	-10.037
▁وبذلك	-10.0389
▁الجماعة	-10.0395
▁فقدان	-10.04
▁حلول	-10.0412
▁مستمرة	-10.0413
▁بحر	-10.0416
عيد	-10.0416
▁ضمان	-10.0417
▁الرحمن	-10.0417
▁قصر	-10.0418
▁المحافظة	-10.043
▁الحديثة	-10.0431
ثار	-10.044
▁كمية	-10.0443
تبع	-10.0444
عكس	-10.0447
▁مخ	-10.0448
تعرف	-10.0448
ادت	-10.0453
▁مبلغ	-10.0463
▁يثير	-10.0464
▁توفر	-10.0467
▁التجربة	-10.0472
▁ملحوظ	-10.0473
سياسة	-10.0474
شارك	-10.0482
▁ارتفع	-10.0483
▁الهند	-10.0485
▁نشره	-10.0485
▁الجنوبي	-10.0487
فريق	-10.0509
▁خبر	-10.051
▁المش	-10.0515
▁يعيشون	-10.0519
▁استعداد	-10.052
▁اسرع	-10.053
▁خطف	-10.0534
▁اعد	-10.0535
▁حر	-10.0536
▁اعراض	-10.0539
▁نوبل	-10.054
▁الافضل	-10.0541
ممارسة	-10.0543
▁شرقي	-10.0547
▁مبادرة	-10.0554
▁اقتصادية	-10.0559
▁المحتجين	-10.0563
▁تمويل	-10.0566
▁الرد	-10.057
▁التفاصيل	-10.0571
غار	-10.0588
▁موقعها	-10.0594
قسم	-10.0595
▁تبدو	-10.06
زود	-10.0601
▁ميدان	-10.0601
▁مفخخة	-10.0601
▁الانتقادات	-10.0602
▁الصحف	-10.0607
▁الاتصالات	-10.061
روي	-10.0613
▁تستهدف	-10.0618
▁لاتفاق	-10.0623
▁استفتاء	-10.0627
▁الرقم	-10.0632
▁سطح	-10.0638
اشد	-10.0641
▁ترتيب	-10.0645
▁القناة	-10.0645
▁تهديد	-10.0647
▁قاد	-10.0651
▁كلا	-10.0652
▁شنت	-10.066
▁عفرين	-10.0667
▁ولو	-10.0669
▁الباحث	-10.0673
▁اقيم	-10.0674
▁ولن	-10.0681
▁اليونانية	-10.0681
▁الاثار	-10.0682
يونيل	-10.0686
▁القدرة	-10.0688
عقد	-10.0688
▁تخفيف	-10.0689
▁التصريحات	-10.069
▁النقاش	-10.0697
ندا	-10.07
▁تسيطر	-10.0702
▁الو	-10.0707
▁المسلحين	-10.0707
▁شيئا	-10.071
▁محاولات	-10.071
▁طويل	-10.0712
صفر	-10.0718
▁تحتاج	-10.0724
▁السادسة	-10.0728
▁حيال	-10.0729
▁للطاقة	-10.0732
▁الاسنان	-10.0732
▁واحدا	-10.0732
▁الواضح	-10.0741
▁القاضي	-10.0747
ارة	-10.0747
▁اندلاع	-10.075
منظمة	-10.0753
▁الدماغ	-10.0757
▁تعاني	-10.0759
▁القت	-10.0761
▁المستقلة	-10.0765
كول	-10.0765
▁الطلب	-10.0769
بوندستاغ	-10.0775
وفي	-10.0783
▁بعيدا	-10.0784
▁خان	-10.0788
▁الطبي	-10.0794
▁الليلة	-10.0795
▁شان	-10.0798
▁ومصر	-10.0799
▁الداخلي	-10.0802
ابو	-10.0804
قبل	-10.0805
▁التشريعية	-10.0809
▁يعلن	-10.0817
وث	-10.0818
▁الصينية	-10.0819
▁النصرة	-10.0823
▁خطير	-10.0825
▁قرية	-10.0829
▁يلتقي	-10.0832
اذار	-10.0836
زين	-10.0837
▁انتقل	-10.0838
▁نار	-10.084
داد	-10.0841
▁امنة	-10.0842
▁عائلة	-10.0843
رام	-10.0846
▁اعربت	-10.0847
▁اولاند	-10.0851
لاس	-10.0858
▁فحص	-10.0861
يتا	-10.0863
▁درجات	-10.0864
▁عكس	-10.0866
▁حسين	-10.0871
▁الصناعية	-10.0876
سيل	-10.0877
▁ووضع	-10.0882
بية	-10.0885
▁مونشنغلادباخ	-10.0886
▁قائلة	-10.0886
ثر	-10.0887
▁المفترض	-10.0888
▁المناسب	-10.0888
▁الذ	-10.089
اكس	-10.0891
▁اسر	-10.0893
▁التفاوض	-10.0899
▁لذا	-10.0908
ائع	-10.0909
▁شدد	-10.0911
▁القرم	-10.0912
▁وحزب	-10.0918
▁الانتقال	-10.0918
▁الدورة	-10.0919
▁والن	-10.0919
فيسبوك	-10.0921
▁وتعد	-10.0922
▁عشرين	-10.0923
▁وسوريا	-10.0924
▁2020	-10.0926
▁النمسا	-10.0927
▁الصيني	-10.0933
▁ويذكر	-10.0935
معاداة	-10.094
▁ايدي	-10.0941
▁احيانا	-10.0942
▁زار	-10.0943
▁تحويل	-10.095
فان	-10.095
▁كافية	-10.0954
▁بيروت	-10.0956
▁الاعلامي	-10.0957
▁يعتمد	-10.0965
▁يقود	-10.0966
▁شروط	-10.0969
حث	-10.0971
▁صغير	-10.0972
▁لمجلس	-10.0975
غري	-10.0975
▁الافريقية	-10.0976
▁بفضل	-10.0981
▁الاسباب	-10.0994
▁عامي	-10.1008
▁المحيط	-10.1008
▁البنك	-10.1013
▁لبحث	-10.1015
▁برئاسة	-10.102
▁لقد	-10.1023
▁مستويات	-10.1026
ريد	-10.1027
▁الوجه	-10.1032
▁المعروفة	-10.1033
▁باجراء	-10.1034
▁رصيد	-10.1037
▁الطبيعي	-10.1037
▁الامام	-10.1041
لاحق	-10.1042
▁مارتن	-10.1043
▁يهدف	-10.1043
▁الثامن	-10.1045
▁سفر	-10.1046
u	-10.1047
▁اللذي	-10.1047
▁دبلوماسي	-10.1052
▁وادي	-10.1052
▁الصحفيين	-10.1061
▁اشكال	-10.1065
▁حياته	-10.1066
▁ظهرت	-10.1068
صدارة	-10.1069
لاحظ	-10.1069
▁تركي	-10.1069
حضر	-10.1071
▁اصدر	-10.1072
▁وعدد	-10.1073
رجع	-10.1075
▁استمر	-10.1077
▁التحرير	-10.1083
صال	-10.1085
▁وجد	-10.1085
وص	-10.1088
زو	-10.1092
▁بالعاصمة	-10.1093
▁قرارا	-10.1097
ناقش	-10.1104
جرائم	-10.1106
▁بكثير	-10.1108
▁فلسطينية	-10.1108
▁اعتماد	-10.111
▁الطلاب	-10.111
▁قصيرة	-10.1111
اتي	-10.1114
▁الامريكيين	-10.1115
الرابع	-10.1116
▁فالتر	-10.1129
▁وتقدم	-10.1133
▁المستمر	-10.1134
▁اعتداءات	-10.1144
▁معقل	-10.1144
التزام	-10.1146
▁قرابة	-10.1146
فق	-10.1146
▁خرج	-10.1147
▁الرئاسي	-10.1148
▁التطبيق	-10.1156
▁عرضة	-10.1157
▁بالكامل	-10.1163
▁سعي	-10.1163
▁الاسود	-10.1166
▁كيلومتر	-10.1166
ايد	-10.1172
حال	-10.1173
يرة	-10.1174
نزل	-10.1174
▁شمل	-10.1176
▁وكيف	-10.1183
▁سفير	-10.1188
▁نمو	-10.1191
▁رحب	-10.1192
▁انتخاب	-10.1199
شغل	-10.1204
▁فهي	-10.1206
:"	-10.1206
▁صدور	-10.1207
▁الكتلة	-10.1209
▁دليل	-10.1214
▁تعديل	-10.1216
▁استخدمت	-10.1221
▁بدل	-10.1223
واجه	-10.1223
▁بالرئيس	-10.1225
مرة	-10.1231
▁سوء	-10.1232
▁زين	-10.1232
حسن	-10.1233
▁بنفس	-10.1236
▁اجنبية	-10.1237
▁المشاكل	-10.1238
▁المسجد	-10.1242
▁الراس	-10.1242
▁الرقمية	-10.1244
▁ويعد	-10.1253
▁اسقاط	-10.1256
▁السكر	-10.1259
▁كنت	-10.126
▁معسكر	-10.1261
▁الشمسية	-10.1264
▁الانكليزي	-10.1271
▁تشغيل	-10.1271
▁المعتقلين	-10.1272
▁التلفزيونية	-10.1274
▁ودعت	-10.1274
▁ابحاث	-10.1275
تطور	-10.1278
▁بضع	-10.128
▁مفوض	-10.1284
▁بوقف	-10.1287
▁توتر	-10.1289
عاهل	-10.129
▁سار	-10.1299
▁المخاطر	-10.1307
▁متر	-10.1312
▁غو	-10.1314
▁الاتراك	-10.1317
▁لكي	-10.1319
اسم	-10.1319
▁اخذ	-10.1321
▁والتنمية	-10.1323
عام	-10.1327
تغلب	-10.1328
▁الجماعات	-10.1331
▁وقام	-10.1334
▁نساء	-10.134
▁باطلاق	-10.1341
▁هورست	-10.1343
الاول	-10.1345
▁وك	-10.1347
مناطق	-10.1355
▁خبير	-10.1357
▁مجتمع	-10.1358
بدء	-10.1361
▁التسجيل	-10.1363
▁واظهرت	-10.1366
▁شرطي	-10.1367
▁لمساعدة	-10.1367
▁ضبط	-10.1367
وقف	-10.1368
▁محددة	-10.138
▁شوارع	-10.1387
▁الاربعة	-10.1387
▁مستخدمي	-10.1387
▁قبول	-10.1389
▁والرئيس	-10.1389
▁شو	-10.1392
▁الالعاب	-10.1399
▁قضائية	-10.1401
▁بوجود	-10.1406
▁ليفاندوفسكي	-10.141
▁واللاجئين	-10.141
▁المرور	-10.1413
▁كاملة	-10.1414
▁القصر	-10.1415
▁الموالية	-10.1415
▁32	-10.1416
شراء	-10.1416
▁الاشتباكات	-10.1419
صفة	-10.1432
وير	-10.1433
▁سيطر	-10.1444
▁اعمارهم	-10.1445
ذهب	-10.1448
▁معها	-10.1448
▁بري	-10.1452
▁محامي	-10.1453
▁ثمن	-10.1454
▁الراحل	-10.1457
▁تذكر	-10.1465
▁للسلام	-10.1469
▁المحاكمة	-10.1469
▁ارتفعت	-10.1469
▁المتخصصة	-10.1473
▁حرارة	-10.1475
قطاع	-10.1477
▁جيدا	-10.1481
▁عسكريا	-10.1483
مزيد	-10.1495
▁واكثر	-10.1496
الغاء	-10.1496
▁الادوية	-10.1498
▁معروف	-10.1498
▁هولندا	-10.1504
استضافة	-10.1505
▁الملابس	-10.1506
واء	-10.1509
▁خطوات	-10.1514
▁بواسط	-10.1515
مسؤول	-10.1517
هاجم	-10.1521
▁تعيش	-10.1523
▁بير	-10.1523
▁فلسطيني	-10.1524
▁كيم	-10.1532
▁الاجنبية	-10.1533
▁فاي	-10.1537
باب	-10.1538
▁لتقديم	-10.1538
▁يقدر	-10.1542
روح	-10.1543
▁الاسواق	-10.1543
▁تحقيقات	-10.1546
تشهد	-10.1547
▁ادلة	-10.1551
▁البارز	-10.1552
▁مدافع	-10.1555
▁التغذية	-10.1558
▁اوضحت	-10.1562
طرد	-10.1563
▁يمنع	-10.1569
▁بايدن	-10.1575
▁يجد	-10.1579
تاهل	-10.1582
حكومة	-10.1587
▁مدني	-10.159
▁التاثير	-10.159
▁ويري	-10.1592
▁محتملة	-10.1593
▁تلقت	-10.1593
▁كتاب	-10.1593
سقط	-10.1595
▁يحدد	-10.1595
درس	-10.1597
▁الاهلية	-10.1598
▁اندلع	-10.1599
▁متوسط	-10.1601
▁حتفهم	-10.1602
يتس	-10.1605
دام	-10.1606
▁الجنوب	-10.1606
▁اعتقلت	-10.1608
▁خطا	-10.161
▁اسماء	-10.1621
▁والامارات	-10.1623
▁السريع	-10.1627
▁ظاهرة	-10.1628
▁تقنية	-10.1634
يار	-10.1635
▁الترحيل	-10.1637
▁لفريق	-10.1639
▁تحاول	-10.1644
▁السينما	-10.1647
▁الدوحة	-10.1647
▁لقائه	-10.1647
▁المرء	-10.1648
▁المبني	-10.1648
▁مقال	-10.1652
▁عبارة	-10.1663
يكا	-10.1664
▁جدد	-10.1665
▁التصعيد	-10.1666
▁اجواء	-10.1666
قال	-10.1674
▁رغبته	-10.1676
▁تتضمن	-10.1676
▁رغبة	-10.1679
▁غا	-10.168
تشف	-10.1681
برت	-10.1683
▁وحصل	-10.1684
▁السفينة	-10.1687
▁وبعض	-10.169
▁عامل	-10.1691
▁المحافظ	-10.1697
غاية	-10.1706
▁التركيز	-10.1707
▁اغتيال	-10.1708
▁والصين	-10.1708
▁استقرار	-10.1709
بعث	-10.1712
▁اقصي	-10.1713
▁البا	-10.1714
l	-10.1721
عارض	-10.1724
▁المرتبط	-10.1725
▁علما	-10.1725
▁الجائزة	-10.1731
▁واي	-10.1734
▁بيلد	-10.1735
▁الثمانية	-10.1736
▁الخدمة	-10.1743
▁فرايبورغ	-10.1743
▁الاعتداءات	-10.1743
▁كميات	-10.175
▁المقررة	-10.1763
▁2007	-10.1769
▁استناد	-10.177
صدق	-10.1772
▁جدول	-10.1773
▁معدلات	-10.1774
▁باستمرار	-10.1775
▁للنظام	-10.178
▁خلايا	-10.178
▁فورا	-10.1781
▁اتباع	-10.1785
▁اشاد	-10.1785
▁لقوات	-10.1786
▁استهداف	-10.1791
▁سويسرا	-10.1791
مون	-10.1802
الت	-10.1813
راي	-10.1814
▁ينتمي	-10.1816
▁للمنتخب	-10.1817
▁ندد	-10.1818
غرب	-10.1819
▁هوية	-10.1821
▁زوجته	-10.1821
▁طبيب	-10.1826
▁موظف	-10.183
15	-10.1834
حصل	-10.1837
▁شولتس	-10.184
▁اسعار	-10.1842
▁وصفه	-10.1842
قانون	-10.1843
▁الشعور	-10.1843
▁التعاقد	-10.1848
▁الشمالي	-10.1851
الثامن	-10.1851
ودي	-10.1856
▁الجمهور	-10.1861
▁تشارك	-10.1866
▁قنبلة	-10.1868
سلم	-10.187
▁سباق	-10.1875
السادس	-10.1876
▁المعهد	-10.1876
▁شملت	-10.1878
غني	-10.1878
وسي	-10.188
▁معارك	-10.1885
▁يست	-10.1886
▁المؤسسات	-10.1887
طال	-10.1891
▁اختبار	-10.1895
▁نواب	-10.1895
دراسة	-10.1895
▁عضوا	-10.1901
بشكل	-10.1904
رمي	-10.1904
▁واسرائيل	-10.1904
▁المعرض	-10.1907
▁مقاطعة	-10.1911
▁الافريقي	-10.1913
▁القلق	-10.1919
▁يضع	-10.1921
▁رئيسا	-10.1922
▁تعاون	-10.1923
الخامس	-10.1926
▁حليف	-10.1926
▁تدمير	-10.193
▁تسلم	-10.1934
اذ	-10.1935
▁الغذائي	-10.1938
▁للولايات	-10.1938
فيل	-10.1942
▁الاندية	-10.1945
▁الشديد	-10.1947
تهديد	-10.1948
▁الصورة	-10.1951
▁ارت	-10.1952
▁مرتين	-10.1954
▁يوفنتوس	-10.1954
فين	-10.1955
▁بلادهم	-10.1956
▁يدعو	-10.1961
▁مشددة	-10.1963
▁الكهرباء	-10.1963
▁طوال	-10.1965
يدي	-10.1969
▁جودة	-10.1969
▁بتنظيم	-10.1971
تصرف	-10.1979
▁دائرة	-10.198
▁دراسات	-10.1982
▁غادر	-10.1984
طو	-10.1992
▁وجرح	-10.1994
▁مصالح	-10.1995
روب	-10.1998
اننا	-10.1999
اعتقد	-10.2001
▁وحل	-10.2002
تسبب	-10.2007
سكي	-10.2008
▁يشهد	-10.2008
لائحة	-10.201
قارب	-10.2011
▁احزاب	-10.2013
▁طلبت	-10.2013
▁نجوم	-10.2013
▁ورفض	-10.2016
▁سريع	-10.2022
▁تورط	-10.2024
▁اطباء	-10.2024
البديل	-10.2026
تبرع	-10.2027
▁يشمل	-10.2029
▁بوش	-10.203
▁وتسبب	-10.2035
▁الخصوص	-10.2035
ؤكد	-10.204
▁وثائق	-10.2043
▁نووية	-10.2054
▁الحاجة	-10.2058
رفض	-10.2064
▁ثماني	-10.2065
▁شعر	-10.2068
توصل	-10.207
واصل	-10.2074
▁اعتقد	-10.2075
▁حسابه	-10.2075
▁الحي	-10.2079
▁المخاوف	-10.2081
امل	-10.2082
▁اكتشف	-10.2083
▁انطلقت	-10.2085
ضمن	-10.2085
▁وشارك	-10.2085
▁منتجات	-10.2087
▁ارتكاب	-10.2088
▁مؤسسات	-10.2088
▁الصحافي	-10.209
دق	-10.2096
▁ابن	-10.2097
▁الابحاث	-10.2102
بيل	-10.2104
▁2011.	-10.2108
زراعة	-10.2109
▁يتسبب	-10.211
▁القنصلية	-10.2112
▁شقيق	-10.2113
▁الاقليمية	-10.2116
▁المق	-10.2117
▁تعلم	-10.2118
▁تقدر	-10.2118
▁القليلة	-10.2121
▁القضائية	-10.2121
▁جنوبي	-10.2123
ثي	-10.2131
▁استراتيجية	-10.2131
▁الصواريخ	-10.2133
▁فيليب	-10.2133
▁تتخذ	-10.2138
▁فعاليات	-10.214
▁السوداني	-10.2141
ندر	-10.2142
▁ضرب	-10.2145
تعاون	-10.2147
ايه	-10.215
▁...	-10.2151
▁تايمز	-10.2163
▁بحيث	-10.2164
▁المشي	-10.2164
▁الحيوية	-10.2166
▁تسمي	-10.2166
▁استهلاك	-10.2167
▁مناسبة	-10.2171
▁وثيقة	-10.2172
▁فيينا	-10.2175
▁ارسنال	-10.2177
▁دافع	-10.218
▁استغلال	-10.2181
▁فرنسي	-10.2182
▁ضخمة	-10.2183
▁نور	-10.2183
▁در	-10.2185
▁الوفاق	-10.2188
نظم	-10.2188
▁اميركي	-10.2192
تبادل	-10.2193
▁المدرسة	-10.2196
▁شمالي	-10.2199
▁اسيا	-10.2201
وسط	-10.2202
لاك	-10.2204
السابع	-10.2204
▁ذي	-10.2207
كانون	-10.2207
▁2014.	-10.221
▁رحيل	-10.2212
▁36	-10.2214
عش	-10.2219
جهود	-10.2224
مضي	-10.2226
توجه	-10.2226
واقع	-10.2234
▁مدنيين	-10.2235
▁يامل	-10.2237
▁الموجهة	-10.2239
▁دورية	-10.2242
اقل	-10.2242
▁صراع	-10.2243
▁لاحقا	-10.2248
▁وانها	-10.2251
▁فعلا	-10.2257
▁العائلة	-10.2258
▁امين	-10.2263
.5	-10.2266
▁الراهن	-10.2267
▁السويد	-10.2269
▁توقع	-10.2272
فرق	-10.2272
رصد	-10.2272
▁نسمة	-10.2272
▁لتشكيل	-10.2273
▁متاخر	-10.2279
▁بمرض	-10.2286
▁انفسهم	-10.229
▁يبحث	-10.2292
▁الدولتين	-10.2292
▁الموسيقي	-10.2294
▁المراقبة	-10.2295
▁المالكي	-10.2296
▁حكما	-10.2297
▁الصعب	-10.2299
▁الابطال	-10.23
▁مماثلة	-10.2302
▁الفاتيكان	-10.2315
▁عادل	-10.2319
▁السياسيين	-10.232
تاج	-10.2321
▁مليارات	-10.2323
▁مظاهرات	-10.2324
▁لمن	-10.2325
30	-10.2326
ياد	-10.2328
تير	-10.2334
لوك	-10.2334
▁رحلات	-10.2336
▁والحزب	-10.2337
▁اتفق	-10.2341
▁تؤثر	-10.2341
▁صف	-10.2347
▁المرتبة	-10.2351
▁يحتوي	-10.2352
باك	-10.2352
▁مجموع	-10.2354
▁يقضي	-10.2359
▁بروسيا	-10.2359
تور	-10.2362
▁سجلت	-10.2365
▁تكشف	-10.2369
▁المسؤولة	-10.2371
▁وسبق	-10.2371
▁2015.	-10.2373
▁عالمية	-10.2377
رفقة	-10.2379
لاعب	-10.2385
▁سبل	-10.2385
▁عمره	-10.2391
▁استقالته	-10.2395
موت	-10.2405
▁انجاز	-10.2409
حاول	-10.2418
▁التحرك	-10.2419
▁باقي	-10.2422
▁التقليدي	-10.2422
▁القطري	-10.2423
جول	-10.2424
▁حسم	-10.2425
▁جبل	-10.2432
▁النمو	-10.2436
▁بالت	-10.2437
▁وافقت	-10.2444
▁شريط	-10.2444
▁مسيرته	-10.2444
▁مسعود	-10.2445
▁ابلغ	-10.245
▁مبكر	-10.245
سلي	-10.2452
▁بطلب	-10.2456
حرق	-10.2457
▁قوانين	-10.246
تحمل	-10.2463
▁تاسيس	-10.2464
ستعمل	-10.247
سين	-10.247
مهاجر	-10.2474
▁الاستقلال	-10.2476
▁هويته	-10.2477
▁الحب	-10.2478
حكم	-10.2486
▁الصدر	-10.2488
▁التعرف	-10.2488
▁الست	-10.2492
▁فو	-10.2503
▁المبادرة	-10.2506
▁روسي	-10.2513
▁يملك	-10.2514
▁فلا	-10.2515
مشروع	-10.2517
▁وعد	-10.2518
▁وضعت	-10.2522
▁حقيقة	-10.2524
▁القوانين	-10.253
▁جماهير	-10.253
▁قيمتها	-10.253
▁شاهد	-10.2532
برغ	-10.2533
▁الحوثيون	-10.254
▁جمعية	-10.2542
▁جزاء	-10.2548
يء	-10.255
▁لاعبي	-10.2554
▁الرسالة	-10.2554
خلق	-10.2558
▁دبي	-10.2565
نيسان	-10.2567
▁بالتعاون	-10.257
▁التجارة	-10.2575
▁الغربي	-10.2576
فوز	-10.2579
▁للبلاد	-10.2583
▁السنوي	-10.2586
▁استراليا	-10.2588
▁روما	-10.2589
▁بلدان	-10.259
▁عصر	-10.2593
▁العرض	-10.2598
▁لام	-10.2598
▁السباق	-10.2601
▁مورينيو	-10.2601
▁الكا	-10.2603
▁بعضها	-10.2604
▁المتطرفة	-10.2604
▁معالجة	-10.2606
▁انشطة	-10.2607
▁الغوطة	-10.2615
تنافس	-10.2617
▁صندوق	-10.2622
الثاني	-10.2622
▁ينتظر	-10.2625
▁المنتجات	-10.2625
▁البولندي	-10.2629
▁48	-10.2632
▁عيان	-10.2634
▁اتجاه	-10.264
فحص	-10.2643
ائم	-10.2644
جهاز	-10.2645
▁تاهل	-10.2646
▁الرعاية	-10.265
▁فصائل	-10.2654
▁نشطاء	-10.2655
▁الستة	-10.2655
قام	-10.2657
تمكن	-10.2659
▁دائم	-10.266
▁المد	-10.2662
▁حياتهم	-10.2667
علوم	-10.2667
▁غوغل	-10.2669
سكان	-10.2671
▁العلمي	-10.2671
▁فرد	-10.2675
عار	-10.2676
▁التجسس	-10.2678
▁لويس	-10.2682
▁عرف	-10.2691
▁هز	-10.2698
▁لاعبين	-10.2702
تناول	-10.2705
فشل	-10.2706
▁سريعا	-10.2712
▁شبكات	-10.2712
▁الموظفين	-10.2724
نيس	-10.2724
▁يصدر	-10.2724
شخص	-10.2727
▁رؤية	-10.273
▁فيردر	-10.2735
مجرد	-10.2739
خبر	-10.2741
▁الطويل	-10.2741
▁السويسري	-10.2742
▁القي	-10.2745
خيل	-10.2746
▁والشرطة	-10.2749
▁الانفصال	-10.275
▁مهرجان	-10.275
▁الاسرائيليين	-10.2753
▁يواصل	-10.2756
فضل	-10.2756
▁داعيا	-10.276
▁يورغن	-10.2768
▁واتهم	-10.277
▁الثامنة	-10.2772
▁وحذر	-10.2777
▁المرمي	-10.2778
▁الصباح	-10.278
▁النازية	-10.2784
▁زاد	-10.2785
▁تصبح	-10.2787
▁فضيحة	-10.2787
▁تهمة	-10.2792
▁جدلا	-10.2796
▁اخ	-10.2797
طبق	-10.2797
▁والاس	-10.28
▁قادرة	-10.2801
ركب	-10.2802
▁استخدامها	-10.2802
▁المناسبة	-10.2805
▁تحذير	-10.2807
▁وار	-10.2808
▁37	-10.2812
▁كور	-10.2814
▁ايمانويل	-10.2814
▁يسبب	-10.2814
▁القياسي	-10.2814
وعي	-10.2821
▁نظيفة	-10.2822
▁اع	-10.2823
▁صيف	-10.2827
▁البكتيريا	-10.2829
▁المتخصص	-10.2831
تمثل	-10.2831
خرج	-10.2838
▁مسلحون	-10.2839
▁تست	-10.2839
▁مثيرة	-10.2841
▁اطول	-10.2841
▁مرارا	-10.2841
▁ونشر	-10.2843
▁الانسحاب	-10.2845
▁شغل	-10.2846
▁الرحلات	-10.2847
▁مهام	-10.2847
▁الموافقة	-10.2848
▁شعور	-10.2851
▁الارجح	-10.2856
▁اغلبية	-10.2857
▁يطالب	-10.2859
▁كاف	-10.2865
شرح	-10.2866
▁الخطة	-10.2867
▁ارتداء	-10.2867
▁بلجيكا	-10.2868
▁الوقود	-10.2869
▁القارة	-10.287
▁بالغ	-10.287
▁للراي	-10.2871
▁لقاح	-10.2873
▁قريب	-10.2873
▁يريدون	-10.2874
▁لدول	-10.2876
▁الناطق	-10.2877
عرب	-10.2879
حمل	-10.2883
لسيطرة	-10.2883
▁الرقة	-10.2887
▁كير	-10.289
جبهة	-10.2894
▁بارتكاب	-10.2895
▁بوضوح	-10.2895
▁الساعات	-10.2895
▁اليهود	-10.2909
▁تصعيد	-10.2912
نسي	-10.2918
▁بامراض	-10.2922
▁يتضح	-10.2931
▁التدخين	-10.2934
جند	-10.2935
▁يستمر	-10.2937
▁تجعل	-10.2943
▁مبكرة	-10.2945
▁ارقام	-10.295
▁اللواء	-10.2951
اعتداء	-10.2953
▁حيز	-10.2953
تشمل	-10.2954
▁وسيلة	-10.2955
▁اساسية	-10.2956
▁قصة	-10.2957
▁الشمال	-10.2957
▁التاهل	-10.2958
▁تور	-10.2959
▁غرفة	-10.2964
تلقي	-10.2966
حاربة	-10.2967
▁120	-10.2967
▁قريبة	-10.2969
▁كريستيان	-10.2969
باد	-10.2973
▁النفسي	-10.2974
▁المتظاهرون	-10.2977
▁الكربون	-10.2977
▁التاريخية	-10.2983
▁فوائد	-10.2984
▁الامل	-10.2985
▁نسب	-10.2986
▁قضائي	-10.2987
▁اجر	-10.2987
ضاف	-10.2988
▁حزبه	-10.299
لمعرفة	-10.2992
▁مخيم	-10.2998
▁تصدير	-10.3005
▁سرطان	-10.3012
▁التطرف	-10.3013
▁(10	-10.3014
▁الشريك	-10.3016
دخل	-10.3017
▁النمساوي	-10.3018
حديث	-10.3019
اجراءات	-10.3023
فرد	-10.3026
ستخدم	-10.303
▁انتظار	-10.3032
▁ماينز	-10.3036
▁الاجراء	-10.3039
▁بانهم	-10.3042
▁قتلت	-10.3043
▁تحسن	-10.3045
وصل	-10.3051
▁شانه	-10.3054
شوف	-10.3054
▁البناء	-10.3058
قن	-10.306
▁مئة	-10.306
عقل	-10.3061
▁الفصائل	-10.3065
▁الاعتماد	-10.3072
▁الفيفا	-10.3077
▁المخدرات	-10.3087
طرح	-10.3092
▁لعملية	-10.3092
شور	-10.3094
▁كييف	-10.3096
▁الركاب	-10.31
▁كارل	-10.3101
▁الجنس	-10.3106
▁الجزائرية	-10.3107
▁محلي	-10.311
▁التفكير	-10.3111
▁شحن	-10.3121
▁يحقق	-10.3123
▁قابل	-10.3124
▁لتنفيذ	-10.3125
▁الاتهام	-10.3128
▁وبت	-10.3129
ائب	-10.3131
▁تثير	-10.3133
▁فوري	-10.3134
▁برلمان	-10.3134
▁الانقلاب	-10.3136
▁هاتف	-10.3136
▁ثورة	-10.314
▁التحتية	-10.3142
▁الاحيان	-10.3142
ادات	-10.3143
▁هايكو	-10.3143
▁والق	-10.3148
لكن	-10.315
▁طفلا	-10.3153
▁سرية	-10.3153
▁السبع	-10.3155
▁موجودة	-10.3156
▁البو	-10.3158
ورو	-10.316
دلاء	-10.3161
▁الضغوط	-10.3161
يتين	-10.3162
▁الشيعية	-10.3163
▁حوادث	-10.3165
▁شهرا	-10.3167
ندي	-10.3167
▁بوضع	-10.3168
▁القادة	-10.3168
▁الشخصي	-10.3171
▁الذكاء	-10.3176
عادة	-10.3178
▁تبين	-10.3179
بلد	-10.3189
▁العاشر	-10.3191
▁الغذاء	-10.3195
▁الانتقالات	-10.3197
▁مذكرة	-10.3198
تعامل	-10.3203
تخلص	-10.3206
ولوجي	-10.3206
▁لهجوم	-10.3208
▁استقلال	-10.3213
▁الارهابيين	-10.3213
▁التطورات	-10.3217
▁يدخل	-10.322
تاثر	-10.3221
حالة	-10.3222
▁55	-10.3223
▁34	-10.3224
▁عاش	-10.3225
▁الغارات	-10.3234
معاهدة	-10.3234
▁امير	-10.3236
▁ونشرت	-10.3241
متابعة	-10.3242
تاح	-10.3244
▁الوحدة	-10.3248
▁الحين	-10.3252
▁توسيع	-10.3254
▁يكشف	-10.3254
▁مائة	-10.3255
▁سيرغي	-10.3256
▁الرمادي	-10.3257
▁يهدد	-10.3258
▁التجارب	-10.3259
▁المحطة	-10.3262
قيد	-10.3263
جميع	-10.3266
▁مشتبه	-10.3266
▁مرضي	-10.3269
▁لفرانس	-10.3271
▁مستعد	-10.3271
حام	-10.3274
▁رؤساء	-10.3278
▁انهما	-10.3279
▁حمد	-10.328
▁بوتفليقة	-10.3282
الاربعاء	-10.3284
▁عمان	-10.3287
▁اير	-10.3287
▁مصري	-10.3291
▁الجنرال	-10.3291
▁الاطار	-10.3292
▁الجهات	-10.3293
▁طعن	-10.3296
▁صنع	-10.3296
▁القريبة	-10.3297
قرب	-10.3298
▁يومي	-10.33
اكي	-10.3301
▁واس	-10.3302
▁الاستراتيجية	-10.3303
▁اراضيها	-10.3303
شرف	-10.3304
▁ممثل	-10.3304
اعلان	-10.3305
▁نقاش	-10.3305
▁طبيعي	-10.3306
▁الرقمي	-10.3308
سوق	-10.3311
▁للفوز	-10.3312
فعال	-10.3313
▁العضو	-10.3314
▁ذوي	-10.3316
توقف	-10.3317
نجاح	-10.3321
▁سر	-10.3323
▁ضروري	-10.3341
▁انتقدت	-10.3341
ذو	-10.3342
▁بامكان	-10.3343
قاطع	-10.3343
▁التحديات	-10.3346
▁الدعوة	-10.3347
▁لجماعة	-10.3347
تظاهر	-10.3348
▁السكري	-10.3352
▁الحقيقة	-10.3354
▁خالد	-10.3356
▁الوحيدة	-10.3358
▁شامل	-10.3358
▁(31	-10.3363
▁الفعل	-10.3363
▁اجرته	-10.3365
عيش	-10.3365
▁مراسم	-10.3369
▁فرع	-10.3371
▁نشرتها	-10.3374
▁القيادي	-10.3374
▁رسائل	-10.3376
▁دبلوماسية	-10.3379
طالب	-10.3379
▁مسؤولة	-10.3379
▁ولايته	-10.3379
▁حضر	-10.3381
▁قتيل	-10.3382
شبه	-10.3385
▁شباب	-10.3386
حدود	-10.3393
▁للاصابة	-10.3395
تاكد	-10.3396
▁متعددة	-10.3396
▁القرارات	-10.3396
▁75	-10.3402
▁الكترونية	-10.3403
▁غي	-10.3411
صديق	-10.3416
▁التفجير	-10.3416
▁الاهتمام	-10.3418
▁مؤسس	-10.342
روج	-10.3423
▁خسارة	-10.3424
▁فيسترفيله	-10.3424
رون	-10.343
رين	-10.3434
▁نفذت	-10.3434
▁اتخذ	-10.3434
▁للاطفال	-10.3435
▁اصيبوا	-10.344
درك	-10.3442
▁الشهيرة	-10.3445
برو	-10.3446
ريا	-10.3451
▁موجود	-10.3452
▁الانضمام	-10.3453
▁العبادي	-10.3453
▁بيقلل	-10.3453
تصاعد	-10.3457
منع	-10.3458
▁شباك	-10.3459
▁نهر	-10.3459
▁شعب	-10.346
▁الفرصة	-10.346
الثالث	-10.346
حتي	-10.3467
▁الخلافات	-10.3468
▁اضرار	-10.3469
يلا	-10.347
مبا	-10.3472
▁اصلاح	-10.3477
قرر	-10.3478
▁النجاح	-10.3479
رمان	-10.3486
حدث	-10.3492
تغطية	-10.3492
▁اللقاح	-10.3496
منح	-10.3497
▁دخلت	-10.3498
تحرك	-10.3499
مستقبل	-10.35
▁فعال	-10.3502
▁زميله	-10.3503
▁بقي	-10.3503
ايار	-10.3507
▁تشيلسي	-10.3511
▁الجلسة	-10.3511
▁تفيد	-10.3511
جعل	-10.3513
▁عنصر	-10.3516
▁للدموع	-10.3518
زان	-10.3528
تخلي	-10.3529
▁مج	-10.3532
لمراقبة	-10.3535
▁الصفقة	-10.3535
▁اتخذت	-10.3541
▁دين	-10.3542
نعم	-10.3542
ضعف	-10.3547
▁الاغاثة	-10.3548
▁تصويت	-10.3548
▁ويعتقد	-10.3548
▁والمعارضة	-10.3551
-19	-10.3558
▁بقرار	-10.3559
▁ويتم	-10.3565
▁الجدد	-10.3566
▁الاحتفال	-10.3566
▁البشير	-10.3569
▁يعقد	-10.3569
تعلم	-10.357
▁الدبلوماسي	-10.3572
▁33	-10.3578
▁الاتجاه	-10.3579
انها	-10.358
نفس	-10.3582
▁البلجيكي	-10.3585
▁الاذاعة	-10.3586
▁متهم	-10.3589
راه	-10.3594
▁والسعودية	-10.3596
▁برو	-10.3605
لقاء	-10.3605
▁ضغوط	-10.3608
نطق	-10.3608
▁تاجيل	-10.3612
▁لاحد	-10.3612
▁التنمية	-10.3613
▁اكس	-10.3614
عالم	-10.3619
▁وق	-10.3622
▁بحضور	-10.3627
▁الدهون	-10.3627
▁صحيح	-10.3629
▁تحرك	-10.3633
▁واثار	-10.3636
▁التوجه	-10.3639
▁بعثة	-10.3644
▁العدوي	-10.3648
▁المستخدم	-10.3649
▁هما	-10.3652
▁وحول	-10.3656
▁بنغازي	-10.3656
▁الضربات	-10.3656
▁تواجد	-10.3657
▁وتمكن	-10.3657
▁التهديد	-10.3659
▁بثلاثة	-10.3662
التاسع	-10.3665
▁تلعب	-10.3669
▁بفوز	-10.3673
▁ابناء	-10.3674
▁المصاب	-10.3676
▁حافلة	-10.3677
▁ولذلك	-10.3679
تغير	-10.3683
▁الانتشار	-10.3684
▁صفحة	-10.3685
▁حمص	-10.3686
▁المعزول	-10.3686
▁الحارس	-10.3687
▁الاولمبية	-10.3687
▁الفتيات	-10.3688
▁مب	-10.369
▁شعار	-10.3691
▁تغلب	-10.3694
▁الممثل	-10.3695
▁يقف	-10.3698
ميت	-10.3698
شروط	-10.3698
▁المثير	-10.3702
▁المتشددين	-10.3703
▁الانبار	-10.3704
▁المدنية	-10.3704
▁السؤال	-10.3705
تبني	-10.3706
جنوب	-10.371
▁صديق	-10.3711
▁التاكد	-10.3712
▁مستخدم	-10.3713
▁تفتيش	-10.3715
يها	-10.3716
كتلة	-10.3716
▁المرشحين	-10.372
▁بقتل	-10.3721
فكر	-10.3723
▁2016.	-10.3723
▁متابعة	-10.3723
▁مقعدا	-10.3724
▁وردا	-10.3725
قضي	-10.3726
▁يقع	-10.3727
▁مدنيا	-10.3727
▁نزاع	-10.3728
▁تعتمد	-10.3732
▁تدهور	-10.3735
▁صد	-10.3738
▁سعد	-10.3746
ابل	-10.3747
شرق	-10.3748
تراس	-10.375
▁للدفاع	-10.3755
▁المظاهرات	-10.3756
▁موظفي	-10.376
تمرد	-10.3761
▁ملك	-10.3762
▁عامة	-10.3762
▁مدرسة	-10.3762
تون	-10.3767
▁انخفاض	-10.3767
▁رمز	-10.3769
▁الترتيب	-10.3774
▁خطرا	-10.3778
▁مازال	-10.3781
▁وصوله	-10.3781
▁الرقابة	-10.3783
▁العناصر	-10.3783
عن	-10.3783
جال	-10.3783
200	-10.3785
▁وصفت	-10.3789
▁اقدم	-10.3793
▁الفكرة	-10.3796
دولة	-10.3797
▁65	-10.3799
▁زالت	-10.3799
▁مستقبلا	-10.38
هول	-10.38
▁المشاريع	-10.3801
▁اسلوب	-10.3803
▁الناحية	-10.3803
▁جمهورية	-10.3804
▁تتحدث	-10.3807
▁الشبكة	-10.3807
شل	-10.3807
حادث	-10.381
▁اودي	-10.3813
▁للاعب	-10.3814
فض	-10.3817
▁المسيحيين	-10.3823
▁الازمات	-10.3823
زور	-10.3827
▁شب	-10.3828
كثير	-10.383
w	-10.3833
▁وايضا	-10.3834
عنف	-10.3836
▁انهيار	-10.3837
▁مواقف	-10.384
▁تقدير	-10.3843
▁ايقاف	-10.3852
▁تحدد	-10.3853
▁دوسلدورف	-10.3863
▁نفط	-10.3864
▁الشيعة	-10.3864
▁السابعة	-10.3868
▁اقرار	-10.3871
▁الخوف	-10.3872
بيك	-10.3877
▁الكهربائية	-10.388
▁ماريو	-10.3881
تولي	-10.3884
▁ابل	-10.3889
▁الارقام	-10.3892
▁لتعزيز	-10.3894
▁يعرض	-10.3894
▁مستقلة	-10.3895
▁امله	-10.3902
ديلي	-10.3905
نوع	-10.3907
▁تف	-10.391
▁سلامة	-10.3911
جنس	-10.3911
▁مصلحة	-10.3923
▁نفوذ	-10.3923
▁المخلفات	-10.3923
▁جميل	-10.3926
▁المبعوث	-10.3932
▁متحف	-10.3933
▁مسؤولي	-10.3935
كاي	-10.3936
كسر	-10.3938
صواريخ	-10.3939
▁تصميم	-10.3939
▁شهدتها	-10.3943
▁شك	-10.3948
▁قيود	-10.3949
▁روس	-10.3951
معلومات	-10.3953
10	-10.3954
▁مناسب	-10.3955
▁يخص	-10.3955
حرية	-10.3958
▁الحلف	-10.396
▁هيوم	-10.3969
▁ملابس	-10.3971
ترجم	-10.3972
▁قادم	-10.3973
▁جوي	-10.3979
▁ترفض	-10.3981
▁وفاز	-10.3984
حماس	-10.3988
قلب	-10.3992
حرك	-10.3994
▁الاونة	-10.3994
▁وام	-10.4
▁اعطاء	-10.4003
ستند	-10.4003
▁الكثيرون	-10.4013
▁ظريف	-10.4014
▁لتحديد	-10.4014
▁اللحظة	-10.4014
▁لروسيا	-10.4015
▁الوفد	-10.4018
▁تامين	-10.402
بعض	-10.4022
▁المستخدمين	-10.4024
▁المواطن	-10.4028
▁تعامل	-10.403
يشمل	-10.4033
▁38	-10.4036
▁عرب	-10.4042
تجنب	-10.4044
▁زيغمار	-10.4044
▁المحتلة	-10.4045
▁الكتاب	-10.4047
مطار	-10.4055
ستهدف	-10.4061
▁حقيقية	-10.407
▁التهم	-10.4072
▁افلام	-10.4073
شكل	-10.4073
رحل	-10.4075
▁اراد	-10.4078
▁تسع	-10.408
▁البشرية	-10.4081
طائر	-10.4082
▁حب	-10.4082
▁نهائيات	-10.4084
ميز	-10.4086
▁للمعارضة	-10.4086
وطن	-10.4088
▁الزواج	-10.4088
▁للامن	-10.4088
▁والدول	-10.4093
▁الحرس	-10.4096
▁تام	-10.41
▁القطرية	-10.41
بالنسبة	-10.4103
▁الكرملين	-10.4105
▁سكسونيا	-10.4105
▁الحقوق	-10.4108
▁حث	-10.4111
يور	-10.4115
▁كوكب	-10.4116
طلع	-10.4117
جذب	-10.4117
خطر	-10.4119
كوم	-10.412
▁الناشط	-10.412
▁ناسفة	-10.412
تار	-10.4121
▁ويضيف	-10.4122
▁الكتروني	-10.4129
▁اليوناني	-10.4135
k	-10.4136
▁صعد	-10.4136
▁تداعيات	-10.4136
▁التطور	-10.4139
▁ادلي	-10.4141
وضع	-10.4143
▁متزايد	-10.4144
ملك	-10.4144
▁رام	-10.4145
اشي	-10.4147
غادر	-10.415
▁حقوقية	-10.4152
▁بنظام	-10.4156
▁تسببت	-10.4158
▁لبعض	-10.4159
ريال	-10.416
▁السياح	-10.4163
▁كاليفورنيا	-10.4167
▁تحديات	-10.4168
▁الادارية	-10.4168
ربط	-10.417
قوا	-10.417
▁البالغة	-10.4173
▁يتطلب	-10.418
25	-10.4182
,	-10.4182
▁تصرف	-10.4182
ضة	-10.4184
▁قدرات	-10.4186
الاثنين	-10.4188
▁المرجح	-10.4188
اقة	-10.4189
فاق	-10.419
▁فعلي	-10.4194
لجا	-10.4195
▁لعلاج	-10.4197
▁ذهاب	-10.4197
▁يق	-10.4198
▁الوفيات	-10.4198
▁التخلي	-10.4199
▁وبلغ	-10.42
▁جميعا	-10.42
n	-10.4201
▁المختصة	-10.4204
▁ينظر	-10.4207
▁طيران	-10.4208
▁جمعت	-10.421
▁الوسطي	-10.4219
▁فندق	-10.422
▁الحدودية	-10.4223
وحدة	-10.4224
فعل	-10.4224
▁عمله	-10.4227
▁مباحثات	-10.4228
▁للقيام	-10.4228
عزل	-10.4229
▁اوغسبورغ	-10.4229
▁فرضت	-10.4231
▁تعبير	-10.4231
▁النطاق	-10.4231
▁الساحل	-10.4231
▁اقتراح	-10.4232
▁600	-10.4234
وتشير	-10.4235
▁رامي	-10.4236
ريش	-10.4236
▁طبيعة	-10.4238
شرك	-10.4242
▁والامن	-10.4242
▁محطات	-10.4244
▁تقليل	-10.4244
▁عمال	-10.4248
▁الخليجي	-10.4253
عرف	-10.4255
▁صدرت	-10.4257
▁وهل	-10.4258
▁سنودن	-10.426
▁ايجابية	-10.4261
▁الضروري	-10.4262
▁التعليق	-10.4263
▁معهم	-10.4267
▁وعاد	-10.4269
16	-10.4273
▁مشاورات	-10.4274
روع	-10.4276
وال	-10.4277
▁سوريين	-10.4278
▁اري	-10.428
▁المسيل	-10.4284
▁الاكل	-10.4286
▁عراقية	-10.4288
تحالف	-10.429
▁التشغيل	-10.4291
▁للح	-10.4292
▁ميناء	-10.4292
مارك	-10.4293
علامة	-10.4295
حمية	-10.4301
▁متهما	-10.4306
▁مواطني	-10.4306
▁الاسر	-10.4306
▁عربي	-10.4307
اصر	-10.4308
▁الشام	-10.4311
▁عودته	-10.4313
دول	-10.4315
▁الظاهرة	-10.4318
قوة	-10.432
y	-10.4322
▁للمسلمين	-10.4322
مغادرة	-10.4324
سجل	-10.4325
▁بزيارة	-10.4328
▁الاحياء	-10.4329
▁العاب	-10.4331
▁كريم	-10.4332
▁المؤسسة	-10.4332
تجاوز	-10.4333
▁الاخبار	-10.4337
ختار	-10.4337
رحب	-10.4338
رود	-10.4344
▁الكثيرين	-10.4349
افضل	-10.435
▁منزله	-10.4354
▁جنيه	-10.4355
▁تدفع	-10.436
سلح	-10.4361
▁مايكل	-10.4362
▁الالي	-10.4363
▁الفتاة	-10.4369
شتاين	-10.437
▁للوصول	-10.4373
▁يتجاوز	-10.4374
ريف	-10.4377
بيرغ	-10.4377
▁بعمل	-10.4378
▁ناشط	-10.438
▁الجبهة	-10.4385
▁سرعة	-10.4388
▁كندا	-10.4393
▁القيود	-10.44
▁احسن	-10.44
▁شهور	-10.4401
▁صحي	-10.4407
▁ربط	-10.441
▁طارق	-10.4416
▁ابدي	-10.4423
▁ير	-10.4425
مثال	-10.4426
▁الكر	-10.4428
▁يتضمن	-10.443
صدر	-10.443
▁اجتماعا	-10.4431
▁الاب	-10.4431
▁علمية	-10.4435
▁نوعها	-10.4442
▁برا	-10.4443
جيل	-10.4443
صحة	-10.4447
▁يتخذ	-10.4448
▁متفرقة	-10.4448
▁المئات	-10.4451
▁بلدية	-10.4451
▁عواقب	-10.4452
▁هزيمة	-10.4455
▁يمكننا	-10.4456
رفع	-10.4457
▁اضطرابات	-10.4459
▁تسوية	-10.4459
▁خيار	-10.4459
▁تفوق	-10.4461
▁توقعات	-10.4465
خيم	-10.4468
▁تزامن	-10.4468
جون	-10.4468
▁المسالة	-10.447
▁نفذ	-10.4472
▁خسائر	-10.4476
v	-10.4477
▁وطالبت	-10.4478
فوكوس	-10.4487
▁الافراد	-10.4487
▁والف	-10.4488
▁مساحة	-10.4488
صلاة	-10.4495
▁تتجاوز	-10.4503
مسودة	-10.4503
▁اتلتيكو	-10.4511
▁رفيع	-10.4512
تطلع	-10.4513
شبورت	-10.4513
h	-10.4521
▁القمر	-10.4522
▁فار	-10.4526
ارد	-10.4528
زول	-10.4529
▁تكاليف	-10.4537
▁الكاتب	-10.454
▁مهاجرين	-10.4542
▁للصحافيين	-10.4543
▁يكفي	-10.4544
▁الشرقي	-10.4545
▁مسلم	-10.4546
▁الرحلة	-10.4547
▁جر	-10.455
كوك	-10.4552
▁تستطيع	-10.4558
▁تهديدات	-10.4562
▁حاد	-10.4567
▁الفصل	-10.4568
▁قدما	-10.4569
▁يرفض	-10.4573
▁اوضاع	-10.4576
▁2022	-10.4577
▁الزور	-10.4579
▁البيضاء	-10.458
▁ينص	-10.4585
▁اضافي	-10.4586
▁اسئلة	-10.4587
▁النص	-10.4589
▁مقاعد	-10.4589
▁طبيعية	-10.4592
▁مستعدة	-10.4594
▁يدعم	-10.4594
▁الزوج	-10.4597
▁التخطيط	-10.4601
▁للخطر	-10.4604
▁مشاريع	-10.4604
▁الجرحي	-10.4609
▁انضمام	-10.4612
احة	-10.4623
شبيغل	-10.4625
▁فرنسيس	-10.4626
له	-10.4628
▁يوضح	-10.4628
▁المتشدد	-10.4635
▁تقف	-10.4639
▁كاتالونيا	-10.464
▁اينتراخت	-10.464
▁تضمن	-10.4641
▁الصيفية	-10.4645
▁بيساعد	-10.4647
▁اشت	-10.4654
▁توافق	-10.4654
▁بالعمل	-10.4658
▁غني	-10.4664
▁نزل	-10.4665
يمكن	-10.4668
▁الصعبة	-10.4669
▁اونلاين	-10.4672
جاز	-10.4673
▁واخر	-10.4674
▁كابول	-10.4675
▁الزراعة	-10.4678
▁ميشائيل	-10.4681
▁مبيعات	-10.4682
ركلة	-10.4691
▁اقتصاد	-10.4691
▁مجالات	-10.4695
سود	-10.4697
▁الربيع	-10.4701
▁استقالة	-10.4703
▁طبقا	-10.4704
انتقال	-10.4705
قضية	-10.4706
▁السجون	-10.4706
▁السائق	-10.4707
عترض	-10.471
▁علاو	-10.471
▁بحرية	-10.4715
▁مقرا	-10.4722
▁العملاقة	-10.4723
خوض	-10.4726
تعدد	-10.4726
▁العقد	-10.4727
صنف	-10.473
▁الاصلي	-10.4737
الولايات	-10.4737
▁الشر	-10.4737
▁المعترف	-10.4742
▁صناع	-10.4744
▁الاقامة	-10.4744
▁حيدر	-10.4744
▁غرق	-10.4744
وضح	-10.4745
غاز	-10.4746
▁المستشفيات	-10.4749
تنوع	-10.4751
▁نريد	-10.4753
▁حاكم	-10.4756
▁الهدنة	-10.4757
▁الصف	-10.4758
فال	-10.476
تردد	-10.4764
▁السل	-10.4764
▁مرتبطة	-10.4766
▁للعب	-10.4767
▁بذل	-10.4768
▁مستقل	-10.4768
▁مشددا	-10.477
▁حادة	-10.4774
▁هاجم	-10.4778
▁القواعد	-10.478
▁اعتراف	-10.4789
توزيع	-10.4791
▁الجماهير	-10.4791
▁وشهدت	-10.4792
▁فساد	-10.4792
▁العراقيين	-10.4793
▁الانتحاري	-10.4795
▁بسيطة	-10.4798
▁قضي	-10.48
▁بومبيو	-10.4803
▁سم	-10.4805
▁المدعومة	-10.4808
تاثير	-10.4809
انصار	-10.4809
▁التيار	-10.4815
▁وعبر	-10.4819
▁ماذا	-10.482
▁نصر	-10.4821
تعاطف	-10.4826
▁للتحقيق	-10.4826
الافراج	-10.483
▁وثلاث	-10.4831
▁اوراق	-10.4834
يث	-10.4834
▁مراحل	-10.4836
▁للسعودية	-10.4836
▁الفوضي	-10.4836
▁الكحول	-10.4836
اخت	-10.4839
▁الحريق	-10.484
▁تطبيقات	-10.484
▁يعملون	-10.484
▁غارة	-10.4841
▁تظاهرات	-10.4846
▁حسني	-10.4846
فون	-10.4854
توافق	-10.4854
▁الدائرة	-10.4856
وصف	-10.4859
▁ووقع	-10.4859
▁عبور	-10.486
▁زوجها	-10.486
▁القادمين	-10.4864
▁تحصل	-10.4866
سيم	-10.4867
▁الاربع	-10.4867
▁ركاب	-10.4867
▁القهوة	-10.4869
احتفاظ	-10.4869
▁المعارضين	-10.4869
▁قصير	-10.4869
جمل	-10.487
▁للحد	-10.4874
▁ومقره	-10.4877
▁اوقفت	-10.4878
▁2005	-10.488
▁عنوان	-10.4881
ثنائي	-10.4883
▁المهرجان	-10.4884
▁المطالب	-10.4885
استغلال	-10.4885
قات	-10.4889
▁زوج	-10.4891
▁واخري	-10.4892
▁العنصرية	-10.4894
▁والعمل	-10.4895
▁يرون	-10.4896
▁شهرين	-10.4896
▁الكامل	-10.4897
▁الثوري	-10.4903
▁للقانون	-10.4905
▁ثلاثين	-10.4905
▁جسد	-10.4908
▁اراضي	-10.4908
▁ادانت	-10.4909
▁الانساني	-10.491
▁وراي	-10.4912
▁هدد	-10.4916
غرض	-10.492
▁2000	-10.4922
ريو	-10.4923
▁قولها	-10.4928
▁التصدي	-10.4928
▁سلوك	-10.4929
▁مازالت	-10.4929
لال	-10.4931
▁جوزي	-10.4933
▁طاقم	-10.4936
▁دعما	-10.4939
عمر	-10.4939
تمتع	-10.4939
▁مايك	-10.4941
شيد	-10.4944
▁جين	-10.495
قوات	-10.4951
▁والام	-10.4954
▁حملته	-10.4955
▁جيش	-10.4958
مرض	-10.4958
▁النسبة	-10.4959
▁مثير	-10.4959
▁بدورها	-10.4961
سوي	-10.4963
▁تتعرض	-10.4963
▁واضحا	-10.4963
▁لايران	-10.4967
▁المناعة	-10.497
زار	-10.4972
▁واصل	-10.4973
وتر	-10.4974
▁سقط	-10.4976
تناسب	-10.4977
▁مار	-10.498
▁المواجهات	-10.4982
▁الخليجية	-10.4984
▁سياسيا	-10.4985
ارتفاع	-10.4986
الس	-10.4988
▁لاستقبال	-10.4988
▁ميلان	-10.499
▁الخطوات	-10.4991
▁السويسرية	-10.4992
▁الاتفاقية	-10.4995
▁النصف	-10.4995
▁نفسي	-10.4997
▁دعوي	-10.5002
▁للدول	-10.5004
▁قيادي	-10.5005
▁مفتوحة	-10.5005
▁مسؤوليتها	-10.5007
▁توج	-10.5009
▁عمد	-10.5013
▁سلطة	-10.5013
▁دم	-10.5016
وقوف	-10.5017
▁2015،	-10.5017
زوج	-10.5017
▁مقاتلين	-10.5019
قض	-10.502
▁الصحفية	-10.5023
▁ومسؤول	-10.5024
▁السير	-10.5027
▁المقام	-10.5027
▁الصحيح	-10.5028
نحو	-10.503
التخلص	-10.5033
▁احراز	-10.5035
▁تهدد	-10.5035
▁جثة	-10.5035
▁جونسون	-10.5038
شتر	-10.5051
▁اقتحام	-10.5052
12	-10.5053
▁للمساعدة	-10.5055
▁يزور	-10.5059
▁لمصر	-10.5061
سوء	-10.5064
▁صورا	-10.5065
تنحي	-10.5069
▁للمهاجرين	-10.5069
▁معتبرة	-10.5069
▁لنظام	-10.507
▁عزمه	-10.5071
▁تالق	-10.5075
مصالح	-10.5075
خطف	-10.5077
▁وتعرض	-10.5078
▁موت	-10.508
اساءة	-10.5089
سلاح	-10.5089
تراجع	-10.5093
▁تهديدا	-10.5095
نهج	-10.5097
▁انتقاد	-10.51
▁استطاع	-10.5102
▁سلم	-10.5103
▁تكرار	-10.5103
▁مانويل	-10.5103
سرقة	-10.5103
شهر	-10.5104
صعد	-10.5105
▁منظم	-10.5106
الية	-10.5111
▁باللغة	-10.5112
▁الجد	-10.5112
▁ينجح	-10.5113
اداة	-10.5113
حجم	-10.5114
تفاوض	-10.5124
طابق	-10.5126
▁اسرة	-10.5126
مستوي	-10.5127
سقوط	-10.5128
لاشتباه	-10.5136
▁اعتراض	-10.5137
▁يدعي	-10.5137
ضاحية	-10.5145
▁سلمي	-10.5145
▁مناقشة	-10.5145
▁المطلوب	-10.515
▁الاستفادة	-10.5154
اعضاء	-10.5156
▁الكورية	-10.5156
▁ثلث	-10.516
▁وحده	-10.5161
تجار	-10.5161
لوس	-10.5167
▁البنية	-10.517
▁بسهولة	-10.5171
▁مسيحي	-10.5171
▁المشهد	-10.5171
▁تجارب	-10.5171
للتوصل	-10.5174
▁ثقة	-10.5174
▁انتصار	-10.5175
سيطر	-10.5175
▁الغي	-10.5176
▁رعاية	-10.518
تاريخ	-10.5183
ثبت	-10.5185
ثير	-10.5186
جور	-10.5187
▁رفعت	-10.5187
▁لنقل	-10.5193
▁بنك	-10.5195
بطل	-10.5202
▁بون	-10.5203
▁دان	-10.5205
▁للاسلام	-10.5205
▁بجانب	-10.5206
▁الحادي	-10.5208
▁برنامجها	-10.5208
خيبة	-10.5208
جماعات	-10.5213
الق	-10.5216
اثر	-10.5216
ترحيل	-10.5218
▁الاعداد	-10.5219
▁الاسري	-10.522
▁مدنية	-10.5223
▁الفريقين	-10.5224
▁بطاقة	-10.5225
▁احتفال	-10.5228
▁للازمة	-10.5228
▁بقاء	-10.524
لتحسين	-10.524
▁مؤشرات	-10.5241
▁التجاري	-10.5243
▁نفسية	-10.5244
قابل	-10.5249
بصر	-10.525
▁المقترح	-10.5251
▁جدير	-10.5254
حسم	-10.5255
تورط	-10.5256
▁الليبرالي	-10.5259
▁2003	-10.5259
▁شر	-10.5261
التهاب	-10.5263
▁فوزا	-10.5272
▁النازي	-10.5273
▁معركة	-10.5274
▁تعني	-10.5275
اكبر	-10.5278
▁250	-10.5278
▁لانقاذ	-10.5278
▁بدور	-10.5278
مشاكل	-10.5281
عربية	-10.5284
60	-10.5284
عمق	-10.5286
▁غرام	-10.5293
▁مرتبط	-10.5295
▁مرت	-10.5296
وبي	-10.5299
تعهد	-10.5299
▁ووصفت	-10.53
كتب	-10.5301
▁لاستخدام	-10.5302
ادية	-10.5306
▁السفلي	-10.5308
▁طاقة	-10.5311
عقب	-10.5312
▁اعتبار	-10.5312
وفقا	-10.5315
▁السياحة	-10.5316
▁ويتوقع	-10.5316
▁ذكره	-10.5317
شمال	-10.5318
▁ويجب	-10.5318
جريمة	-10.532
طعن	-10.5321
▁تنتهي	-10.5329
تحقق	-10.533
▁بفوزه	-10.5334
▁خلافات	-10.5339
▁صعب	-10.5341
▁مبعوث	-10.5343
▁تاريخه	-10.5346
▁والده	-10.5355
باس	-10.5356
▁كلمات	-10.5356
▁اتصالات	-10.5357
▁وجهة	-10.5358
er	-10.5358
▁التهاب	-10.5358
▁حفظ	-10.5359
▁طويلا	-10.5359
▁سين	-10.5361
ثني	-10.5361
▁وكتبت	-10.5362
شاب	-10.5367
▁دفعت	-10.5369
بذل	-10.5369
▁ماسن	-10.5371
▁التاسعة	-10.5372
▁تصنيف	-10.5375
▁دوافع	-10.5377
ربع	-10.5377
▁الديموقراطي	-10.5382
▁حقيقي	-10.5382
▁منفذ	-10.5384
▁معروفة	-10.5385
توقع	-10.5386
▁الكراهية	-10.5388
داخل	-10.5388
▁الحشد	-10.5389
▁استاذ	-10.539
▁المستمرة	-10.5391
▁المحيطة	-10.5392
▁ودعم	-10.5395
▁الساحة	-10.5402
▁اضطر	-10.5403
نتيجة	-10.5403
▁بالاتحاد	-10.5405
▁جنسية	-10.5407
▁متطرفة	-10.5408
▁كن	-10.5409
▁التحول	-10.5409
يط	-10.541
▁جلسات	-10.5413
▁مولود	-10.5413
موقف	-10.5414
▁والقوات	-10.5415
▁سيارته	-10.5417
▁المبكر	-10.5417
▁42	-10.5418
▁الوفاة	-10.5419
▁الكروي	-10.5421
خروج	-10.5423
▁مشاعر	-10.5424
▁امال	-10.5427
▁جنديا	-10.5428
علاقات	-10.5429
▁سيما	-10.5438
تعليق	-10.5439
▁نموذج	-10.5441
▁43	-10.5442
ضبط	-10.5443
▁كيماوية	-10.5443
ربة	-10.5444
▁الظهر	-10.5445
▁خلق	-10.5446
▁ارجاء	-10.5447
▁الاعتقال	-10.5448
▁فيلت	-10.545
▁الحقيقي	-10.5453
▁ترد	-10.5453
▁نظم	-10.5456
40	-10.5456
▁البريد	-10.5457
▁وبهذا	-10.5458
▁شانها	-10.5464
▁ملفات	-10.5464
تحكم	-10.5464
▁بالارهاب	-10.5466
▁بيب	-10.5471
▁الجهاديين	-10.5471
لمجلة	-10.5472
▁البن	-10.5473
فيفا	-10.5475
▁وحدها	-10.5476
▁نجحت	-10.5478
▁تراجعت	-10.5478
حزب	-10.5478
▁تتمكن	-10.5478
سمع	-10.548
▁الاصلاح	-10.5485
▁السريعة	-10.5488
كسب	-10.5489
▁المنصب	-10.549
شعب	-10.549
▁صباحا	-10.549
▁الاشياء	-10.5497
▁التنفيذية	-10.5499
▁الصحافيين	-10.5502
▁الفقر	-10.5502
▁اسواق	-10.5505
▁ومنع	-10.5512
▁انتهاكات	-10.5513
زام	-10.5513
▁جماعية	-10.5514
▁كنا	-10.5515
غور	-10.5517
▁ميزير	-10.5517
▁كاميرون	-10.5518
▁مقدم	-10.5518
▁مؤقتا	-10.5521
▁تشديد	-10.5523
جاد	-10.5526
▁حينها	-10.5531
عتبر	-10.5532
▁تمر	-10.5533
▁التهديدات	-10.5535
▁سليم	-10.5538
▁وايطاليا	-10.554
▁الروس	-10.5541
كسيد	-10.5541
كوب	-10.5544
▁اختراق	-10.5546
▁الناجم	-10.5553
▁طبي	-10.5555
وفا	-10.5555
▁استعداده	-10.5556
▁كنيسة	-10.5558
▁شخصيات	-10.5558
70	-10.5562
▁اندية	-10.5563
تابع	-10.5564
▁تردد	-10.5564
▁البدء	-10.5565
▁النسخة	-10.5568
▁القائد	-10.5571
خفر	-10.5573
▁اوقات	-10.5574
▁ايرانية	-10.5576
▁الذهبي	-10.5576
▁متظاهرين	-10.5577
وزع	-10.5579
▁الاضطرابات	-10.5582
▁التجمع	-10.5582
▁الانتقالية	-10.5583
▁تدعو	-10.5587
لتقي	-10.5589
▁مؤشر	-10.5593
عبد	-10.5594
▁ادين	-10.5594
اهر	-10.5595
-2	-10.5595
▁هانز	-10.5597
▁واجه	-10.56
▁مقاومة	-10.5601
قائد	-10.5602
▁وهما	-10.5602
شكر	-10.5604
▁غذائية	-10.5608
▁..	-10.561
▁الاستيطان	-10.5611
ثا	-10.5611
▁النمساوية	-10.5611
▁حربية	-10.5615
▁بتوقيت	-10.5616
تجمع	-10.5619
قاعدة	-10.5623
▁بولندا	-10.5625
▁الغنية	-10.5625
▁سفن	-10.5626
▁عارض	-10.5627
▁والتعاون	-10.5629
▁محدودة	-10.5629
كرر	-10.563
▁رجلا	-10.5632
▁بنفسه	-10.5634
▁الاغذية	-10.5634
▁الصوت	-10.5637
▁المحتوي	-10.5638
▁يلقي	-10.5642
▁مبرر	-10.5643
نادي	-10.5643
موند	-10.5647
راز	-10.5649
▁اللون	-10.5652
صعوبة	-10.5656
▁سال	-10.566
صلاح	-10.5662
▁سيدة	-10.5665
▁هاي	-10.5673
▁شرعية	-10.5673
▁النشاط	-10.5674
مؤسسة	-10.5679
▁حسابات	-10.5679
▁واردف	-10.568
▁يرد	-10.5681
▁الاستثمار	-10.5681
▁نوري	-10.5686
▁للتحالف	-10.569
▁الفلوجة	-10.5695
▁التغيير	-10.5697
▁عالميا	-10.5699
▁الاطعمة	-10.57
▁الناتو	-10.5707
▁الحقوقية	-10.571
▁حرق	-10.5716
▁تشا	-10.5717
▁وكمان	-10.5718
▁غاب	-10.5719
لشركة	-10.5726
▁الملايين	-10.5728
▁السويدي	-10.5729
كانت	-10.5731
▁التمييز	-10.5731
سكو	-10.5731
▁قط	-10.5731
قع	-10.5733
▁الترشح	-10.5734
حرص	-10.5742
35	-10.5744
وكالة	-10.5747
▁معظمهم	-10.5747
▁جار	-10.575
▁سجله	-10.5751
▁تعبيره	-10.5753
▁ولفت	-10.5753
▁المستشارية	-10.5754
▁الرامي	-10.5762
▁ابواب	-10.5762
▁المفروضة	-10.5764
طلاق	-10.5766
▁اجانب	-10.5768
▁2004	-10.577
▁الاحتجاج	-10.577
▁ليصبح	-10.5771
▁سيلفا	-10.5773
▁الانفاق	-10.5776
▁المحمول	-10.5778
▁الموارد	-10.5781
▁اخبار	-10.5783
تخفيف	-10.5785
▁لكنهم	-10.5787
▁شرب	-10.5789
اطة	-10.579
▁يمر	-10.579
▁لسان	-10.5797
يهود	-10.5798
▁المونديال	-10.5799
▁الاردني	-10.58
▁الحكومات	-10.5804
▁جائحة	-10.5804
▁المنازل	-10.5804
▁موضحة	-10.5804
▁عائلته	-10.5804
▁فتاة	-10.5804
▁المراكز	-10.5805
▁مهاجرا	-10.5806
▁كلمته	-10.5813
انجيلا	-10.5813
▁تهريب	-10.5818
▁احتياجات	-10.582
▁العصبي	-10.5822
▁مخطط	-10.5824
ازمة	-10.5824
▁القوية	-10.5825
لمنظمة	-10.5825
حارب	-10.5826
▁مسجل	-10.5829
▁يتولي	-10.5832
▁اثبتت	-10.5837
▁دوما	-10.5837
بث	-10.584
▁ممثلي	-10.5844
▁ولهذا	-10.5845
▁تعليم	-10.585
▁الشيعي	-10.585
نفذ	-10.5853
▁المحاكم	-10.5853
▁المحافظين	-10.5863
انشاء	-10.5863
غرق	-10.5866
▁لبايرن	-10.5867
▁اقناع	-10.5867
▁محدد	-10.5868
طرف	-10.5868
11	-10.587
اود	-10.587
▁اخيرا	-10.5878
▁المتطرفين	-10.5878
▁الكسندر	-10.5882
شرب	-10.5887
▁مسبوقة	-10.5889
▁وينصح	-10.5891
اقليم	-10.5896
▁المحتملة	-10.5897
▁ومنها	-10.5898
خطط	-10.5905
▁بسرطان	-10.5906
▁ارسلت	-10.5907
▁لتركيا	-10.5907
ذكر	-10.5909
عمدة	-10.5909
▁كرو	-10.5912
▁فعالية	-10.5913
تحظي	-10.5913
▁الهزيمة	-10.5916
▁تعرضه	-10.5918
▁وزن	-10.5918
▁واعتبرت	-10.5919
▁اعدام	-10.592
▁الاسم	-10.5922
▁حديثه	-10.5922
مفوضية	-10.5931
▁ونحن	-10.5931
ستثمر	-10.5931
نشر	-10.5932
▁2013.	-10.5934
تواجد	-10.5934
وقع	-10.5936
▁صح	-10.5937
تبقي	-10.5937
▁خلفا	-10.5938
ميم	-10.5942
▁نوير	-10.5946
▁هرب	-10.5948
تشاور	-10.5949
▁الطيار	-10.595
تلميذ	-10.595
▁هيرتا	-10.5951
▁بابا	-10.5955
▁يفترض	-10.5955
▁للمطالب	-10.5957
▁ماي	-10.5958
▁الزلزال	-10.596
▁المؤقت	-10.5961
▁مقبول	-10.5961
▁المبلغ	-10.5962
▁لعدد	-10.5962
بيد	-10.5964
▁الساحرة	-10.5967
▁اجراها	-10.5968
وكس	-10.5968
▁تونسي	-10.597
▁القانوني	-10.597
▁متنها	-10.5972
لحفاظ	-10.5973
▁لك	-10.5974
▁المنافس	-10.5974
▁وطلب	-10.5976
▁استراتيجي	-10.5977
▁الكروية	-10.5982
▁وتحدث	-10.5983
▁عطلة	-10.5985
▁فرنسية	-10.5985
ورة	-10.5986
▁اختفاء	-10.5987
استهداف	-10.5988
استمرار	-10.5989
تحسن	-10.5989
▁ربه	-10.5992
▁تبحث	-10.5993
ئي	-10.5997
حزمة	-10.6
ثم	-10.6002
▁صار	-10.6007
▁الوثائق	-10.6009
▁التنفس	-10.6009
▁حققت	-10.6009
▁هاتفي	-10.6012
درج	-10.6014
▁يمنح	-10.6014
▁تظاهر	-10.6019
▁للدولة	-10.602
▁ساركوزي	-10.6024
▁شوماخر	-10.6024
▁يتيح	-10.6025
يكو	-10.6027
رث	-10.6027
▁شعبي	-10.6027
▁ودور	-10.6027
▁اقامته	-10.6028
اسلوب	-10.6031
▁تشهدها	-10.6031
▁بفرض	-10.6032
غضب	-10.6034
▁الالم	-10.6034
جتمع	-10.6035
▁المشرف	-10.6044
▁فض	-10.6049
▁التحقق	-10.6052
رتبة	-10.6059
▁اضراب	-10.606
▁كثيرون	-10.606
▁بالقدس	-10.6061
▁زونتاغ	-10.6061
▁اجاب	-10.6062
▁مصور	-10.6064
سوس	-10.6072
▁العصر	-10.6073
لدينا	-10.6074
عتمد	-10.6077
▁صاروخ	-10.6079
تمسك	-10.6081
▁تتبع	-10.6084
▁نوعه	-10.6092
▁لوضع	-10.6094
-1	-10.6094
▁لحظة	-10.6099
▁ابيب	-10.6099
▁انفجرت	-10.61
▁الكردي	-10.61
▁وبيخلي	-10.61
رسم	-10.6103
▁بكين	-10.6106
▁اليهودية	-10.6109
▁الجهة	-10.6111
▁اسس	-10.6111
▁الافغاني	-10.6114
رقة	-10.6116
▁مفاجئ	-10.6116
عقوبات	-10.612
▁طن	-10.6123
▁شخصين	-10.6125
▁هدفين	-10.6126
▁يعطي	-10.6135
▁الكاملة	-10.6136
▁سياسات	-10.6136
▁بمقتل	-10.614
▁التتويج	-10.6143
▁التاريخي	-10.6146
تناقض	-10.6147
▁منهما	-10.6149
▁الثقافية	-10.6151
▁اجرت	-10.6151
▁منازلهم	-10.6153
▁سعودية	-10.6153
▁وشمال	-10.6154
▁طب	-10.6156
▁المخيم	-10.6156
▁التراجع	-10.6161
جنود	-10.6164
▁الدفع	-10.6172
▁تمنح	-10.6172
▁يفضل	-10.6173
▁اعتقل	-10.6177
وافق	-10.6177
.6	-10.618
▁المساجد	-10.6181
▁بريطانية	-10.6182
▁يستعد	-10.6183
▁ووصل	-10.6184
▁تنقل	-10.6189
▁جثث	-10.6192
حط	-10.6195
عامل	-10.62
▁ببعض	-10.6206
▁وحث	-10.6207
▁اشتون	-10.6207
تنظيم	-10.6208
اطاحة	-10.6208
▁الخط	-10.6208
▁وحمل	-10.6209
▁ولايات	-10.6213
مهمة	-10.6215
الب	-10.6217
▁انتهاك	-10.6219
دراج	-10.6222
مهد	-10.6222
▁مصطفي	-10.6222
▁وظائف	-10.6225
صن	-10.6226
▁بالتعادل	-10.6227
▁قائم	-10.6228
يكس	-10.6232
▁الخمسة	-10.6234
خطوة	-10.6235
▁مير	-10.6236
18	-10.6237
▁يفعل	-10.6237
▁البعثة	-10.6237
ادلة	-10.6238
بيئة	-10.6239
▁الاخبارية	-10.624
▁ساهم	-10.624
اعمال	-10.6241
ولد	-10.6245
يرا	-10.6248
▁ميستورا	-10.6249
▁التمويل	-10.6249
▁800	-10.625
▁المقدمة	-10.6253
احداث	-10.6253
تشجيع	-10.6253
▁المكسيك	-10.6254
▁عادت	-10.6256
▁معتقل	-10.6257
▁39	-10.6257
بوت	-10.6259
▁الصغير	-10.6264
▁جير	-10.6265
▁الخمس	-10.6265
▁نووي	-10.6269
▁منافس	-10.6269
▁الغد	-10.6272
▁المباشر	-10.6273
لمناقشة	-10.6274
▁ايراني	-10.6275
▁حراس	-10.6275
زواج	-10.6276
▁البشرة	-10.6278
تصدي	-10.628
تقوية	-10.6281
تعديل	-10.6281
▁السويدية	-10.6282
▁الاستعداد	-10.6282
▁المطلوبة	-10.6284
▁التعذيب	-10.6287
▁كركوك	-10.6288
▁واوروبا	-10.6288
▁الكبد	-10.6289
▁مهلة	-10.6289
فورد	-10.629
صاحب	-10.6293
▁يمتلك	-10.6294
▁وبات	-10.6295
▁حلم	-10.6297
تحدي	-10.6298
هير	-10.63
▁باعتباره	-10.6301
▁الاباء	-10.6301
▁وكيل	-10.631
تامين	-10.6312
▁واسعا	-10.6312
اهداف	-10.6315
▁2018.	-10.6317
▁تكنولوجيا	-10.6321
▁الاعوام	-10.6325
▁الولادة	-10.6325
▁الشريعة	-10.6325
▁اكل	-10.6326
▁اوقف	-10.6328
▁44	-10.633
ابقاء	-10.6333
▁اوسع	-10.6333
اعداد	-10.6333
رضي	-10.6333
▁المهام	-10.6334
▁منافسة	-10.6336
ظل	-10.6339
▁الاقليمي	-10.6342
▁التو	-10.6343
▁الذكي	-10.6343
▁بقدر	-10.6343
▁نائبا	-10.6345
▁انقلاب	-10.6346
▁استبعاد	-10.6347
لاقي	-10.6348
▁المجر	-10.6349
▁الضحية	-10.6349
▁يخوض	-10.635
غرام	-10.635
▁تقدمت	-10.6352
▁الشابة	-10.6357
هجوم	-10.6358
▁التظاهرات	-10.6361
توجيه	-10.6361
تميز	-10.6364
▁حكومات	-10.6365
80	-10.6365
▁اتراك	-10.6365
قصد	-10.6366
رار	-10.6369
▁تملك	-10.637
▁الفرص	-10.6371
▁الاممي	-10.6373
▁نارية	-10.6373
▁بلادها	-10.6376
▁يرتدي	-10.6378
▁طلبا	-10.6378
▁الانتقالي	-10.6378
▁البلجيكية	-10.638
▁الاستمرار	-10.6381
قمة	-10.6382
▁بتشكيل	-10.6385
▁معارض	-10.639
▁سقطت	-10.6393
▁قدرته	-10.6394
سافر	-10.6395
▁الخطا	-10.6397
صغر	-10.6397
▁ترغب	-10.6402
▁مؤيد	-10.6402
▁هيسن	-10.6403
▁الجارية	-10.6407
▁السرية	-10.6408
حزن	-10.641
▁المعني	-10.6413
▁يتسن	-10.6421
▁الوزيرة	-10.6422
▁وجري	-10.6422
▁اثنان	-10.6423
▁امريكيون	-10.6423
خضع	-10.6423
▁يسجل	-10.6428
مكان	-10.6428
▁قلقه	-10.6434
ميد	-10.6434
▁سيد	-10.6437
▁زايبرت	-10.644
▁جل	-10.6441
▁اعت	-10.6441
▁تخلي	-10.6441
▁البرامج	-10.6442
▁النظامية	-10.645
رعب	-10.6455
متع	-10.6455
▁لشن	-10.6456
▁لاين	-10.6457
▁السينمائي	-10.6458
تركز	-10.6459
نشاط	-10.646
▁معبر	-10.646
▁استعمال	-10.6462
احترام	-10.6463
▁الكوري	-10.6464
▁باحد	-10.6465
▁الثقافة	-10.6468
▁لتجنب	-10.647
جديد	-10.6471
▁باكثر	-10.6472
▁بكر	-10.6472
▁الطالب	-10.6478
استفزاز	-10.6479
▁ريبيري	-10.6479
▁بالفيروس	-10.6479
▁والفلسطينيين	-10.6479
▁الذرية	-10.648
▁اقتراب	-10.648
ايلول	-10.6488
▁سيل	-10.6489
▁الصناعي	-10.6497
▁2017)،	-10.6498
▁الاعراض	-10.65
▁يحل	-10.6501
▁العلم	-10.6504
▁ودفع	-10.6506
▁التعديلات	-10.6507
▁فتحت	-10.6509
طرق	-10.651
▁بالغة	-10.6514
▁وقاد	-10.6517
▁النيران	-10.6518
▁اجنبي	-10.6519
▁عائلات	-10.652
▁الشخصيات	-10.652
▁السليم	-10.6521
▁ايجابي	-10.6526
▁قليل	-10.6526
▁البل	-10.6527
مصر	-10.6531
▁تضامن	-10.6538
▁تحطم	-10.6538
الجمعة	-10.6541
راعي	-10.6541
▁وقامت	-10.6542
▁يمني	-10.6543
وتو	-10.6544
▁اور	-10.6545
▁المو	-10.6547
▁تتيح	-10.6548
▁تربط	-10.6549
زيل	-10.655
فرض	-10.6554
▁بالاعدام	-10.6557
▁اشراف	-10.6557
▁تفشي	-10.6558
▁سريعة	-10.6558
▁الجولان	-10.6559
▁ذاتها	-10.6564
صورة	-10.6565
ستين	-10.6566
فيلت	-10.6568
▁واع	-10.657
ضطر	-10.6571
▁السي	-10.6572
▁لسوريا	-10.6575
▁الاغلبية	-10.6576
▁العميق	-10.6578
تشر	-10.6579
▁بتنفيذ	-10.6582
انتهاك	-10.6589
نقل	-10.659
▁نشرها	-10.6592
تضرر	-10.6597
▁والعالم	-10.66
▁اتفقت	-10.66
▁0	-10.6604
▁بالام	-10.661
▁تصريحاته	-10.6611
▁ليكون	-10.6611
اقتصاد	-10.6615
▁شرط	-10.6616
▁مريض	-10.6616
▁العاشرة	-10.6619
▁لافتا	-10.6622
▁الجامعات	-10.6624
مبادرة	-10.6628
▁يشغل	-10.6632
▁فبعد	-10.6633
كال	-10.6635
▁اليورانيوم	-10.6636
▁توخل	-10.6636
▁كلينتون	-10.6636
▁تشكيلة	-10.6636
▁ادني	-10.6638
▁الطرف	-10.6639
صبح	-10.664
▁الجناح	-10.664
صادم	-10.6642
▁هن	-10.6645
نزع	-10.6646
خض	-10.6648
▁للبحث	-10.6651
▁الاجواء	-10.6652
▁يقلل	-10.6652
▁الكافي	-10.6652
▁الزمن	-10.6654
▁تعليقات	-10.6658
▁والحكومة	-10.666
▁المباشرة	-10.666
▁المؤقتة	-10.6663
▁صادرات	-10.6675
الميرنغي	-10.6675
▁الفئران	-10.6675
▁واصفا	-10.6676
▁المكون	-10.6678
▁تاخر	-10.6678
▁اسرائيليين	-10.6678
شان	-10.6684
▁حدودها	-10.6686
خفف	-10.6687
مخاطر	-10.6687
▁والبحرين	-10.6689
▁لقوا	-10.6692
▁اللاجئ	-10.6695
نمو	-10.6696
▁يخطط	-10.6698
▁وسن	-10.6699
جماع	-10.67
▁مترا	-10.6702
▁الفي	-10.6702
عشية	-10.6704
رجل	-10.6709
▁اورد	-10.671
▁اميركية	-10.6712
▁47	-10.6714
▁وصلوا	-10.6714
▁الاضرار	-10.6715
هبة	-10.6716
17	-10.6718
▁قالوا	-10.6718
قترح	-10.6719
▁راسها	-10.6721
▁مواطنين	-10.6726
اخبار	-10.6728
▁اقارب	-10.673
مؤتمر	-10.6737
▁نصب	-10.6742
▁يستهدف	-10.6743
وارد	-10.6744
▁تجارية	-10.6747
▁غول	-10.6748
▁لقرار	-10.6749
▁جاهز	-10.6751
قدر	-10.6753
▁لهجمات	-10.6755
▁العريض	-10.6755
▁مباراته	-10.6755
▁تستضيف	-10.6756
▁القريب	-10.6758
▁تنتج	-10.6759
▁حريق	-10.676
لعدم	-10.6761
يهما	-10.6763
فرانكفورت	-10.6764
▁مشارك	-10.6765
▁تستعد	-10.6766
▁توضيح	-10.6767
▁السيدة	-10.6767
▁وسيتم	-10.6767
روف	-10.677
تسريع	-10.6772
▁تقدما	-10.6777
▁الطلبة	-10.6778
▁فلسطين	-10.678
اسر	-10.6784
▁2017.	-10.6784
▁واصبح	-10.6788
▁حقا	-10.679
ائتلاف	-10.679
▁الفنان	-10.6791
▁تاريخية	-10.6794
▁الهبوط	-10.6795
وعة	-10.6796
▁انتهي	-10.6797
ورم	-10.68
▁الطبيعة	-10.6802
▁الضرورية	-10.6803
▁الخرطوم	-10.6803
ائمة	-10.681
▁السجناء	-10.6815
▁الربع	-10.6817
خطا	-10.6819
▁السلبي	-10.6825
▁مماثل	-10.6825
▁قادر	-10.6827
▁السنوية	-10.6829
نهاية	-10.6833
▁تزويد	-10.6835
▁السوداء	-10.6835
▁قواتها	-10.6837
▁تاريخي	-10.6838
▁نيكولا	-10.684
عطل	-10.6841
▁الخطوط	-10.6841
▁بالتوقيت	-10.6843
فيلد	-10.6847
مدة	-10.6852
▁2001	-10.6853
▁الخطاب	-10.6855
▁واقعة	-10.6855
▁الملاعب	-10.6857
▁يخضع	-10.6857
▁صادق	-10.6858
▁لدور	-10.686
▁بقية	-10.6862
▁يزداد	-10.6865
▁كيميائية	-10.6866
معظم	-10.6871
▁جدل	-10.6871
▁عز	-10.6871
▁اجتماعية	-10.6872
▁الخاضع	-10.6875
▁الشغب	-10.6875
▁الثدي	-10.6876
▁اختلاف	-10.6878
▁تغطي	-10.6878
▁الاكتئاب	-10.688
قاد	-10.688
تقاسم	-10.6882
▁وحيد	-10.6886
▁يصعب	-10.6889
تحري	-10.6891
▁كتبت	-10.6892
▁يساهم	-10.6893
▁دينية	-10.6894
يتو	-10.6895
▁مشاهد	-10.6905
تحويل	-10.6909
اكاديمي	-10.6914
▁تقليص	-10.6916
برر	-10.6917
▁خمسين	-10.6918
شعار	-10.6921
▁الريف	-10.6921
▁اولئك	-10.6921
▁عملاق	-10.6924
▁اشارات	-10.6924
▁حاولت	-10.6929
▁عزز	-10.6929
▁موسي	-10.693
▁خطوط	-10.693
▁هاري	-10.6931
حدد	-10.6933
اهانة	-10.6933
تذكر	-10.6934
▁اجتماعات	-10.6936
باي	-10.694
▁بالتاكيد	-10.6942
▁افكار	-10.6942
▁لحم	-10.6946
▁باد	-10.6948
راحة	-10.6948
▁وفر	-10.695
▁اليابانية	-10.6951
▁انتقالية	-10.6954
تزايد	-10.6954
▁الياباني	-10.6955
▁مبكرا	-10.6956
▁البيض	-10.6956
▁الكاتالوني	-10.6956
▁الصعيد	-10.6957
▁صارمة	-10.6958
▁الانشطة	-10.6959
▁ممثلين	-10.6959
ستكون	-10.6961
▁وعرض	-10.6968
▁وفرض	-10.6968
▁باعمال	-10.6968
عدد	-10.6975
▁البشري	-10.6977
▁يحاولون	-10.6978
▁الفضائية	-10.6982
▁يحظي	-10.6984
▁تدور	-10.6986
▁وتقديم	-10.6986
▁المحمولة	-10.6987
▁تعويض	-10.6994
جلس	-10.6995
▁الصومال	-10.6995
اكيد	-10.6996
▁للنساء	-10.6997
▁اختار	-10.6997
▁السودانية	-10.6999
تزوج	-10.7
▁وبناء	-10.7001
▁البلدة	-10.7004
قاليد	-10.7007
▁منافسه	-10.7011
▁بالاتفاق	-10.7013
▁واقع	-10.7014
▁النقاط	-10.7017
▁مضادة	-10.7017
مراجعة	-10.7019
▁ويست	-10.702
بورغ	-10.7021
معهد	-10.7023
▁تتمتع	-10.7026
▁الاقصي	-10.703
▁هيل	-10.7035
كاد	-10.7035
▁تتسبب	-10.7037
تعاقد	-10.7038
▁يتناول	-10.7041
▁اسلامي	-10.7043
▁تحقيقا	-10.7054
▁اعادت	-10.7056
▁عثرت	-10.7057
▁العملاق	-10.7057
▁امريكيين	-10.7058
.7	-10.7061
▁غوت	-10.7062
دوم	-10.7064
سطح	-10.7066
▁اخراج	-10.7073
▁وفاته	-10.7075
▁لغة	-10.7076
▁السياحية	-10.7076
قضايا	-10.708
▁تشي	-10.708
▁الحدث	-10.7081
▁2012.	-10.7083
عبر	-10.7084
▁الذهبية	-10.7084
▁جراح	-10.7087
▁عبرت	-10.7087
▁ابعاد	-10.7088
▁وكالات	-10.7093
مرشح	-10.7097
▁52	-10.7102
▁فنية	-10.7103
▁الثقافي	-10.7104
▁قطعة	-10.7104
▁النفطية	-10.7106
▁مسلح	-10.7107
▁ارتكب	-10.7108
الاحد	-10.711
▁احدهما	-10.7112
▁الارجنتين	-10.7117
ضخ	-10.7119
▁الاعتبار	-10.7121
▁بدخول	-10.7121
▁للعلاج	-10.7121
▁تصوير	-10.7121
خارطة	-10.7121
▁الجر	-10.7122
▁جيل	-10.7122
▁استبعد	-10.7124
شكك	-10.7127
تقوم	-10.7133
غول	-10.7134
وشي	-10.7134
▁تضع	-10.7135
تدهور	-10.7136
▁الحوثي	-10.7136
ليكس	-10.7139
▁الغضب	-10.714
▁مؤقت	-10.7141
▁خضع	-10.7151
▁العرق	-10.7156
▁رئاسية	-10.7158
يلو	-10.7159
▁غربية	-10.7159
▁واسفر	-10.7159
باقي	-10.7159
عناصر	-10.7161
▁اسلاميين	-10.7162
▁اقرت	-10.7162
▁نيجيريا	-10.7162
▁الكي	-10.7164
▁الريال	-10.7164
▁زوجة	-10.7164
عرقل	-10.7166
رئ	-10.7174
▁السلفي	-10.7174
سخرية	-10.7176
العديد	-10.7178
▁نبيل	-10.7178
▁الممثلة	-10.7179
▁الميدان	-10.7182
▁يرتبط	-10.7184
لقي	-10.7185
▁الواحد	-10.7188
▁تقود	-10.7192
▁سام	-10.7192
▁الزراعية	-10.7193
صمم	-10.7195
▁تتولي	-10.7196
▁تجسس	-10.7197
▁جهد	-10.7198
▁المواجهة	-10.72
▁نداء	-10.7202
▁ينتهي	-10.7202
▁كارثة	-10.7202
▁البطالة	-10.7204
▁قيادات	-10.7204
▁المعلم	-10.7205
▁فيكتور	-10.7206
▁العيش	-10.7208
قواعد	-10.7208
ارض	-10.7215
▁تقنيات	-10.7219
▁المدون	-10.722
▁منصات	-10.7224
▁اقت	-10.7225
توتر	-10.7227
▁القديم	-10.723
▁صعوبات	-10.7231
سكن	-10.7233
كراهية	-10.7234
▁الحفل	-10.7235
دمج	-10.7236
تيك	-10.7239
▁شار	-10.724
▁تلفزيونية	-10.7241
▁الحمض	-10.7242
تطهير	-10.7247
▁شبان	-10.7248
▁مضي	-10.725
▁اشرف	-10.7255
▁رابطة	-10.7257
▁وعند	-10.7259
تدمير	-10.7262
▁باول	-10.7264
▁وتعهد	-10.7268
جماعة	-10.7269
▁المخرج	-10.7269
▁رئيسي	-10.7272
▁ملابسات	-10.7272
▁يمتد	-10.7272
▁مقعد	-10.7274
▁عالمي	-10.7275
▁بوسط	-10.7277
▁الامان	-10.7278
▁القطارات	-10.728
نيابة	-10.7282
▁لعمل	-10.7284
نقابة	-10.7286
اعتقال	-10.7287
▁البروفيسور	-10.7288
▁بمقدار	-10.7288
▁قميص	-10.7288
▁المباني	-10.7288
▁الاجمالي	-10.7289
▁معمر	-10.7291
▁المتشددة	-10.7291
شريك	-10.7291
▁معاناة	-10.7293
▁انضم	-10.7293
وحدات	-10.7294
▁يتهم	-10.7294
▁الانف	-10.7295
▁ويبلغ	-10.7296
▁المطالبة	-10.7297
▁بلاتر	-10.7298
▁اقترح	-10.7298
▁علامات	-10.7303
حزيران	-10.7303
توسع	-10.7303
ايقاف	-10.7305
▁تسير	-10.7308
انغ	-10.7308
معرفة	-10.731
▁منتقد	-10.731
▁لماذا	-10.7311
▁كوب	-10.7312
جير	-10.7313
▁الاساس	-10.7315
▁يضمن	-10.7317
▁الاداء	-10.7317
▁التحكم	-10.7318
▁التغيرات	-10.7322
ساك	-10.7325
▁القتالية	-10.7328
▁والاخر	-10.7329
▁ادانته	-10.7329
▁الانظار	-10.733
▁الطيور	-10.733
▁قري	-10.7331
▁غاوك	-10.7332
▁مناهضة	-10.7333
خلاص	-10.7334
▁130	-10.7338
▁الممتاز	-10.7339
قوانين	-10.734
▁خال	-10.7345
▁بحل	-10.7346
الثلاثاء	-10.7346
14	-10.7352
محطة	-10.7354
▁كلف	-10.736
▁الحجاب	-10.7362
نافس	-10.7362
▁شرعي	-10.7363
▁التراث	-10.7365
▁السيد	-10.7368
45	-10.7372
▁الكتالوني	-10.7372
▁ترشيح	-10.7372
▁تكريت	-10.7372
▁الابراهيمي	-10.7372
▁الحيوان	-10.7373
▁المستطيل	-10.7373
▁اندري	-10.7376
▁الغالبية	-10.7381
▁غال	-10.7389
▁الخضراء	-10.7391
▁انسان	-10.7391
▁محتوي	-10.7392
▁زواج	-10.7394
تعب	-10.7394
ستو	-10.7395
سعة	-10.7397
غلي	-10.7397
صعب	-10.74
▁مسبوق	-10.7401
▁فني	-10.7401
اجتماع	-10.7404
▁للشعب	-10.7404
وزير	-10.7406
▁الاردنية	-10.7406
▁المشروبات	-10.7409
▁القاب	-10.7411
▁صوتا	-10.7414
▁المراقبين	-10.7415
▁منتظم	-10.7415
▁مهارات	-10.7416
سداد	-10.7416
▁خلية	-10.7418
كما	-10.7422
▁البرية	-10.7423
▁وقدم	-10.7423
▁تفسير	-10.7429
▁النباتات	-10.7429
▁المثيرة	-10.7432
▁للبطولة	-10.7432
▁كوفيد	-10.7435
▁بديل	-10.7435
▁حملات	-10.7436
▁السلبية	-10.7436
▁المعركة	-10.7436
▁الاسبوعية	-10.7442
رقص	-10.7447
▁والشام	-10.7461
▁زادت	-10.7464
▁وطنية	-10.7464
▁الداخل	-10.7465
وصول	-10.7469
▁بتهم	-10.747
▁واستخدام	-10.7471
▁ويواجه	-10.7473
▁باستثناء	-10.7482
▁اراء	-10.7483
▁تجديد	-10.7484
▁كوخ	-10.7486
▁جوائز	-10.7486
▁تتوقع	-10.7487
▁رفضه	-10.7487
▁يلجا	-10.7488
تزامن	-10.7489
▁يتوقف	-10.7492
▁2021	-10.7493
▁الذاكرة	-10.7498
▁اللوا	-10.7499
▁وخلص	-10.75
▁ادخال	-10.7501
▁الضريبي	-10.7501
▁المستديرة	-10.7501
▁مفاجاة	-10.7501
▁بيريز	-10.7503
▁مصاب	-10.7504
▁51	-10.7504
▁الملكية	-10.7505
▁الاستقالة	-10.7508
▁سري	-10.7509
▁لتر	-10.7509
▁نسبيا	-10.7509
▁حاسمة	-10.751
▁المعتاد	-10.7513
موافقة	-10.7516
علق	-10.7517
▁كلما	-10.7518
السماح	-10.7521
التي	-10.7522
▁للاتفاق	-10.7523
شتري	-10.7523
صالات	-10.7524
▁المسؤولون	-10.7524
▁%	-10.7525
▁شارع	-10.7528
ولو	-10.7528
▁التر	-10.7528
▁الوسائل	-10.753
▁المستهلك	-10.7532
▁ازالة	-10.7532
▁يدور	-10.7533
▁لكاس	-10.7535
ثورة	-10.7537
▁مواطنيها	-10.7538
▁ارضه	-10.7539
▁ذو	-10.7542
▁الازهر	-10.7544
▁بسجن	-10.7544
▁الحج	-10.7545
▁قاتل	-10.7548
▁ينتمو	-10.7551
▁السر	-10.7552
تغيير	-10.7554
عنصر	-10.7555
▁مبدا	-10.7556
▁ودي	-10.7556
▁ارسل	-10.7558
▁مظاهرة	-10.7558
▁نال	-10.7559
▁الملح	-10.7561
اغتيال	-10.7563
▁حديقة	-10.7564
تري	-10.7567
يتهم	-10.7573
▁تحد	-10.7573
▁الجامعي	-10.7574
ذات	-10.7579
اعة	-10.7581
▁اصغر	-10.7582
▁التطبيقات	-10.7584
ماء	-10.7584
▁التالية	-10.7584
▁الطا	-10.7585
▁واتهمت	-10.7585
وعد	-10.7588
▁الفرار	-10.7595
تفجير	-10.7596
محترف	-10.7598
▁محارب	-10.7606
غلب	-10.7607
تصميم	-10.7607
▁نت	-10.7612
▁الرسائل	-10.7615
▁تهم	-10.7615
كافح	-10.7616
▁اعلاميا	-10.7619
▁الدائر	-10.762
▁كلها	-10.7624
▁ضده	-10.7625
وفيتش	-10.7625
▁الساحلية	-10.7627
بلغ	-10.7627
▁مسرح	-10.763
▁التوقيع	-10.763
▁معايير	-10.763
تخريب	-10.7631
قنصل	-10.7633
▁لانتاج	-10.7635
▁المتحف	-10.7638
برج	-10.7639
اعتراف	-10.7639
▁تركز	-10.7641
خطة	-10.7645
▁اوردت	-10.7647
▁تحولت	-10.7648
'	-10.765
▁ضرورية	-10.7653
تدفق	-10.7653
فيس	-10.7655
▁اعمار	-10.7655
▁خرجت	-10.7655
▁حرام	-10.7655
▁بعيدة	-10.7656
▁وصفها	-10.7658
حاكم	-10.7659
▁وامن	-10.7661
▁فيتامين	-10.7661
▁ماريا	-10.7662
▁نيو	-10.7664
بينما	-10.7664
طريق	-10.7667
24	-10.7668
ستمر	-10.7668
▁تنظم	-10.767
▁الاحوال	-10.7674
▁اخصائي	-10.7675
▁بادن	-10.7683
▁مشاركته	-10.7684
▁الاصل	-10.7689
▁سامي	-10.7696
▁تاثر	-10.7698
▁تفرض	-10.7699
▁للمنظمة	-10.7706
▁خسارته	-10.7706
تنقل	-10.7707
▁ذهب	-10.771
▁41	-10.771
▁لتقرير	-10.7711
▁بنشر	-10.7713
▁خض	-10.7713
▁والجيش	-10.7714
▁يكونوا	-10.7716
▁الهولندية	-10.7718
▁الضرائب	-10.7718
▁المخلافي	-10.7718
▁السرعة	-10.772
▁العاملة	-10.7722
▁غابريل	-10.7723
▁الفيروسات	-10.7724
▁امنيا	-10.7727
استقلال	-10.7729
نجز	-10.7733
▁المستخدمة	-10.7736
▁الكاس	-10.7739
تطرق	-10.7742
▁زرع	-10.7742
▁ليلا	-10.7743
غوغل	-10.7743
▁الثلاثين	-10.7744
▁فشلت	-10.7747
▁ليون	-10.7748
88	-10.7749
▁طور	-10.7753
يبقي	-10.7754
حياز	-10.7756
▁الصندوق	-10.7757
▁العصبية	-10.7757
▁حالته	-10.7758
▁يرجع	-10.7759
▁حدد	-10.7761
▁الكرواتي	-10.7762
▁المنحدر	-10.7762
▁يحتل	-10.7762
▁مبابي	-10.7762
▁رائد	-10.7763
▁مبالغ	-10.7764
▁مشابهة	-10.7768
مدرب	-10.7768
جهز	-10.7769
▁لوزير	-10.7773
▁يجمع	-10.7775
▁منشات	-10.778
▁عل	-10.7781
زرع	-10.7783
▁حرة	-10.7786
ضمان	-10.7788
▁وظهر	-10.779
يزي	-10.779
صدار	-10.7792
باط	-10.7792
▁تصف	-10.7793
تعليم	-10.7794
▁يشبه	-10.7795
▁اصلاحات	-10.7795
ينج	-10.7796
▁يقيم	-10.7797
▁رسم	-10.78
حظر	-10.78
▁منتج	-10.7801
▁منسق	-10.7804
▁مشكلات	-10.7804
▁تحذيرات	-10.7805
▁انشيلوتي	-10.7806
▁المستوطنات	-10.7806
▁للسامية	-10.7806
▁وشمل	-10.7807
▁التاكيد	-10.781
▁بدقة	-10.7811
▁اليهودي	-10.7812
▁جدار	-10.7813
▁تجد	-10.7814
رسالة	-10.7814
▁شفاينشتايغر	-10.7814
.4	-10.7815
▁قلقها	-10.7818
تضامن	-10.7818
يورو	-10.782
27	-10.7824
▁السلمي	-10.7824
▁ويشارك	-10.783
▁يعلم	-10.783
▁منصة	-10.7834
تيب	-10.7836
▁منازل	-10.7839
حول	-10.784
حضار	-10.7843
▁الاستخدام	-10.7843
▁وظيفة	-10.7847
▁المناهضة	-10.7847
▁الديني	-10.7847
▁الخسارة	-10.785
ميليشيا	-10.785
▁بالرصاص	-10.7851
▁برصاص	-10.7851
▁بتسجيل	-10.7851
ضاء	-10.7851
▁انفصال	-10.7855
▁وسيكون	-10.7857
▁حاسم	-10.7857
نوي	-10.7859
رخص	-10.786
▁بريطاني	-10.786
نقص	-10.7864
عشرات	-10.7865
▁والاردن	-10.7867
زعيم	-10.7867
▁مؤقتة	-10.7868
▁العسكريين	-10.7869
▁فعالة	-10.7872
لاجئ	-10.7873
▁شفا	-10.7875
كيف	-10.7876
فيتامين	-10.7876
▁شاركوا	-10.788
▁المختص	-10.7886
ابادة	-10.7887
تالق	-10.7888
حذر	-10.789
▁سنتين	-10.789
▁تقديرات	-10.7891
▁صحف	-10.7894
▁عشاق	-10.7895
▁السراج	-10.7898
▁صفحته	-10.79
شجار	-10.7905
▁لجا	-10.7905
▁السم	-10.7908
▁قليلا	-10.791
▁تفادي	-10.791
▁مزاعم	-10.791
اطباء	-10.791
امريكا	-10.7912
▁سهلة	-10.7914
شرع	-10.7919
▁النارية	-10.7922
▁مالك	-10.7925
▁يعبر	-10.7926
▁سانت	-10.7926
▁نيكو	-10.7928
راج	-10.7929
▁المسيرة	-10.7929
▁باس	-10.793
تشريع	-10.793
26	-10.7932
ذكاء	-10.7932
▁وجنوب	-10.7935
▁قاطع	-10.7935
▁لاخر	-10.7937
▁المتجددة	-10.794
▁مساعي	-10.794
▁احدهم	-10.7941
▁طريقها	-10.7941
▁يقرب	-10.7943
▁قمع	-10.7946
▁الفارق	-10.7946
▁ورفضت	-10.7952
▁النصائح	-10.7952
▁لحد	-10.7953
▁للطيران	-10.7955
▁الباكستانية	-10.7957
▁الدر	-10.7959
▁سيطرت	-10.796
غياب	-10.7961
ستعيد	-10.7962
روتين	-10.7963
▁مق	-10.7965
▁الانجليزية	-10.7965
▁مهمته	-10.7966
▁2013،	-10.7968
▁تلفزيون	-10.7968
▁رواد	-10.7969
▁اربعين	-10.7969
▁مؤيدي	-10.7972
برنامج	-10.7973
▁الاستئناف	-10.7974
▁يمكنهم	-10.7974
▁تدابير	-10.7979
▁يتوجه	-10.7981
▁مخيمات	-10.7981
▁وحماية	-10.7982
حفظ	-10.7984
▁الهندي	-10.7984
▁رموز	-10.7985
▁لتطوير	-10.7985
▁باصواتهم	-10.7985
▁المحققين	-10.7985
▁قلة	-10.7985
▁بيانا	-10.7987
▁عبدالله	-10.7988
▁التعلم	-10.7991
▁الايرانيين	-10.7991
▁نعرف	-10.7998
▁العضلات	-10.8
23	-10.8
▁سكانها	-10.8
ؤه	-10.8003
كذب	-10.8004
توافر	-10.8007
▁لدوري	-10.8008
▁لادن	-10.8008
▁ويسعي	-10.8009
▁محافظ	-10.801
▁بمنع	-10.8011
▁شتيفان	-10.8013
▁جواز	-10.8021
شهور	-10.8021
▁الناتج	-10.8022
▁تمنع	-10.8024
تفاعل	-10.8025
▁ادان	-10.8026
▁مسؤوليته	-10.8027
▁المصالحة	-10.8028
▁ثابت	-10.8031
▁المطاف	-10.8031
▁ميشال	-10.8031
▁الشتاء	-10.8031
▁العضوية	-10.8031
▁السمنة	-10.8032
▁اقام	-10.8033
13	-10.8033
▁الشكل	-10.8034
▁يان	-10.8036
ضحك	-10.8038
▁الاسئلة	-10.8039
▁46	-10.8041
▁واطلق	-10.8042
▁داود	-10.8044
▁حكمت	-10.8046
▁بالطبع	-10.8047
وحد	-10.8048
جمال	-10.805
▁تتجه	-10.8051
▁بنتيجة	-10.8054
▁الوثيقة	-10.8056
ثلاث	-10.8059
.8	-10.806
مطالبة	-10.8062
قصر	-10.8063
تنامي	-10.8063
▁الطويلة	-10.8063
▁قراره	-10.807
▁خاض	-10.8073
▁ابعد	-10.8074
تحرش	-10.8076
▁اسماعيل	-10.8076
▁انبعاثات	-10.8076
▁الاصول	-10.8076
▁امور	-10.808
▁ادوارد	-10.8084
▁للصحيفة	-10.8091
▁الفندق	-10.8093
▁التحدي	-10.8094
▁قاعة	-10.8098
▁وتسعي	-10.8098
▁ينس	-10.8099
القيام	-10.8101
▁يقودها	-10.8101
▁المانشافت	-10.8102
جمهورية	-10.8103
▁طموح	-10.8104
▁قادت	-10.8107
▁التوترات	-10.8109
▁خلصت	-10.811
▁الجماعي	-10.8114
▁التام	-10.8114
22	-10.8114
▁عاجل	-10.8115
نيك	-10.8117
▁عوامل	-10.812
▁سواحل	-10.8122
▁واب	-10.8122
▁عبوة	-10.8124
▁الحمراء	-10.8126
▁2002	-10.8127
تهرب	-10.8131
▁البنتاغون	-10.8134
تدرب	-10.8137
▁تطلب	-10.8139
▁زمن	-10.814
▁ضباط	-10.8144
▁مدربه	-10.8145
▁تقريرا	-10.8145
▁يحب	-10.8146
▁#	-10.8147
نيويورك	-10.8148
انتقاد	-10.815
▁الوقاية	-10.8152
▁الرغبة	-10.8153
▁استعدادا	-10.8161
▁تحديث	-10.8162
▁بمعدل	-10.8162
▁امرت	-10.8163
▁اغلقت	-10.8166
▁للتعامل	-10.8166
▁لحضور	-10.8167
▁التوقعات	-10.8168
▁يستبعد	-10.8168
▁الحصار	-10.8173
ليبي	-10.8173
▁افتتح	-10.8173
▁طالما	-10.8174
▁فريد	-10.8176
▁ضحية	-10.818
▁قبض	-10.8182
يقة	-10.8183
▁بعث	-10.8189
▁نجل	-10.819
▁شاملة	-10.8191
▁حديثا	-10.8192
اسقاط	-10.8196
سجن	-10.8196
قناع	-10.8197
جرت	-10.8197
▁المسبب	-10.82
▁عقدت	-10.8202
▁الاصلاحات	-10.8203
▁مكونات	-10.8203
▁نتائجها	-10.8204
فترة	-10.8206
تصل	-10.8211
حصر	-10.8211
مصدر	-10.8212
▁وردت	-10.8213
▁تيلرسون	-10.8214
▁التاسيسي	-10.8215
▁المتاحة	-10.8215
حرب	-10.8215
نتخب	-10.8216
▁مقاتلو	-10.8218
صريح	-10.8224
▁تبعد	-10.8226
▁صلاحيات	-10.8226
▁اللحوم	-10.8231
▁سيجري	-10.8235
▁النيل	-10.8236
تباع	-10.8237
▁محدود	-10.8239
▁المسيحية	-10.8239
تهريب	-10.8242
▁يحملون	-10.8243
▁بمن	-10.8251
▁المقابلة	-10.8257
▁وطني	-10.8258
▁بانتظام	-10.826
▁تنتظر	-10.826
▁بواتينغ	-10.826
▁هكذا	-10.826
▁انعقاد	-10.826
▁موسيقي	-10.8261
▁مشاهدة	-10.8261
عاقب	-10.8263
▁يصف	-10.8265
▁ابرزها	-10.8267
ناتو	-10.8267
▁جبال	-10.8269
▁بلوغ	-10.8269
وفاة	-10.8271
مرحلة	-10.8271
خسر	-10.8272
▁حادثة	-10.8272
▁التنسيق	-10.8273
▁تتواصل	-10.8273
▁دعوات	-10.8276
▁معادية	-10.8276
▁المؤيد	-10.8276
▁لنادي	-10.8277
▁قتال	-10.8279
فك	-10.828
▁المدعوم	-10.8282
▁منحت	-10.8285
▁المفوض	-10.8286
▁شرف	-10.8287
وقوع	-10.8288
▁يفكر	-10.8293
▁والنساء	-10.8294
▁اذاعة	-10.8302
▁المنصرم	-10.8306
▁اليمينية	-10.8307
▁صفقات	-10.8307
صوت	-10.8307
▁قويا	-10.8308
▁ونائب	-10.8309
▁الماضيين	-10.831
▁العقيد	-10.831
▁اقتصادي	-10.8311
▁سوتشي	-10.8311
تفوق	-10.8321
▁للاشخاص	-10.8329
▁عثمان	-10.8329
▁اعماله	-10.833
كبر	-10.8331
▁الكلي	-10.8332
▁اعتصام	-10.8332
▁الحار	-10.8335
غالبا	-10.8336
▁الحديدة	-10.8337
▁انتشر	-10.8339
▁هاتفية	-10.834
▁الملا	-10.8341
▁للقضاء	-10.8341
▁بدفع	-10.8342
▁التظاهر	-10.8345
شاهد	-10.8347
▁المج	-10.8348
▁ارتكبت	-10.835
▁المهني	-10.8352
▁الثانوية	-10.8353
انسحاب	-10.8353
كتائب	-10.8357
▁تطورات	-10.836
▁ابرام	-10.836
▁700	-10.8364
▁صدام	-10.8364
▁العقوبة	-10.8372
قبض	-10.8376
▁تير	-10.8378
▁مقاطع	-10.838
سلام	-10.8381
▁وتضم	-10.8384
▁تحل	-10.8384
28	-10.8386
▁الاحكام	-10.8389
▁ينقل	-10.8394
▁متخصصة	-10.8395
▁المعدة	-10.8395
تنسيق	-10.8395
▁تدرس	-10.8399
▁مبدئي	-10.84
▁الاوربي	-10.8401
▁للدوري	-10.8406
▁للمواطنين	-10.8407
مسابقة	-10.8408
▁هرمون	-10.8411
▁تنسيق	-10.8415
▁فروا	-10.8415
▁الاثرية	-10.8417
سكا	-10.8418
▁اقتحم	-10.8418
▁عضوية	-10.8423
خطوط	-10.8424
▁بلاد	-10.8425
▁ارينا	-10.8426
عشرة	-10.8426
▁تستغرق	-10.8427
▁المقاومة	-10.8429
طيلة	-10.8431
▁المنتج	-10.8432
ظلم	-10.8433
▁يطرح	-10.8436
تقليل	-10.8439
مقاتل	-10.8446
▁اياه	-10.8447
▁للاجانب	-10.8447
صياغة	-10.8447
▁الوجبات	-10.8447
▁لقناة	-10.8447
▁تداول	-10.8447
▁المريخ	-10.8447
▁جريحا	-10.8449
▁هائلة	-10.845
▁قدرها	-10.845
صرف	-10.845
استعادة	-10.8451
▁معني	-10.8452
▁للمراة	-10.8455
▁مقطع	-10.8458
▁ستجري	-10.8459
▁الكاثوليكية	-10.8461
▁مجمع	-10.8461
▁57	-10.8466
▁بواقع	-10.8467
▁الادلة	-10.8469
▁تدير	-10.8472
▁تنطلق	-10.8472
▁وجدت	-10.8472
▁توليه	-10.8474
▁مسلحي	-10.8475
in	-10.8478
يغا	-10.8479
▁وتراجع	-10.8479
▁لهدف	-10.848
تصبح	-10.8485
▁فازت	-10.8488
▁لجميع	-10.849
▁ساعد	-10.8492
▁المباحثات	-10.8495
▁الرهائن	-10.8495
▁زملائه	-10.8495
كوين	-10.8499
▁سول	-10.8502
▁رئيسية	-10.8504
▁يطلب	-10.8507
▁وانتقد	-10.8509
▁فخ	-10.8512
▁محمل	-10.8513
انقاذ	-10.8514
▁الصدارة	-10.8515
▁العوامل	-10.8517
▁دراستهم	-10.8517
الوضع	-10.8519
▁النجوم	-10.8519
جسم	-10.8519
ظروف	-10.8522
▁ابوابها	-10.8522
▁وحقق	-10.8523
▁البد	-10.8527
▁58	-10.8527
ربو	-10.8527
▁الموعد	-10.8528
▁للعودة	-10.8528
ستفيد	-10.8529
▁كروس	-10.8529
▁الشامل	-10.8532
▁بوسع	-10.8533
▁التحذير	-10.8535
احصاء	-10.8535
▁الفطر	-10.8535
شباط	-10.8537
▁طارئ	-10.8538
▁الاسترالي	-10.8538
رابط	-10.8541
▁الاعصاب	-10.8542
▁تخفيض	-10.8542
▁ميشيل	-10.8543
▁الذكور	-10.8543
▁العظمي	-10.8544
▁اشد	-10.8546
▁وترك	-10.8546
تموز	-10.8546
▁الاوساط	-10.8552
▁الناشطة	-10.8554
▁وتنظيم	-10.8555
▁يفتح	-10.8557
سرطان	-10.8557
▁رسوم	-10.8561
▁تختلف	-10.8562
انتخاب	-10.8562
▁الاضراب	-10.8563
▁بالسرطان	-10.8563
مزاج	-10.8565
▁غريب	-10.8568
▁نجا	-10.857
▁صدمة	-10.8573
تيل	-10.8575
سياسي	-10.8578
▁تجميد	-10.8579
▁باغلبية	-10.8579
▁للجنة	-10.8583
▁المضادة	-10.8584
حالات	-10.8589
▁الدستوري	-10.8589
شاحن	-10.8589
▁واثارت	-10.859
+	-10.859
▁الخارجي	-10.859
تجهيز	-10.859
▁الحاصل	-10.859
▁ابلاغ	-10.859
▁الكلام	-10.8591
التحاق	-10.8593
خوف	-10.8595
▁سافر	-10.8595
▁حرس	-10.8596
▁كلام	-10.8598
▁بنس	-10.8599
▁مستواه	-10.8601
يسي	-10.8603
▁وتيرة	-10.8605
▁ويؤكد	-10.8606
▁ليبي	-10.8608
كوف	-10.861
والد	-10.8612
▁المشاركون	-10.8615
▁هال	-10.8616
وجود	-10.8623
احتمال	-10.8624
العاشر	-10.8624
▁تتوقف	-10.8631
▁افغاني	-10.8633
تجاهل	-10.8635
▁المؤلف	-10.8638
▁الازياء	-10.8638
▁اثبات	-10.8638
▁باللقب	-10.8638
▁البروتين	-10.8638
▁السفن	-10.8638
▁موجهة	-10.8639
▁تدمر	-10.8639
التهابات	-10.8639
▁الهوية	-10.864
▁اين	-10.864
▁تنص	-10.864
▁ملزم	-10.8644
▁الزوار	-10.8644
ميني	-10.8645
▁قياسي	-10.8654
▁يقتصر	-10.8655
▁بوابة	-10.8655
خدم	-10.8656
▁تشخيص	-10.8661
تقام	-10.8661
▁شاركت	-10.8663
▁الخلية	-10.8664
▁بنقل	-10.8664
▁اهل	-10.8668
▁لاجل	-10.8669
▁الوظائف	-10.8671
توضيح	-10.8672
مسلحين	-10.8673
▁هيكل	-10.8673
الذي	-10.8673
▁غري	-10.8673
سفر	-10.8675
مساهمة	-10.8676
▁بشرق	-10.8678
▁وجبة	-10.868
شتبه	-10.8686
تلبية	-10.8686
▁الشيء	-10.8686
▁وزوجته	-10.8687
▁بيرن	-10.8688
▁هائل	-10.8688
▁المفاجئ	-10.8691
الام	-10.8693
▁واشاد	-10.8696
▁نقلته	-10.8697
▁اثارة	-10.8698
الكثير	-10.8699
▁الشقيق	-10.871
▁اياب	-10.8712
▁خوض	-10.8714
▁المواقف	-10.8716
وحش	-10.8718
▁تفجيرات	-10.8719
▁صناديق	-10.8719
▁مشجع	-10.8723
▁تدريجيا	-10.8728
▁الحراك	-10.8732
▁الامعاء	-10.8735
▁المحققون	-10.8735
ئن	-10.8736
▁الضارة	-10.8736
▁الجيد	-10.8737
▁ووجد	-10.8737
عضو	-10.8739
▁موقفه	-10.8741
▁جهات	-10.8743
ؤمن	-10.8744
سكاي	-10.8744
▁الانقسام	-10.8744
سمي	-10.8745
▁تنظيف	-10.8746
▁واليمن	-10.8748
▁الحذر	-10.8749
▁ماركوس	-10.8753
▁ويشير	-10.8755
▁المقال	-10.8756
▁قيم	-10.8757
▁قنابل	-10.8764
▁الحادثة	-10.8765
▁تفاعل	-10.8766
▁تزداد	-10.8767
▁المسار	-10.8768
▁توضح	-10.8769
▁بحوالي	-10.8769
▁الحرارية	-10.877
▁تعهدت	-10.877
▁بالمنطقة	-10.8772
قبة	-10.8772
▁الشروط	-10.8776
▁واقر	-10.8778
▁تنتشر	-10.8781
▁منفصل	-10.8783
▁توتنهام	-10.8784
▁اثينا	-10.8784
▁انطونيو	-10.8784
▁كفاءة	-10.8784
▁مغلقة	-10.8784
▁الجالية	-10.8787
▁تظاهرة	-10.8788
▁وسا	-10.8789
▁جزر	-10.8791
معالجة	-10.8791
▁الجماعية	-10.8793
سلطة	-10.8795
▁رصدت	-10.8796
▁الدماغية	-10.8798
▁علني	-10.8799
▁باتخاذ	-10.8802
شبكة	-10.8811
▁محب	-10.8811
طبيعة	-10.8818
▁القيم	-10.8819
▁لتحرير	-10.8821
▁جامع	-10.8822
▁وباء	-10.8823
▁الحقيقية	-10.8825
اكتئاب	-10.8827
حرج	-10.8828
▁مئوية	-10.8833
▁الجزاء	-10.8833
▁تقبل	-10.8834
▁الاسماك	-10.8834
▁متعلق	-10.8834
▁بوكو	-10.8835
▁الانظمة	-10.8846
▁اجلاء	-10.8849
▁التعليمية	-10.8851
▁المحلل	-10.8851
▁ماركو	-10.8854
▁واسبانيا	-10.8855
▁سلبية	-10.8858
▁تطلق	-10.886
▁رابعة	-10.8863
تكلم	-10.8865
عتاد	-10.887
▁تصور	-10.8873
▁ارتباط	-10.8875
en	-10.8876
▁طريقه	-10.8877
▁للجميع	-10.888
▁استدعاء	-10.888
▁رين	-10.8881
▁تصنيع	-10.8882
▁ساكسونيا	-10.8882
▁الدعوي	-10.8882
▁عروض	-10.8882
▁للسلطات	-10.8882
▁تركيب	-10.8886
يلولة	-10.8887
لبي	-10.8889
▁كويس	-10.8891
▁اذن	-10.8895
▁وتوصل	-10.8896
لاطاحة	-10.8896
▁الشعوب	-10.8897
▁عرضت	-10.8905
▁مرسيدس	-10.8905
يعة	-10.8908
▁ايد	-10.8913
▁الحاد	-10.8915
▁بسوريا	-10.8918
▁رائعة	-10.8921
▁راسه	-10.8921
▁فئة	-10.8924
▁تفاقم	-10.8924
▁ومنظمة	-10.8925
▁العمالة	-10.8926
تراكم	-10.8927
كاب	-10.8929
▁خطابه	-10.893
▁فرنسوا	-10.8932
▁72	-10.8932
▁البيئية	-10.8935
▁تقسيم	-10.8936
▁ودخل	-10.8939
▁بدوري	-10.8939
▁تقام	-10.894
▁الثنائية	-10.8942
▁لمنصب	-10.8943
▁الخطيرة	-10.8945
نظام	-10.8949
▁المخطط	-10.8951
▁لعقد	-10.8952
▁احتفالات	-10.8953
▁سكنية	-10.8957
▁بعمليات	-10.8961
▁ومس	-10.8962
▁هداف	-10.8963
دعوة	-10.8967
▁العادية	-10.8967
▁للعام	-10.8968
▁كتل	-10.8973
▁بيك	-10.8981
▁التلاميذ	-10.8981
▁السجائر	-10.8981
▁مسئول	-10.8981
▁يعادل	-10.8981
يوس	-10.8982
▁تعقد	-10.8982
▁موقعه	-10.8983
▁علقت	-10.8983
امتناع	-10.8984
تشو	-10.8984
▁النقض	-10.8985
▁الجبير	-10.8985
▁غيدو	-10.8986
▁حملت	-10.8988
▁وصفته	-10.8988
الرئيس	-10.8989
▁ساحل	-10.8989
▁توني	-10.8989
▁2021)	-10.8992
ربح	-10.8992
▁المشاورات	-10.8993
راديو	-10.8995
▁وحذرت	-10.8996
▁واظهر	-10.8997
▁يؤيد	-10.8997
حتوي	-10.8998
اختبار	-10.9
▁الحوادث	-10.9001
▁واجري	-10.9003
▁معاقل	-10.9004
▁سرا	-10.9005
▁الاحتياطي	-10.9008
▁يوفر	-10.9009
▁لاوروبا	-10.9013
رحلة	-10.9014
نطلق	-10.9014
مئات	-10.9015
▁عينات	-10.9015
هزيمة	-10.9016
ظهور	-10.9018
▁يخرج	-10.9019
ممكن	-10.902
سيادة	-10.9022
▁متشدد	-10.9027
▁العادة	-10.9027
▁بعقد	-10.9029
▁احتجاج	-10.9031
▁يقبل	-10.9031
▁تقتصر	-10.9031
▁المؤهلة	-10.9031
▁للسيارات	-10.9031
▁شهادة	-10.9032
▁نصيب	-10.9034
▁المخصصة	-10.9034
90	-10.9037
تقدير	-10.9038
▁ابنه	-10.9041
▁سائح	-10.9045
▁كسر	-10.9048
صداقة	-10.9049
▁85	-10.905
▁يختلف	-10.9051
▁الفلسطينيون	-10.9056
▁الطعن	-10.906
▁الازرق	-10.9061
▁استجابة	-10.9061
▁مايكروسوفت	-10.9062
ائنا	-10.9066
▁الاصلية	-10.9067
ملابس	-10.9069
▁عملها	-10.9073
▁اولية	-10.9075
▁تغييرات	-10.9076
▁العزل	-10.908
هور	-10.908
▁العظيم	-10.9082
▁الزائد	-10.9082
▁كرامب	-10.9082
زملاء	-10.9082
▁المسلمة	-10.9082
▁اسرته	-10.9086
▁تاكد	-10.9086
لمس	-10.909
▁53	-10.909
▁مقرب	-10.909
▁بيزود	-10.9092
▁انتخابه	-10.9092
اتش	-10.9093
▁لاتخاذ	-10.9093
مدد	-10.9096
عزيز	-10.9098
▁الشمل	-10.9098
▁جسر	-10.9099
▁وواشنطن	-10.9107
▁(3	-10.9108
▁الشحن	-10.9112
▁جذب	-10.9114
▁فلسطينيين	-10.9118
شرطة	-10.9124
▁يعتقدون	-10.9128
▁49	-10.913
▁الحافلة	-10.9132
▁غوتسه	-10.9132
قافلة	-10.9132
▁طلاب	-10.9133
al	-10.9134
▁مرتفع	-10.9134
▁يحق	-10.9138
▁تساؤلات	-10.914
احتجاج	-10.9142
▁تركيز	-10.9143
تزود	-10.9144
▁جريدة	-10.9145
▁اقترب	-10.9148
▁وحاول	-10.9149
▁توحيد	-10.915
▁واجب	-10.9154
▁اسطورة	-10.9156
حملة	-10.9157
يجري	-10.9159
▁بشن	-10.9159
▁اسفه	-10.9161
جبل	-10.9167
▁مجهول	-10.9168
رجال	-10.9169
▁يعزز	-10.9171
▁صعبا	-10.9171
ترشح	-10.9174
احباط	-10.9176
.9	-10.9176
▁الهدوء	-10.918
روسيا	-10.9182
▁الاثيوبي	-10.9183
▁الاضواء	-10.9183
▁الكلاب	-10.9183
▁شاحنة	-10.9184
▁الرحيل	-10.9184
▁البنوك	-10.9185
▁اثبت	-10.9188
وفد	-10.919
اخو	-10.919
▁الشبان	-10.919
▁الوباء	-10.9192
تنديد	-10.9193
جموع	-10.9197
29	-10.9199
ضربة	-10.9199
▁مصمم	-10.9208
▁عزم	-10.9208
▁السعوديين	-10.9209
▁منتجع	-10.921
▁الحدودي	-10.9211
▁فهذا	-10.9211
▁اهلية	-10.9214
▁نوعية	-10.9217
▁يغادر	-10.9218
▁تعاقد	-10.9219
▁وقطر	-10.9221
▁العكس	-10.9221
▁تقرر	-10.9223
▁عنصرا	-10.9225
عسكر	-10.9227
▁الانتباه	-10.9234
▁الرصاص	-10.9234
▁دريسدن	-10.9234
نعتقد	-10.9234
مساندة	-10.9236
يدا	-10.9236
▁بنجاح	-10.9237
▁انتقاله	-10.9237
▁محاكمته	-10.9241
▁صفوفه	-10.9241
▁نسخ	-10.9244
▁هير	-10.9246
▁بيوفر	-10.9249
اليوم	-10.925
فري	-10.9251
▁القصيرة	-10.9253
▁بحقوق	-10.9258
▁عسكريين	-10.9259
▁فك	-10.9259
جلب	-10.9259
▁مقترح	-10.926
▁المهاجمين	-10.9262
▁العقار	-10.9266
▁حشد	-10.9267
موسيقي	-10.9274
فاي	-10.9276
▁الدو	-10.9278
▁اختطاف	-10.9281
خصوص	-10.9282
▁ممكنة	-10.9284
▁تخزين	-10.9285
▁مغادرته	-10.9286
فائدة	-10.9286
ستقبل	-10.9286
▁استقال	-10.9287
▁نظرة	-10.9288
▁الحسين	-10.9288
▁للبرلمان	-10.9296
▁جهادي	-10.9297
حوالي	-10.9297
▁فترات	-10.9302
▁الثماني	-10.9304
مخالف	-10.9305
كوس	-10.9307
▁يغير	-10.9308
دفن	-10.9308
نطوي	-10.9314
تاجر	-10.9317
▁شتي	-10.9318
▁المصالح	-10.932
▁لمثل	-10.932
▁وتوقع	-10.9322
فتيات	-10.9323
▁اياها	-10.9324
سيء	-10.9325
▁تشبه	-10.9326
▁اصدرته	-10.9327
▁عجز	-10.933
▁الجليد	-10.9334
▁بدوي	-10.9335
▁يدرس	-10.9335
انشطة	-10.9336
▁غوتيريش	-10.9337
▁للانضمام	-10.9337
▁المحظور	-10.9337
▁الاطفاء	-10.9337
▁علاقته	-10.9337
محادثات	-10.9337
▁اساسيا	-10.9338
▁الدقيقتين	-10.9339
رائ	-10.9339
▁الجلوس	-10.9339
حتفظ	-10.934
▁الزيادة	-10.9341
عظم	-10.9342
قاوم	-10.9346
شاء	-10.9348
▁الجدير	-10.9348
▁اخت	-10.9348
▁جيمس	-10.9349
▁بالاس	-10.9351
▁الصناعة	-10.9352
▁المعتقل	-10.9352
ضيق	-10.9353
▁عنيف	-10.9355
▁للحوار	-10.9355
رير	-10.9356
تعدي	-10.9357
▁وفتح	-10.9357
▁البرتغال	-10.9358
▁تشعر	-10.936
▁اخطاء	-10.936
▁عمق	-10.9362
▁الشغل	-10.9362
▁لهما	-10.9363
▁رات	-10.9364
لط	-10.9367
ومة	-10.9367
▁يتابع	-10.9367
▁العالية	-10.9368
▁الشتوية	-10.9369
▁ورجال	-10.9373
▁تنشر	-10.9374
▁بقوله	-10.9378
تقارير	-10.9379
▁المهندس	-10.9379
▁فكر	-10.9379
دويتشه	-10.9381
▁بارك	-10.9382
▁فولف	-10.9385
لتلك	-10.9386
كبار	-10.9386
▁مرتفعة	-10.9386
▁للسيطرة	-10.9388
▁اختبارات	-10.9389
▁1-	-10.9392
▁اوامر	-10.9392
تعادل	-10.9393
▁مستهل	-10.9393
▁جواد	-10.9393
▁وتوفير	-10.9393
▁بيونغ	-10.9394
محاسبة	-10.9398
▁لمس	-10.9399
▁ساني	-10.9399
▁مقرر	-10.94
تخصص	-10.9401
▁القلبية	-10.9401
500	-10.9402
▁a	-10.9403
عبوات	-10.9405
▁(4	-10.9406
▁وحكم	-10.9406
▁كردي	-10.9406
▁يصب	-10.9409
▁اقالة	-10.9411
▁ثالثة	-10.9412
▁سرقة	-10.9413
▁رياضي	-10.9415
▁استعادت	-10.9416
▁الانتهاء	-10.9417
▁لوسائل	-10.9425
▁يانغ	-10.9426
▁الموالين	-10.9428
▁العائلات	-10.9429
▁عمرها	-10.9429
اشخاص	-10.9435
مراكز	-10.9437
_	-10.9441
▁المنتهية	-10.9441
▁متنوعة	-10.9442
▁1967	-10.9442
▁المفروض	-10.9446
▁الذاتي	-10.9447
▁الاستعا	-10.945
▁نظمت	-10.945
خلال	-10.945
▁سماع	-10.9452
▁الوافدين	-10.9455
طالما	-10.9456
▁الفئة	-10.9459
▁يفقد	-10.946
▁متهمين	-10.9461
▁عطل	-10.9462
▁ويعمل	-10.9462
▁الحشرات	-10.9463
مق	-10.9463
▁تكلفة	-10.9466
▁جوزيف	-10.9468
▁الفوري	-10.9469
▁اجراه	-10.947
▁ميزانية	-10.9474
صراع	-10.9475
▁شخصيا	-10.9478
▁للتنظيم	-10.9478
▁مستشفيات	-10.9478
▁مخرج	-10.948
بسط	-10.9485
اندماج	-10.9486
الخميس	-10.9487
مبادئ	-10.9488
▁مصنع	-10.9491
▁شويبله	-10.9493
▁وتحسين	-10.9493
▁السبسي	-10.9493
▁بالاسلحة	-10.9494
مادة	-10.9494
▁الشديدة	-10.9495
تحفظ	-10.9497
▁جماعي	-10.95
▁ورش	-10.9502
▁وابلغ	-10.9503
▁اعتقاله	-10.9504
سلسلة	-10.9505
▁الحجر	-10.9506
▁قياس	-10.9508
▁وشددت	-10.951
▁استخدامه	-10.9511
▁لتامين	-10.9512
▁ويقوم	-10.9514
an	-10.9516
غزو	-10.952
▁تحدي	-10.9524
,5	-10.9525
تاب	-10.953
▁يربط	-10.953
قاموا	-10.953
▁ارضية	-10.9534
كبد	-10.9537
قيل	-10.9537
▁بلده	-10.9538
برامج	-10.9539
المستشارة	-10.954
▁دائمة	-10.9541
▁يحضر	-10.9541
توقيف	-10.9541
▁المقيمين	-10.9544
▁مزود	-10.9545
▁وعلق	-10.9545
موظف	-10.9546
ميثاق	-10.9546
▁اسقطت	-10.9546
بيو	-10.9547
تبلغ	-10.9547
▁البلدية	-10.9548
▁للتعاون	-10.9549
▁هان	-10.955
▁ومر	-10.955
اسرائيل	-10.9554
▁اعاد	-10.9555
▁دستور	-10.9558
▁دعمها	-10.9561
▁سبورت	-10.9564
اتفاق	-10.9564
حرف	-10.9564
▁محتجز	-10.9571
بروك	-10.9572
▁متخصص	-10.9573
سيو	-10.9575
▁الصمت	-10.9578
شاد	-10.9582
▁حصد	-10.9582
▁فول	-10.9582
▁الاكتشاف	-10.9583
نيو	-10.9587
▁يتغير	-10.9591
▁غرا	-10.9591
▁جلد	-10.9592
حافة	-10.9593
مختلف	-10.9594
▁ناديه	-10.9598
▁المحتجزين	-10.9599
▁اتمام	-10.9599
▁الافتراضي	-10.96
▁كريستوف	-10.9602
▁ميديا	-10.9604
▁جولي	-10.9605
▁المذكور	-10.9605
▁لوكا	-10.9605
▁الجندي	-10.961
▁باخ	-10.9612
▁ناصر	-10.9614
▁الحصيلة	-10.9619
▁متطرف	-10.9621
▁تعطي	-10.9622
▁المشكلات	-10.9623
تعود	-10.9625
▁مواز	-10.9626
▁محافظات	-10.9627
نهايم	-10.9631
▁مطلوب	-10.9631
▁لابد	-10.9631
▁بقايا	-10.9634
▁طعام	-10.9635
▁مكثفة	-10.9641
▁بالفوز	-10.9642
▁مميز	-10.9642
▁ومعارض	-10.9646
▁المناخي	-10.9648
تمني	-10.9649
▁وهنا	-10.9649
▁طفيفة	-10.9652
▁ذمة	-10.9652
▁لانتقادات	-10.9652
▁تنتمي	-10.9652
▁قدمه	-10.9655
عجل	-10.9655
▁المكلف	-10.9659
▁دقيق	-10.9661
▁افعال	-10.9664
سري	-10.9664
ساينس	-10.9665
▁اطاحت	-10.9665
▁التطعيم	-10.9666
▁للرئاسة	-10.9667
▁الوحدات	-10.9668
▁نادرة	-10.967
سفير	-10.9674
▁تنامي	-10.9676
▁الكبار	-10.9676
▁تفقد	-10.9677
ابا	-10.9679
▁المؤكد	-10.9682
يبدو	-10.9682
▁ينوي	-10.9685
▁الحساسية	-10.9687
▁تثبت	-10.9687
▁للهجوم	-10.9688
▁للبيئة	-10.969
▁يراس	-10.969
▁حدثت	-10.9693
▁رحلته	-10.9694
▁جمهور	-10.9696
▁تدل	-10.9698
▁لنحو	-10.9704
▁ابتداء	-10.9705
▁وحلفائه	-10.9705
▁جاويش	-10.9705
▁يصاب	-10.9706
▁اربيل	-10.9708
▁علاء	-10.9712
فوضي	-10.9712
▁وشيك	-10.9713
▁بسيط	-10.9716
▁ذكرته	-10.9716
الان	-10.9716
▁نهج	-10.9717
تتميز	-10.9719
▁اصدره	-10.972
▁تمكنوا	-10.972
ريان	-10.972
▁المعادية	-10.9722
▁الدولارات	-10.9724
▁انتر	-10.9725
▁اوقع	-10.9728
جوهر	-10.9731
▁تكوين	-10.9731
▁مكاتب	-10.9733
سبورغ	-10.9733
▁لابحاث	-10.9736
▁عقار	-10.9746
▁اتصل	-10.9748
▁نزع	-10.975
تمهيدا	-10.9751
مبلغ	-10.9751
▁خير	-10.9753
▁مراقب	-10.9756
▁منعت	-10.9757
▁لاختيار	-10.9757
▁الديموقراطية	-10.9758
▁لعمليات	-10.9759
▁وبيقلل	-10.9759
▁الحاضر	-10.9759
▁54	-10.976
▁الصليب	-10.976
▁محتاج	-10.976
▁القاتل	-10.976
▁الرباط	-10.9761
▁قاصر	-10.9762
▁الاخباري	-10.9766
▁الادب	-10.9767
▁وقطع	-10.9771
▁برلمانية	-10.9772
▁مطعم	-10.9776
▁المسلح	-10.9777
▁الاماراتية	-10.9778
لد	-10.9779
▁فرح	-10.9779
▁فانها	-10.9782
▁الحربية	-10.9782
▁شددت	-10.9783
▁السوبر	-10.9784
▁اضعاف	-10.9789
▁تخضع	-10.9791
▁جعلت	-10.9791
▁تخطط	-10.9792
▁الكتب	-10.9793
واحد	-10.9797
▁اخبارية	-10.9799
▁العامل	-10.98
باستيان	-10.9801
▁كاي	-10.9802
▁اوف	-10.9803
ليب	-10.9806
▁للعالم	-10.9809
▁الافكار	-10.981
▁جنسيا	-10.9811
▁القطار	-10.9811
▁ماكس	-10.9812
حكومات	-10.9812
▁الاسعاف	-10.9813
▁قنوات	-10.9813
▁الفائت	-10.9813
▁الغابات	-10.9813
ديس	-10.9819
▁الشوري	-10.982
▁تعترف	-10.9824
▁الوطن	-10.9826
▁نوعا	-10.9827
علاقة	-10.9829
▁غور	-10.9831
▁الساسة	-10.9831
▁السعي	-10.9838
▁61	-10.9839
▁والقي	-10.9839
مست	-10.984
▁سد	-10.9841
▁روت	-10.9841
▁جنسي	-10.9842
▁مقاتلة	-10.9844
لوف	-10.9847
▁التشريع	-10.985
ئد	-10.9851
▁وجهات	-10.9856
▁القسم	-10.9857
▁يتحمل	-10.9859
قلة	-10.9859
▁وعود	-10.9863
معدات	-10.9866
موضوع	-10.9866
▁قاضي	-10.9867
▁وارتفع	-10.9867
▁النيجيري	-10.9867
▁يصيب	-10.9867
▁اقبال	-10.9867
▁الشباك	-10.987
▁وبعدها	-10.9871
▁القيمة	-10.9875
▁الاحصاء	-10.9875
▁وبسبب	-10.9876
▁زيت	-10.9876
بنك	-10.988
▁المظاهرة	-10.988
▁فرانسوا	-10.9882
▁يركز	-10.9884
▁ابلغت	-10.9884
▁رياضية	-10.9887
▁حان	-10.9887
▁تجدد	-10.9888
نقذ	-10.9889
▁كتابة	-10.9892
▁بالدوري	-10.9893
▁التغير	-10.9895
▁يفرض	-10.9896
ماساوي	-10.9896
▁للارهاب	-10.9901
▁الاذن	-10.9902
▁الرسوم	-10.9905
▁لليهود	-10.9908
▁وبن	-10.9908
▁56	-10.9908
▁يدرك	-10.9909
ختلف	-10.9914
▁الواسعة	-10.9914
▁تشجيع	-10.9916
▁رود	-10.9916
▁شكوك	-10.9919
التحريض	-10.9921
▁ستوكهولم	-10.9922
▁كثيف	-10.9922
▁الكوكب	-10.9922
يغر	-10.9923
فول	-10.9925
▁ووسائل	-10.9926
▁لوحة	-10.9926
▁كيلومترات	-10.9926
▁طرفي	-10.9927
▁لشبكة	-10.9927
▁اندماج	-10.9928
نوبات	-10.9928
▁الساخر	-10.9928
▁لقاءات	-10.9928
▁التحرش	-10.9933
▁اسهم	-10.9933
▁الاخطاء	-10.9934
▁هدنة	-10.9934
▁السمك	-10.9937
ساب	-10.9945
▁المضي	-10.9945
سيئ	-10.9945
كميات	-10.9946
▁وعقب	-10.9947
تعذيب	-10.9949
▁لحين	-10.9951
▁النازحين	-10.9952
▁(7	-10.9954
▁المساواة	-10.9954
علينا	-10.9955
كافة	-10.9958
▁قطار	-10.9959
▁اللاجئون	-10.9962
تشي	-10.9969
48	-10.997
▁لدفع	-10.9973
▁التفتيش	-10.9977
▁البلقان	-10.9977
▁المثليين	-10.9977
▁حاشدة	-10.9977
▁محذرا	-10.9977
▁المقاتلة	-10.9978
▁الضائع	-10.9978
▁ليها	-10.9978
اختيار	-10.9979
▁الحجم	-10.9983
▁بياثر	-10.9984
▁2-	-10.9984
▁لفت	-10.9985
▁ينطبق	-10.9987
▁مكثف	-10.9988
▁مقربة	-10.9989
▁بتناول	-10.9989
▁الجثث	-10.9991
محاولات	-10.9993
فيش	-10.9997
مزق	-10.9999
وتس	-11
▁ويعود	-11.0004
▁امدادات	-11.0005
▁تتهم	-11.0005
▁العظام	-11.0009
▁استقبلت	-11.0009
▁المشارك	-11.001
هواتف	-11.0014
▁جزئيا	-11.0015
▁اسبانية	-11.0016
اعط	-11.0019
▁للنادي	-11.002
▁مول	-11.0026
▁والعنف	-11.0031
▁حددت	-11.0032
▁التحضير	-11.0032
▁فولفغانغ	-11.0032
▁طاولة	-11.0032
▁الاسعار	-11.0033
▁معقدة	-11.0035
▁حظي	-11.0035
ونغ	-11.0036
▁جنب	-11.0037
تنتهي	-11.0037
▁اريد	-11.0039
▁اركان	-11.004
▁ضخم	-11.004
صدم	-11.0041
▁والغرب	-11.0044
▁الدائم	-11.0045
▁المفرط	-11.0045
▁حاجز	-11.0046
معادن	-11.0046
▁المساء	-11.0049
▁الالب	-11.0051
تالف	-11.0051
▁سيئة	-11.0052
▁ويامل	-11.0052
الحفاظ	-11.0056
▁الصنع	-11.0065
▁بالقوة	-11.007
▁رائع	-11.0071
▁مطالبا	-11.0072
خدمة	-11.0072
▁الموجود	-11.0076
لدي	-11.0078
▁قصفت	-11.0079
▁استغل	-11.0079
▁ابي	-11.0081
ومي	-11.0081
▁ستيفن	-11.0082
▁الفم	-11.0082
▁شركاء	-11.0088
▁انقسام	-11.0088
▁ناخب	-11.0088
دوافع	-11.0088
نيران	-11.0089
▁العريق	-11.0089
▁سمع	-11.0097
▁اكتشفت	-11.0098
▁بتوفر	-11.0098
▁اللعبة	-11.0099
▁1500	-11.0102
▁كردية	-11.0104
▁تجاري	-11.0104
لاستعادة	-11.0106
▁سيف	-11.0107
تاهب	-11.0107
▁يضيف	-11.0107
▁هونيس	-11.0108
▁بوريس	-11.011
▁محت	-11.011
▁حافظ	-11.011
▁بسيارة	-11.0111
▁اوساط	-11.0112
▁تقلل	-11.0114
▁الحديدية	-11.0114
▁مليوني	-11.0114
مشكلة	-11.0117
المانيا	-11.0124
باخ	-11.0127
بوس	-11.0127
▁تمسك	-11.0129
▁برفع	-11.0131
▁باحث	-11.0134
▁باك	-11.0138
قاس	-11.0138
▁ميانمار	-11.0144
▁سفارة	-11.0144
▁المزمع	-11.0144
▁المرشد	-11.0144
▁اختطف	-11.0144
▁الاديان	-11.0145
▁يمارس	-11.0145
▁الخل	-11.0145
▁بمجلس	-11.0146
خسارة	-11.0146
▁العلوم	-11.0146
تسمح	-11.0147
احتجاز	-11.015
▁الديون	-11.0153
راين	-11.0153
▁وسع	-11.0163
▁نقله	-11.0164
▁ملح	-11.0167
▁الحاكمة	-11.0167
▁يواجهون	-11.0167
ضل	-11.0168
؟".	-11.0172
ديل	-11.0176
▁لانهم	-11.0176
▁ووقف	-11.0178
▁لتفادي	-11.0178
▁سراحه	-11.018
▁الهام	-11.0185
▁لخطر	-11.0186
▁تسهيل	-11.0187
▁خرق	-11.0187
▁غرو	-11.0193
تخوف	-11.0194
▁قراء	-11.0195
▁اجتمع	-11.0196
▁ريد	-11.0199
ندية	-11.0199
▁البيشمركة	-11.02
▁التجميل	-11.02
▁القضاة	-11.02
▁ساعتين	-11.02
▁تشن	-11.02
▁بالاجماع	-11.02
▁قاسية	-11.02
▁الفكر	-11.0202
▁احتمالات	-11.0203
▁المشاهد	-11.0203
▁ونظيره	-11.0205
▁الضربة	-11.0207
▁كلية	-11.0208
▁بتساعد	-11.0208
▁لسنوات	-11.0218
▁بالمدينة	-11.0218
▁حلفاء	-11.0225
لرئاسة	-11.0226
▁فلسطينيا	-11.0227
▁ايف	-11.0227
▁المعسكر	-11.0227
ائز	-11.0229
▁المعدل	-11.0235
▁المقر	-11.0238
▁تعتقد	-11.0238
▁المجالات	-11.024
▁موضع	-11.024
▁نكون	-11.0243
▁للخروج	-11.0244
▁فورت	-11.0246
شجاعة	-11.0247
▁ستين	-11.0249
▁جاك	-11.025
ارقام	-11.0251
34	-11.0252
▁البرد	-11.0253
▁المقرب	-11.0254
▁اللندني	-11.0256
▁اغتصاب	-11.0256
▁والثلاثين	-11.0256
▁الاركان	-11.0256
▁لقطات	-11.0257
▁الهائل	-11.0257
▁الطيب	-11.0259
▁للتعبير	-11.0266
▁استقبل	-11.0267
▁طالت	-11.027
▁مفيد	-11.0273
▁البول	-11.0275
▁والاطفال	-11.0278
قدرة	-11.0279
ميكرو	-11.0283
▁سببا	-11.0286
▁تعلق	-11.0286
▁ردت	-11.0287
▁يؤ	-11.029
▁قياسية	-11.029
▁سكن	-11.0291
ورا	-11.0292
حيل	-11.0294
▁ممثلو	-11.0295
▁هاتفيا	-11.0295
▁علق	-11.0295
▁سباقات	-11.0302
خصص	-11.0306
▁روز	-11.031
▁اعضائه	-11.0313
▁تاشيرة	-11.0313
▁مختص	-11.0313
▁غاضب	-11.0313
▁كثب	-11.0313
▁الرياح	-11.0314
▁تاخير	-11.0314
مجزرة	-11.0314
▁تبعات	-11.0315
▁افرج	-11.0316
فقد	-11.0319
ارتداء	-11.032
▁اخطر	-11.0322
▁اصلا	-11.0322
▁ابان	-11.0323
▁الحروب	-11.0324
▁الديمقراطيين	-11.0325
▁التصرف	-11.0328
▁تامل	-11.0333
▁لاس	-11.0333
ينتهي	-11.0334
▁التكاليف	-11.0336
▁اخلاء	-11.0337
▁فرز	-11.0337
▁يترك	-11.0344
▁النزاعات	-11.035
▁الجسد	-11.035
▁قارب	-11.035
عدوان	-11.0352
اخفاء	-11.0358
▁سلمية	-11.0358
▁يفوز	-11.0359
▁صمت	-11.0364
اصاب	-11.0365
21	-11.0368
▁قار	-11.0368
▁الانتظار	-11.037
▁التحكيم	-11.037
▁المخضرم	-11.037
▁النشطاء	-11.037
▁الالقاب	-11.037
▁لتوفير	-11.037
▁بارسال	-11.037
▁الاكاديمية	-11.0371
▁المبرم	-11.0371
▁الاضافي	-11.0374
▁محور	-11.0375
▁66	-11.0375
تزوير	-11.0376
هدوء	-11.0376
▁قرن	-11.038
ثقل	-11.038
▁المعتدل	-11.0381
▁الحمر	-11.0381
▁تقريرها	-11.0381
مجموعات	-11.0382
اخفاق	-11.0382
▁شتيف	-11.0383
▁انفاق	-11.0384
▁سيادة	-11.0384
▁ويطالب	-11.0387
▁يهودي	-11.0388
▁للشباب	-11.0389
▁هجرة	-11.0391
▁صوب	-11.0392
▁والدفاع	-11.0392
▁المدرس	-11.0393
▁68	-11.0394
▁لايجاد	-11.04
▁المناهض	-11.0401
▁للاحتجاج	-11.0401
▁محرك	-11.0406
واشنطن	-11.0407
▁يلي	-11.041
▁59	-11.0411
▁الاختبارات	-11.0413
شاعر	-11.0415
▁المارة	-11.0416
▁جرح	-11.0417
▁مقدمة	-11.0418
▁شيعية	-11.0418
حيرة	-11.0419
▁ويستفاليا	-11.0419
▁الوراثية	-11.0421
الاسلام	-11.0421
▁يحذر	-11.0426
▁بشرية	-11.0427
▁شكوي	-11.0427
▁بالقاهرة	-11.0428
▁كمبيوتر	-11.043
▁يرجح	-11.043
▁الصلب	-11.0431
▁المناعي	-11.0431
اختطاف	-11.0433
▁الجزر	-11.0433
▁تقليد	-11.0434
▁افريقية	-11.0435
تجربة	-11.0436
▁وامام	-11.0437
ستبدا	-11.0441
شكوي	-11.0442
▁مهامه	-11.0442
▁جورجيا	-11.0443
تعمد	-11.0443
انتشار	-11.0445
▁وليام	-11.0445
▁السعرات	-11.0448
▁غرف	-11.0449
▁الثقيلة	-11.0449
▁الحيوي	-11.0449
صيد	-11.045
▁تغريدات	-11.0451
ذاكرة	-11.0453
▁الغالب	-11.0459
▁طابع	-11.046
▁مضيق	-11.0461
▁شارل	-11.0465
تفاؤل	-11.0465
▁وتعادل	-11.0466
شيء	-11.0466
ترات	-11.0467
▁لفريقه	-11.0467
معاقبة	-11.0471
▁دستورية	-11.0474
▁يحكم	-11.0474
▁تدريبات	-11.0477
▁البدنية	-11.0478
فتقر	-11.0482
▁الطبقة	-11.0482
▁شتا	-11.0484
▁اوائل	-11.0484
▁ونفي	-11.0485
▁المهدي	-11.0488
▁كسب	-11.0497
▁جوهر	-11.0501
▁الاعتصام	-11.0501
▁مغربي	-11.0503
▁للنزاع	-11.0506
▁الحراري	-11.0508
▁تضر	-11.0509
▁والمجتمع	-11.0511
▁الميزانية	-11.0512
▁الحبس	-11.0513
▁للتواصل	-11.0515
فكرة	-11.0516
▁الحظ	-11.0518
عمليات	-11.0521
▁تحفظ	-11.0522
▁متظاهر	-11.0522
▁اصاب	-11.0523
▁السلوك	-11.0524
▁انصاره	-11.0526
▁رضا	-11.0527
▁تفعل	-11.053
▁مدارس	-11.053
▁اساليب	-11.0531
ثمان	-11.0531
▁يمينية	-11.0532
▁تنوي	-11.0534
▁بريد	-11.0536
▁بغض	-11.0537
▁(2	-11.0538
▁للتصدي	-11.0538
▁لوس	-11.0539
▁اليساري	-11.0542
▁سانشيز	-11.0544
▁التونسيين	-11.0544
▁الاوعية	-11.0544
حجب	-11.0547
▁الاسترالية	-11.0549
▁المهنية	-11.0552
فريد	-11.0553
▁تاخذ	-11.0553
▁العملاء	-11.0554
تسامح	-11.0554
▁سقف	-11.0559
▁توازن	-11.0561
▁والجزائر	-11.0563
▁مطلق	-11.0564
ئيل	-11.0566
▁الجوار	-11.0566
▁تفتح	-11.0568
▁وضعه	-11.0568
▁داي	-11.0569
▁وتجري	-11.0571
▁متوقعا	-11.0574
▁كامب	-11.0575
▁قول	-11.0576
▁موقفها	-11.0581
▁جراحية	-11.0584
▁قيمته	-11.0588
▁خشي	-11.0588
▁وبقي	-11.0594
المجلس	-11.0594
▁والفن	-11.0596
▁للعنف	-11.0597
▁الصيد	-11.0599
z	-11.0602
▁الطقس	-11.0602
▁يرتكب	-11.0602
▁سلبا	-11.0602
▁تدعي	-11.0602
▁الاقلية	-11.0604
▁قوته	-11.0606
▁حجر	-11.0606
▁حصة	-11.0606
▁ياخذ	-11.0607
يتنا	-11.0612
ضاعف	-11.0615
▁لطلب	-11.0617
▁مخصصة	-11.0618
تطبيق	-11.062
▁المنظم	-11.0622
▁كيل	-11.0623
▁المسافرين	-11.0625
▁لتخفيف	-11.063
65	-11.0631
▁الاحتفالات	-11.0632
▁السابقين	-11.0632
▁شاشة	-11.0633
▁سارة	-11.0635
هدم	-11.0636
▁مكون	-11.0636
ستمع	-11.0636
▁فنان	-11.0638
الارهاب	-11.0639
سول	-11.064
▁جلب	-11.0642
▁الضخمة	-11.0644
▁تخصيص	-11.0645
▁ناد	-11.0645
▁رحل	-11.0645
▁والقوي	-11.0646
تكلف	-11.0647
كوت	-11.0647
▁الاناضول	-11.0648
▁حياتها	-11.0651
▁اشياء	-11.0652
▁برج	-11.0654
▁تتمثل	-11.0657
▁يتبع	-11.0659
▁فابيوس	-11.0661
▁وهولندا	-11.0661
▁مانديلا	-11.0661
▁الاسكندرية	-11.0661
▁الكنيست	-11.0661
▁عشوائي	-11.0661
▁اوقعت	-11.0664
توظيف	-11.0668
▁العبور	-11.0669
مشاريع	-11.0672
▁ادم	-11.0673
▁تمتلك	-11.0675
▁الحريات	-11.0679
▁جزئي	-11.0679
كير	-11.0683
▁درس	-11.0685
▁الخسائر	-11.0686
لفت	-11.069
المواد	-11.0692
▁'	-11.0694
▁الشراكة	-11.0694
▁لكم	-11.0695
▁اليسري	-11.0697
▁الارتفاع	-11.0697
re	-11.0699
▁الغرض	-11.0699
▁شعارات	-11.07
▁والتعليم	-11.07
▁التحدث	-11.0704
▁64	-11.0708
▁القطع	-11.0711
▁ستار	-11.0712
▁تتحمل	-11.0714
تقارب	-11.0716
▁الاختيار	-11.072
اضطهاد	-11.072
خريطة	-11.072
▁الاقبال	-11.072
▁التكتل	-11.072
▁ناحيته	-11.072
استكشاف	-11.072
▁وكما	-11.0722
▁ينتقل	-11.0722
الجيش	-11.0722
تسرب	-11.0722
▁الخريف	-11.0722
▁جدوي	-11.0723
▁لمرض	-11.0724
▁قديمة	-11.0726
▁وتري	-11.0729
نافذ	-11.0729
▁واطفال	-11.0729
تكليف	-11.073
ارتباط	-11.073
▁ثقته	-11.0731
▁البت	-11.0731
▁ملموسة	-11.0733
لور	-11.0733
دبلوماسي	-11.0734
▁مسبقا	-11.0737
on	-11.0741
▁ليصل	-11.0742
▁اسود	-11.0743
▁تحطمت	-11.0743
▁انجلترا	-11.0747
▁الاستماع	-11.0749
▁(1	-11.0751
▁الصراعات	-11.0751
ar	-11.0752
▁وارتفاع	-11.0752
▁متي	-11.0755
▁لوفتهانزا	-11.0757
▁مفاجئة	-11.0759
▁متاثر	-11.0765
ادا	-11.0768
▁بلدهم	-11.0769
▁الكريم	-11.0769
▁(8	-11.0771
▁ناقش	-11.0773
▁متحدثا	-11.0774
▁ادراج	-11.0775
▁تشو	-11.0776
▁تعديلات	-11.0777
▁الخيار	-11.0778
جزيئات	-11.078
▁الغماينه	-11.078
▁تصيب	-11.078
▁المشجعين	-11.078
ثروة	-11.0781
▁وخارج	-11.0783
▁باست	-11.0783
▁بارزاني	-11.0785
كتيبة	-11.0785
▁مكلف	-11.0786
▁شكر	-11.0786
كنت	-11.0788
▁ديمقراطي	-11.079
▁وعمل	-11.0793
▁والفرنسي	-11.08
اؤها	-11.08
▁التصفيات	-11.08
▁الخطورة	-11.0801
▁بحكم	-11.0803
▁دمرت	-11.0815
▁ينشر	-11.0817
▁(9	-11.0818
▁سقطوا	-11.0818
مقارنة	-11.0819
▁المطر	-11.082
▁المناخية	-11.0821
▁غسل	-11.0823
▁بوسطن	-11.0824
▁تقضي	-11.0825
▁الحديد	-11.0825
▁وشك	-11.0827
▁حجز	-11.0829
▁قلبية	-11.0829
▁المطل	-11.083
▁مدخل	-11.083
اسرع	-11.0831
ملاحقة	-11.0833
باشر	-11.0835
▁الحضور	-11.0839
▁كري	-11.084
▁يخشي	-11.084
▁يونكر	-11.084
▁متقدمة	-11.084
▁تسريب	-11.0841
اعياد	-11.0842
▁لبيع	-11.0843
ادعاء	-11.0845
▁دمج	-11.0845
وائد	-11.0845
▁خيارات	-11.0846
▁صفحات	-11.0847
▁روبن	-11.0848
رؤساء	-11.0848
▁عبده	-11.0849
▁الدنمارك	-11.0851
▁تحميل	-11.0852
▁القومية	-11.0852
▁كثر	-11.0855
رؤية	-11.0855
▁يسبق	-11.0856
▁سلال	-11.0856
برلين	-11.0858
مواجهة	-11.0859
▁قادمة	-11.0861
تفاقم	-11.0862
فرط	-11.0862
▁لجمع	-11.0863
▁ببرلين	-11.0866
▁ابدت	-11.087
▁التفجيرات	-11.0872
▁رياضة	-11.0873
نسون	-11.0874
▁خليج	-11.0874
▁الايجابية	-11.0876
▁سمك	-11.088
▁الجينات	-11.088
▁سمح	-11.0887
هيمنة	-11.0888
▁قل	-11.0888
▁تخرج	-11.0889
▁المذكورة	-11.0892
عجز	-11.0892
تجسس	-11.0894
مهاجمة	-11.0896
▁كارلسروه	-11.09
▁وافغانستان	-11.09
▁المولود	-11.09
▁سعادته	-11.09
▁برحيل	-11.0901
▁دموية	-11.0901
▁السعادة	-11.0902
▁الجيدة	-11.0903
▁وتتهم	-11.0904
تضح	-11.0905
▁رشا	-11.0907
▁اسفل	-11.0909
▁المفقودين	-11.0911
▁الاستثمارات	-11.0913
▁التضامن	-11.0914
▁متزايدة	-11.0914
انفجار	-11.0917
▁الجهادي	-11.0917
▁ويعيش	-11.0918
▁تنجح	-11.0919
واجب	-11.0919
▁الكيماوي	-11.0921
▁السنين	-11.0922
▁متجه	-11.0923
▁لاست	-11.0924
▁تحركات	-11.0925
▁الزجاج	-11.093
اتحاد	-11.093
لهجة	-11.093
لحكومة	-11.0931
▁مراقبون	-11.0932
▁اللاتي	-11.0933
زاد	-11.0933
امازون	-11.0937
▁بغرب	-11.0938
▁العادي	-11.0942
38	-11.0942
▁الوقوف	-11.0943
▁التوافق	-11.0945
▁باربعة	-11.0946
▁تسجل	-11.0946
▁انطلاقا	-11.0947
ايران	-11.095
▁ناجحة	-11.0952
الشعب	-11.0953
كتاب	-11.0955
▁شكلت	-11.0955
▁الري	-11.0958
▁علمي	-11.096
كارنباور	-11.096
▁سواريز	-11.096
▁قبرص	-11.096
شريحة	-11.0961
▁اللازم	-11.0962
▁اسامة	-11.0962
▁التحريض	-11.0962
36	-11.0964
▁الفحص	-11.0964
الاتحاد	-11.0964
▁67	-11.0965
▁اهالي	-11.0966
غذاء	-11.0967
▁وتونس	-11.0968
خاطئ	-11.0971
▁وامر	-11.0971
▁فضل	-11.0974
تسارع	-11.0976
كبير	-11.0977
▁يراه	-11.0978
▁وحقوق	-11.098
مود	-11.098
▁ثبت	-11.0981
▁للمجلس	-11.0982
▁لبناني	-11.0983
▁وطلبت	-11.0991
▁انفجارات	-11.0993
سبا	-11.0994
▁المبالغ	-11.0995
▁منظومة	-11.0995
غطي	-11.0996
▁ينفذ	-11.0997
▁مندوب	-11.0998
لدخول	-11.0999
▁اعتقاده	-11.0999
▁يرفع	-11.1001
▁زجاج	-11.1001
غلو	-11.1001
▁التعديل	-11.1003
▁ودع	-11.1008
▁الصم	-11.1009
▁بالامر	-11.1011
▁ادانة	-11.1013
▁للحياة	-11.1014
▁خوفا	-11.1017
▁تعارض	-11.1017
▁1999	-11.1021
▁رسالته	-11.1021
▁الفواكه	-11.1021
▁اكراد	-11.1022
▁فريدريش	-11.1022
▁قوبل	-11.1022
▁النهار	-11.1023
▁الدخل	-11.1024
▁حماة	-11.1025
▁بتخلي	-11.1028
▁التوقف	-11.1029
▁سيباستيان	-11.1029
▁يدل	-11.1031
رول	-11.1032
تاخر	-11.1032
قادة	-11.1032
▁مبان	-11.1033
ينبغي	-11.1034
▁بريس	-11.1036
سابق	-11.1037
▁التامين	-11.1037
صاروخ	-11.1039
▁منتدي	-11.1039
▁اتاح	-11.1039
ليست	-11.1041
▁المعايير	-11.1041
قبع	-11.1041
يشهد	-11.1043
حجز	-11.1045
▁الطرفان	-11.1046
▁ويهدف	-11.1047
▁صحيحة	-11.1047
▁هدفه	-11.1047
يسمح	-11.1048
ستعرض	-11.1054
▁بموجبه	-11.1054
▁اعلامي	-11.1057
▁تنفذ	-11.1059
▁الرابطة	-11.1059
▁غريمه	-11.1066
▁الشرعي	-11.1068
نامل	-11.1073
سائل	-11.1073
ستقر	-11.1075
▁المستهلكين	-11.1078
الامر	-11.1078
▁s	-11.1079
▁للشركة	-11.108
مشروبات	-11.108
▁امستردام	-11.1083
▁تسديد	-11.1083
▁المضيف	-11.1083
▁جولته	-11.1087
▁جدية	-11.109
▁الوعي	-11.109
▁وتناول	-11.1092
▁تجاهل	-11.1093
بحوث	-11.1094
▁لبرنامج	-11.1094
كامير	-11.1094
▁اسمها	-11.1098
كرم	-11.1099
مقابل	-11.1099
▁دبلوماسيون	-11.11
▁واسفرت	-11.1101
▁الزيتون	-11.1104
▁بالضرورة	-11.1104
▁اهتماما	-11.1107
▁سمحت	-11.1107
▁عار	-11.1107
▁يقولون	-11.111
▁تفهم	-11.1113
▁تعثر	-11.1114
▁دعمه	-11.1114
رمز	-11.1115
▁نصائح	-11.1117
89	-11.1117
▁لنفس	-11.1121
37	-11.1121
▁معدات	-11.1122
▁المنزلية	-11.1126
قائمة	-11.1127
▁شهريا	-11.1127
▁انتخب	-11.113
▁ميلاد	-11.113
▁بلدانهم	-11.1131
▁بالجيش	-11.1133
▁صيد	-11.1133
▁يخف	-11.1133
▁النور	-11.1134
▁بعين	-11.1136
مباراة	-11.1138
حمايته	-11.114
▁استعاد	-11.1143
▁بوتشيمون	-11.1144
▁الجناة	-11.1146
▁السيئة	-11.1146
ضايق	-11.1147
▁اعطي	-11.1148
▁بالتالي	-11.1149
فحوص	-11.1149
▁القارات	-11.115
▁غريبة	-11.1152
مشي	-11.1153
▁الاميركيين	-11.1153
شاع	-11.1155
▁لازال	-11.1156
الالماني	-11.1158
▁ميت	-11.116
مسلم	-11.1162
▁الحليب	-11.1163
صندوق	-11.1165
استعداد	-11.1165
▁راو	-11.1166
▁بالمرض	-11.1167
▁رابع	-11.117
تؤكد	-11.1171
▁والمح	-11.1172
▁موالية	-11.1173
▁المسرح	-11.1175
▁روح	-11.1175
▁بتطبيق	-11.1175
▁الاختلاف	-11.1176
سعد	-11.1177
ستدعي	-11.118
▁يستخدمون	-11.118
▁لاذاعة	-11.1181
▁يثبت	-11.1183
محطات	-11.1185
سيارة	-11.1187
▁الغازات	-11.1188
▁الارضية	-11.1193
رتدي	-11.1197
ركيز	-11.1198
▁يجر	-11.1198
▁كوتينيو	-11.1207
▁متقدما	-11.1208
تفهم	-11.1211
▁قاسم	-11.1212
▁بديلا	-11.1213
تسلم	-11.1214
▁لوجود	-11.1214
نيل	-11.1215
كام	-11.1216
49	-11.1217
▁عاجلة	-11.1218
85	-11.1218
انخفاض	-11.122
اختراق	-11.1221
اساليب	-11.1224
▁وتعمل	-11.1227
جوز	-11.1227
نكو	-11.1229
هيوم	-11.123
ظاهرة	-11.123
دراسات	-11.1231
▁الانتخابي	-11.1232
▁خاطئة	-11.1234
▁الورق	-11.1235
▁وينص	-11.1236
▁تستقبل	-11.1236
وثق	-11.1236
مونديال	-11.1237
▁نوم	-11.1238
▁بسحب	-11.1238
▁تحديا	-11.1239
▁كوبا	-11.1239
▁اصدقاء	-11.124
▁وتحت	-11.1241
▁البحرينية	-11.1248
جيد	-11.1248
▁ترفع	-11.1251
▁الدائمة	-11.1257
▁المبكرة	-11.126
▁عوض	-11.1261
▁للكثير	-11.1262
لخص	-11.1263
مفاوضات	-11.1266
طبقة	-11.1266
▁للدور	-11.1268
▁التكهنات	-11.1269
▁اوباميانغ	-11.1269
▁بشؤون	-11.1269
▁للسماح	-11.1269
نماذج	-11.1269
▁بعنوان	-11.1269
▁ثقافي	-11.1269
▁المؤدي	-11.1269
بطاريات	-11.1269
▁رافق	-11.127
▁تكمن	-11.127
▁المعاصر	-11.1271
متطلبات	-11.1271
▁فقدت	-11.1271
يتعلق	-11.1274
▁القمع	-11.1276
▁الكاتبة	-11.1276
▁الجيل	-11.1276
▁ديل	-11.1276
▁بامكانه	-11.1278
▁الاجابة	-11.128
▁مدينتي	-11.1282
▁التفاعل	-11.1284
▁وجهها	-11.1287
▁لتدريب	-11.1287
▁تكريم	-11.1289
▁استجواب	-11.129
تسهيل	-11.1293
▁الواحدة	-11.1294
▁شاشات	-11.1294
▁التلوث	-11.1295
نفق	-11.1298
النظام	-11.1299
▁الاحتلال	-11.13
▁بوي	-11.13
▁السمع	-11.13
▁الاماراتي	-11.1301
▁الموظف	-11.1301
تقرير	-11.1303
▁يوافق	-11.1303
▁الاقتراح	-11.1304
▁للسلطة	-11.1305
ساو	-11.1305
▁ضرر	-11.1306
▁الشفافية	-11.1307
لزيارة	-11.131
ماذا	-11.1311
▁الجوع	-11.1311
بحر	-11.1312
▁الحليف	-11.1312
سلامة	-11.1315
▁مفيدة	-11.1317
▁للتفاوض	-11.1319
▁3-	-11.1324
▁فعله	-11.1325
▁شنه	-11.1325
▁نفذه	-11.1329
▁جنسيات	-11.1331
▁الكنائس	-11.1332
▁نافالني	-11.1332
▁متتالية	-11.1332
▁والجرحي	-11.1332
▁تهدئة	-11.1332
▁لفترات	-11.1333
▁وليبيا	-11.1334
▁يستحق	-11.1335
▁استاد	-11.1336
وكر	-11.1337
▁المعلن	-11.1337
▁النبات	-11.1338
▁لتفريق	-11.1338
▁واللجوء	-11.134
▁مسلمة	-11.1341
▁ويضم	-11.1342
▁ونجح	-11.1343
▁حصوله	-11.1344
▁كوم	-11.1344
نتائج	-11.1345
▁القري	-11.1346
▁اضر	-11.1347
الابيض	-11.1347
▁يضر	-11.1348
▁صن	-11.1348
تجميد	-11.1348
▁ترحيب	-11.1349
▁محط	-11.1349
نزوح	-11.1351
يعزز	-11.1352
▁الخام	-11.1352
تاسيس	-11.1352
ظفر	-11.1354
▁علنا	-11.1354
حيوانات	-11.1356
▁براندنبورغ	-11.136
هاتف	-11.1362
▁للاسلحة	-11.1365
تنكر	-11.1365
▁انطلق	-11.1368
▁الافغان	-11.137
▁وصدر	-11.1374
▁السلمية	-11.1375
▁حيوي	-11.1376
▁يعتبرون	-11.1377
مقاطعة	-11.138
▁امكانيات	-11.138
▁الانتهاكات	-11.1384
ثلث	-11.1391
▁احب	-11.1393
▁وشكل	-11.1393
صطدم	-11.1395
▁المسئول	-11.1395
▁النفوذ	-11.1395
▁يانوكوفيتش	-11.1395
▁ترخيص	-11.1395
▁البحار	-11.1395
حصي	-11.1395
ليت	-11.1396
▁بالعودة	-11.1397
▁للجمهور	-11.1398
محيط	-11.14
▁140	-11.14
▁62	-11.1401
▁احتل	-11.1401
▁اوليفر	-11.1405
▁فلم	-11.1406
▁استكمال	-11.1407
▁الصربي	-11.1408
▁الالام	-11.1409
▁يسير	-11.1416
اوات	-11.1417
▁عملهم	-11.1418
▁الشرطي	-11.1418
▁عرضه	-11.1419
▁المقيم	-11.142
▁مشجعي	-11.1421
▁يوتيوب	-11.1422
▁الشكوك	-11.1423
▁للمباراة	-11.1423
▁الكهربائي	-11.1423
▁c	-11.1425
دوي	-11.1425
لفظ	-11.1427
▁مسلحا	-11.1427
▁ذاتي	-11.1429
▁الانفصاليين	-11.1432
ملايين	-11.1434
▁قمر	-11.1434
كارثي	-11.1438
لوزراء	-11.1439
▁الخطط	-11.1439
▁الاخلاق	-11.1441
يتان	-11.1441
خلط	-11.1445
▁خلل	-11.1451
▁للصحة	-11.1451
▁واعد	-11.1452
حجة	-11.1454
ستوطن	-11.1456
▁نيته	-11.1457
راجع	-11.1457
▁الاشتراكيين	-11.1458
▁الشيوعي	-11.1459
▁امتلاك	-11.1459
▁كاثرين	-11.1459
▁واليابان	-11.1459
▁للشركات	-11.1459
▁لثلاثة	-11.146
▁حكمه	-11.146
▁الرئة	-11.1464
▁متعمد	-11.1468
▁صعود	-11.1468
▁الاسماء	-11.1468
▁بتحقيق	-11.1471
▁للمنطقة	-11.1472
سباق	-11.1475
▁بالقتل	-11.1475
▁كف	-11.148
تركيا	-11.1481
قارن	-11.1482
احياء	-11.1482
▁والاستقرار	-11.1484
400	-11.1486
▁غذائي	-11.1488
▁لانتخابات	-11.149
▁ولدي	-11.1491
▁ادوية	-11.1491
▁ملتزم	-11.1492
▁الطاقم	-11.1492
▁المتبادل	-11.1495
▁(5	-11.1499
▁اثيوبيا	-11.1499
▁يتردد	-11.15
▁عضلات	-11.1501
▁مفادها	-11.1501
▁رياض	-11.1502
▁كيت	-11.1505
▁معاملة	-11.1505
▁مقاتل	-11.151
خصوم	-11.151
▁لدخول	-11.1512
▁ثلاثية	-11.1513
▁للقاء	-11.1514
▁جرا	-11.1515
يشن	-11.1515
▁الموسيقية	-11.1517
▁الرؤية	-11.1517
▁وتوجه	-11.152
▁مادية	-11.152
تحد	-11.1521
▁وثق	-11.1522
▁استرليني	-11.1523
▁خامنئي	-11.1523
▁للحوثيين	-11.1523
▁الايزيدي	-11.1523
▁مروحية	-11.1523
▁مشواره	-11.1524
▁بتغيير	-11.1525
استثمار	-11.1525
▁تتطلب	-11.1527
▁المنشور	-11.1527
▁للمخرج	-11.1529
تياغو	-11.1531
اكتفي	-11.1532
▁بحقه	-11.1532
تشابه	-11.1533
ارساء	-11.1536
▁يحتفل	-11.1538
▁المتاجر	-11.1541
هامبورغ	-11.1543
▁الاستاذ	-11.1546
▁المراهق	-11.1548
▁وسيطر	-11.155
▁للمفاوضات	-11.1551
▁بفتح	-11.1553
تاييد	-11.1554
▁متجر	-11.1555
▁عادي	-11.1556
▁الصاروخية	-11.1557
▁غرامة	-11.156
▁مشار	-11.156
تجدر	-11.1563
▁الاهمية	-11.1565
▁توقفت	-11.1567
▁المستقبلية	-11.1573
▁الملفات	-11.1573
▁حقيبة	-11.1574
تقلل	-11.1576
▁بتقدم	-11.1578
تشرت	-11.1579
مرونة	-11.1582
▁الاولوية	-11.1583
كريست	-11.1584
استقطاب	-11.1588
▁ارباح	-11.1588
▁الترجيح	-11.1588
▁صربيا	-11.1588
▁وتطوير	-11.1588
▁الوزاري	-11.1588
▁ظبي	-11.1588
▁خضيرة	-11.1588
استعراض	-11.1588
▁وطبية	-11.1589
مروحيات	-11.1589
▁الحقائق	-11.1589
▁المتصدر	-11.159
▁المهلة	-11.159
▁مطلقا	-11.1591
▁الناخبون	-11.1597
▁النازيين	-11.1597
▁(6	-11.1598
احتيال	-11.1598
▁لجوئهم	-11.1599
▁ضيق	-11.16
قيق	-11.1601
▁القطب	-11.1602
ؤس	-11.1603
▁امم	-11.1603
ازالة	-11.1605
الاستخبارات	-11.1606
اجزاء	-11.1607
نظير	-11.1607
▁سيطرتها	-11.1608
▁ويرجع	-11.1612
تهدف	-11.1612
▁وتبادل	-11.1613
▁اصابت	-11.1614
▁الحرة	-11.1616
تحذير	-11.1617
▁تعز	-11.1617
▁يتراوح	-11.162
▁تيم	-11.1621
▁وظل	-11.1622
▁دبليو	-11.1624
▁180	-11.1625
ونيا	-11.1627
▁البطن	-11.1628
▁ارهابيا	-11.1629
▁شمس	-11.1637
▁واتس	-11.164
ch	-11.1642
▁77	-11.1644
▁متوجه	-11.1647
▁موحد	-11.1648
▁بحظر	-11.1649
تيلاء	-11.165
زعزعة	-11.1652
▁اشبيلية	-11.1652
▁التليفزيون	-11.1652
▁الروهينغا	-11.1652
▁متطابقة	-11.1652
▁القنوات	-11.1652
▁بصدد	-11.1652
▁اعتزال	-11.1653
▁ينتج	-11.1653
مصاريف	-11.1654
حقوق	-11.1655
▁تجارة	-11.1656
لجنة	-11.1656
▁راكب	-11.1657
▁اخفق	-11.1658
▁مرافق	-11.1659
▁جرمان	-11.1661
▁يعترف	-11.1665
▁يميني	-11.1666
▁سيرجي	-11.1666
▁متاح	-11.1668
ثور	-11.1672
▁انقطاع	-11.1674
▁قصص	-11.1676
▁ثقافة	-11.168
▁قطعت	-11.1681
▁ميد	-11.1682
▁نعمل	-11.1684
▁نتائجه	-11.1684
2013	-11.1685
المنتخب	-11.1685
لالعاب	-11.1685
استخدام	-11.1691
طعم	-11.1691
le	-11.1692
▁راح	-11.1692
▁استثمار	-11.1692
احد	-11.1693
رور	-11.1694
▁حظوظ	-11.1696
مملكة	-11.1696
جيش	-11.1702
▁العالي	-11.1706
▁وتقليل	-11.1706
▁معسكرات	-11.1708
▁ملاحقة	-11.1709
▁متاخرة	-11.1712
▁الذاتية	-11.1712
▁كورت	-11.1713
تقنية	-11.1715
مدفعية	-11.1717
x	-11.1718
▁الفيدرالي	-11.1718
▁تيريزا	-11.1718
▁وهدد	-11.1718
▁المحاصيل	-11.1718
▁فصيل	-11.1718
▁جوانب	-11.1718
▁جناح	-11.1719
▁اولويات	-11.1719
▁يوجيل	-11.1719
▁بمفرده	-11.1719
▁باعلان	-11.172
▁ادوات	-11.172
▁عموم	-11.172
اضطرابات	-11.172
لابد	-11.1721
▁المشير	-11.1722
▁والتركي	-11.1723
▁منسوب	-11.1726
▁موال	-11.1727
انفلونزا	-11.1729
▁النرويجي	-11.1732
▁الراغبين	-11.1733
▁انتخابية	-11.1737
▁العيون	-11.1738
▁للتصويت	-11.1738
▁استدعت	-11.174
▁صحته	-11.1743
▁اقول	-11.1743
▁لاعمال	-11.1744
▁المنتدي	-11.1746
▁يتقدم	-11.1746
تقن	-11.1749
▁الجاني	-11.1749
▁ايواء	-11.1751
خور	-11.1752
رخي	-11.1752
يؤدي	-11.1753
▁ممثلة	-11.1754
▁مربع	-11.1756
▁الغت	-11.176
▁باتفاق	-11.1763
▁ميك	-11.1764
▁لاغراض	-11.1766
تجدد	-11.1767
▁كرم	-11.1771
▁قانونا	-11.1772
تقييم	-11.1773
▁بفريق	-11.1775
متفق	-11.178
خالف	-11.1781
▁b	-11.1781
▁عموما	-11.1782
▁السلم	-11.1784
▁وهكذا	-11.1784
▁هبوط	-11.1784
▁ومنظمات	-11.1784
▁المستقل	-11.1784
▁الواردة	-11.1785
▁احمر	-11.1785
▁ساخن	-11.1785
▁اليمنيين	-11.1786
▁تنفي	-11.1787
▁الامهات	-11.1789
▁تعيد	-11.1789
▁سلبي	-11.1794
▁يتلق	-11.1796
▁خلفيات	-11.1802
▁استياء	-11.1803
▁النحل	-11.1805
▁الكندية	-11.1805
▁الروبوت	-11.1806
▁للاعلام	-11.1808
▁تنظر	-11.1811
▁مخالفة	-11.1811
▁موجات	-11.1814
▁ووجه	-11.1818
▁انذار	-11.1819
كبح	-11.182
▁اشعة	-11.1821
▁هددت	-11.1822
▁الايدز	-11.1824
▁الدفاعية	-11.1824
▁لخوض	-11.1826
▁قاع	-11.183
▁نمط	-11.1831
▁الكائنات	-11.1835
▁كاب	-11.1836
▁الدنماركي	-11.1837
غرامة	-11.1846
▁يخت	-11.1848
▁السباحة	-11.185
▁للعراق	-11.185
▁المحتجون	-11.185
▁استفاد	-11.185
▁للعلوم	-11.185
▁سلفا	-11.185
▁ومصادر	-11.1851
▁ويتهم	-11.1853
▁الموز	-11.1855
▁بنفسها	-11.1858
تدريس	-11.1863
فساد	-11.1864
▁واطلاق	-11.1865
▁لبيانات	-11.1869
▁هزت	-11.1875
حصد	-11.1876
▁القاع	-11.188
▁يضطر	-11.1885
طبيب	-11.1886
▁كريس	-11.1887
▁الجدار	-11.1888
اطراف	-11.1889
▁قرارها	-11.1893
▁تبذل	-11.1893
▁تناولها	-11.1895
75	-11.1898
▁مضمون	-11.1898
▁مسلسل	-11.1898
▁حقل	-11.1899
صبر	-11.1901
تسري	-11.1901
منافسة	-11.1902
▁لنشر	-11.1908
▁ايمن	-11.1909
▁تحمي	-11.1912
▁ضربت	-11.1913
▁قادرا	-11.1916
▁غريزمان	-11.1916
▁الغموض	-11.1916
▁ميزيير	-11.1916
▁بتصريحات	-11.1917
▁البوسنة	-11.1917
▁جنايات	-11.1917
طوق	-11.1917
▁رائحة	-11.1917
▁والمتوسطة	-11.1917
مكافاة	-11.1917
▁البعيد	-11.1917
▁نيوزيلندا	-11.1917
▁وعثر	-11.1917
بطارية	-11.1918
▁اصابتهم	-11.1918
ذروة	-11.1918
▁حرجة	-11.1919
▁تحكم	-11.192
▁بموقع	-11.192
▁قدرت	-11.1921
▁واعترف	-11.1922
▁ضمانات	-11.1922
▁استثمارات	-11.1923
▁شرم	-11.1924
▁المطارات	-11.1926
▁اعرف	-11.1926
▁التربة	-11.1926
حساس	-11.1927
ناسا	-11.1929
▁الدراسية	-11.1931
▁السهل	-11.1932
الحكومة	-11.1933
▁تخصيب	-11.1934
تراث	-11.1935
▁مضاد	-11.1935
▁لتصل	-11.1938
▁البحري	-11.1941
حور	-11.1944
▁شيخون	-11.1945
▁بالبقاء	-11.1947
تكتيك	-11.195
▁حبوب	-11.195
▁مثالي	-11.1953
▁يجتمع	-11.1954
اوكراني	-11.1956
خلل	-11.1956
انتهاكات	-11.1961
▁ذهبية	-11.1961
كنا	-11.1961
تقدر	-11.1963
▁خبرة	-11.1964
▁واجراء	-11.1965
▁باكملها	-11.1968
▁هواتف	-11.1968
▁المرتفعة	-11.1968
صفقة	-11.1972
حلول	-11.1973
▁78	-11.1975
▁وغيرهم	-11.1975
▁وتبين	-11.1975
السبت	-11.1977
▁يقرر	-11.1979
خصائص	-11.1984
▁الابتدائية	-11.1984
▁تكساس	-11.1984
▁سيناريو	-11.1984
▁هشام	-11.1984
▁الذراع	-11.1984
▁فجاة	-11.1984
▁حفر	-11.1984
▁وندد	-11.1985
▁الابعاد	-11.1985
روز	-11.1985
وكو	-11.1986
▁الانتحار	-11.1987
▁ناسف	-11.1988
▁تتوفر	-11.1988
▁اقلية	-11.1989
▁نجاحا	-11.199
▁بالمشاركة	-11.1992
▁الشاي	-11.1994
▁العناية	-11.1996
▁خاصا	-11.1996
انتفاضة	-11.1997
▁غرين	-11.1998
▁تفويض	-11.1998
▁اظهار	-11.1999
▁ويشكل	-11.2002
اجراء	-11.2002
اللوم	-11.2003
▁بالنظر	-11.2006
▁الكو	-11.2007
▁الحقوقي	-11.2011
▁تعاطي	-11.2012
▁الكم	-11.2013
▁المليون	-11.2017
▁هامة	-11.2022
مدن	-11.2023
▁بالوقوف	-11.2023
▁ماري	-11.2025
▁نري	-11.2028
▁الاغلاق	-11.2029
▁سعود	-11.203
انتحار	-11.203
ادانة	-11.2031
▁السري	-11.2035
▁سليمان	-11.2037
▁الحبوب	-11.2039
▁المحدد	-11.2043
▁فقر	-11.2043
▁يذهب	-11.2044
▁الراهنة	-11.2045
▁تمتد	-11.2045
▁مدرج	-11.2046
▁يشت	-11.2051
▁المكثف	-11.2051
▁وبموجب	-11.2051
▁كيمنتس	-11.2051
▁وراثي	-11.2051
▁واليونان	-11.2053
▁ناجم	-11.2054
▁1990	-11.2055
يتوجب	-11.2057
▁استثنائية	-11.2058
الشروع	-11.2059
▁العداء	-11.206
▁والمغرب	-11.2062
▁متكررة	-11.2063
ستقام	-11.207
▁والامم	-11.2071
▁وبرر	-11.2075
▁وزاري	-11.2077
تحليل	-11.2078
▁وضعها	-11.208
▁الكارثة	-11.2083
▁ادائه	-11.2083
نصب	-11.2084
لاستفادة	-11.2085
جولة	-11.2085
▁هام	-11.2086
▁ممر	-11.2087
▁شيخ	-11.2088
▁مسلمين	-11.2088
حلق	-11.2089
▁دوي	-11.2089
مائة	-11.2089
▁اوردته	-11.2092
▁تيار	-11.2092
▁71	-11.2093
▁جدة	-11.2094
▁الزام	-11.2096
اليسار	-11.2099
حشد	-11.2099
نريد	-11.2107
ثمانية	-11.2107
▁الفنانين	-11.2118
▁للقتال	-11.2119
▁بوغبا	-11.2119
▁وموسكو	-11.2119
▁كهربائية	-11.2119
▁تحريك	-11.212
تعبئة	-11.212
تفصيل	-11.2121
▁الهاتفية	-11.2123
▁امتار	-11.2125
▁موافقته	-11.2127
سيما	-11.2127
▁التشيكي	-11.213
▁منفصلة	-11.213
▁بالبرلمان	-11.2131
انجاز	-11.2132
▁توليد	-11.2132
▁لست	-11.2132
▁حسابها	-11.2136
▁تجاوزت	-11.2137
▁تناولت	-11.2138
▁اممي	-11.2139
▁والاقتصاد	-11.214
▁حثت	-11.214
▁لاجئا	-11.2143
▁تكلف	-11.2146
▁مستقرة	-11.2147
▁والاقتصادية	-11.2148
محاكمة	-11.2152
ممتلكات	-11.2154
▁العشر	-11.2159
مهرجان	-11.216
تصعيد	-11.216
▁كافيا	-11.216
اتهامات	-11.2161
▁رفضها	-11.2162
▁ترحيله	-11.2163
▁الكتل	-11.2163
خطير	-11.2166
▁المعاهدة	-11.2166
▁مقبولة	-11.2167
▁لضحايا	-11.2168
▁عدو	-11.217
▁الاعلانات	-11.2171
▁تعليقه	-11.2172
▁وقدرت	-11.2172
▁تخص	-11.2174
▁الانتفاضة	-11.2175
▁بالحكم	-11.2176
▁مقاتلات	-11.2177
▁الباردة	-11.2177
▁وحين	-11.218
▁موسع	-11.2182
ذبح	-11.2184
▁المؤبد	-11.2188
▁محظور	-11.2188
ابتزاز	-11.2188
▁المنكوبة	-11.2188
▁تتويج	-11.2188
▁لحساب	-11.2188
▁بخدمات	-11.2188
▁ووجهت	-11.2191
▁متصدر	-11.2191
▁التمثيل	-11.2191
▁المصرفي	-11.2191
▁وجبات	-11.2192
▁صلب	-11.2195
▁يتحول	-11.2195
▁المجتمعات	-11.2197
ركلات	-11.2199
رتس	-11.22
▁الفرع	-11.2201
▁الاصغر	-11.2207
▁للكشف	-11.2208
▁اللتين	-11.2208
ريبة	-11.221
▁افاق	-11.2211
▁يرغبون	-11.2217
▁السنية	-11.2218
▁ستواصل	-11.2221
تنازل	-11.2223
بوك	-11.2226
▁اساسا	-11.2227
▁ترتفع	-11.2227
▁الباحثة	-11.2227
▁مهتم	-11.2228
نقطة	-11.2229
▁العشرة	-11.223
▁المدة	-11.223
تياس	-11.2231
▁بعقوبة	-11.2232
▁الاممية	-11.2233
▁عدا	-11.2238
كامل	-11.2238
▁للانسان	-11.2241
▁سبا	-11.2246
▁المفتوحة	-11.2246
▁التشكيلة	-11.2246
▁جاي	-11.2247
▁الوان	-11.2248
▁عرفت	-11.2249
▁ايفان	-11.2251
▁الضعف	-11.2251
▁اقليمية	-11.2252
▁برد	-11.2255
الشياطين	-11.2257
▁كوسوفو	-11.2257
▁التصوير	-11.2257
▁بتسليم	-11.2257
▁دعوته	-11.2257
استغناء	-11.2257
▁ربيع	-11.2257
▁براون	-11.2259
تدقيق	-11.226
▁ينفي	-11.226
▁الغارة	-11.2262
▁مشاركتها	-11.2262
▁يعيد	-11.2263
تعطي	-11.2269
▁باهتمام	-11.2272
▁وتقع	-11.2275
▁الجراح	-11.2275
▁توب	-11.2276
جرعات	-11.2277
▁للموسم	-11.228
▁ناشد	-11.2285
طوان	-11.2288
▁متظاهرون	-11.2291
▁اضرارا	-11.2291
تنقي	-11.2292
باري	-11.2292
ستير	-11.2296
ؤي	-11.2296
▁للجسم	-11.2296
▁والمعروف	-11.2297
▁مؤيدة	-11.2297
▁الكويتية	-11.2298
جيران	-11.2308
▁العقل	-11.231
مناخ	-11.231
▁مجهولين	-11.231
▁حلفائه	-11.2312
متاز	-11.2315
▁مسيرات	-11.2318
▁نبات	-11.2319
▁350	-11.2325
▁برلسكوني	-11.2326
▁النفايات	-11.2326
▁ترتبط	-11.2326
▁المهاجرون	-11.2327
▁لتلقي	-11.2327
▁الطلبات	-11.2327
تحلي	-11.2328
▁العجوز	-11.2329
55	-11.2332
كاف	-11.2333
▁للدراسة	-11.2333
▁راينر	-11.2333
▁مارتين	-11.2337
72	-11.2339
▁سيلتقي	-11.2339
▁ولبنان	-11.234
▁فريدة	-11.2342
مبيدات	-11.2344
▁المفاوضين	-11.2345
افكار	-11.2345
▁تانية	-11.2349
سيس	-11.2349
▁واوقف	-11.2351
▁لوحده	-11.2354
▁والسبب	-11.2354
مؤشر	-11.2355
تاهيل	-11.2355
▁يستفيد	-11.2357
▁المنشات	-11.2358
▁يحظر	-11.2359
▁المحددة	-11.2359
▁الحامل	-11.2364
▁زميل	-11.2364
قنابل	-11.2372
▁كثيرين	-11.2375
▁الخيارات	-11.2378
اشارة	-11.2381
غسل	-11.2383
فيديو	-11.2386
▁ماتيو	-11.2388
كريم	-11.2389
▁وعي	-11.2391
▁بطاقات	-11.2392
▁مفعول	-11.2393
تصحيح	-11.2395
▁المتنازع	-11.2396
اقصاء	-11.2396
▁الملاحة	-11.2396
▁موكله	-11.2398
▁الاياب	-11.2398
ساهمت	-11.2398
قيصر	-11.24
▁سلفي	-11.24
39	-11.24
▁حساسة	-11.24
تكاثر	-11.2401
▁الدوائر	-11.2404
▁قطاعات	-11.2404
▁فري	-11.2404
▁لبلاده	-11.2404
▁سكر	-11.2405
▁يرتفع	-11.2405
▁لقياس	-11.2407
▁تحتل	-11.241
تشكل	-11.241
▁الرجلين	-11.2412
▁لتولي	-11.2417
▁الجين	-11.242
قياد	-11.242
يوجد	-11.2421
▁للمحكمة	-11.2422
▁حيوية	-11.2424
▁خاطئ	-11.2424
▁الحوثية	-11.2424
▁راتب	-11.2427
فلسطين	-11.2429
▁الثمن	-11.243
صيغة	-11.2432
de	-11.2433
▁المرافق	-11.2434
▁موارد	-11.2434
▁الخمسين	-11.2435
ديك	-11.2435
▁متشددين	-11.2437
▁جلي	-11.2439
▁رويس	-11.2442
87	-11.2444
▁شل	-11.2446
غريت	-11.2455
▁سهل	-11.2459
دمار	-11.246
98	-11.246
▁ناشطون	-11.2461
▁ابتكار	-11.2463
طعام	-11.2463
▁استقباله	-11.2463
▁والسياسية	-11.2463
▁بيكون	-11.2465
▁الامد	-11.2465
▁المختطف	-11.2466
▁ينتقد	-11.2466
▁والمهاجرين	-11.2467
▁مساحات	-11.2467
▁الالوان	-11.2467
▁نجاد	-11.2468
▁لافتة	-11.2468
مشاهدة	-11.2469
مناوئ	-11.2469
رفق	-11.2472
▁ثلثي	-11.2472
تحرير	-11.2473
▁اعجاب	-11.2475
▁يفهم	-11.2475
▁خوف	-11.2476
▁اختارت	-11.2479
▁وتحديد	-11.2479
▁تخطي	-11.2479
لايواء	-11.2481
▁الهي	-11.2482
▁نقلها	-11.2482
▁وصور	-11.2483
صادق	-11.2484
▁تدافع	-11.2485
بالاضافة	-11.2486
▁والقت	-11.2487
▁لفرض	-11.2492
قراءة	-11.2493
▁ووسط	-11.2496
فرص	-11.2496
▁البالغين	-11.2498
▁جيني	-11.2498
صدمة	-11.2498
▁رومان	-11.2502
معارضة	-11.2502
▁تلتزم	-11.2503
▁الهندية	-11.2505
الاتجار	-11.2506
▁سيطرته	-11.2506
موال	-11.2506
▁يتواجد	-11.2507
▁للتو	-11.2509
▁اباد	-11.251
▁المحليين	-11.251
عائلات	-11.2514
▁العائدين	-11.2515
حتدم	-11.2515
▁المدرسين	-11.2515
احكام	-11.2517
▁وقررت	-11.2518
اسبوع	-11.2518
حدوث	-11.2519
▁ذا	-11.252
▁اتش	-11.2521
▁تمارس	-11.2521
▁الاحتجاجية	-11.2522
▁69	-11.2524
▁جمعة	-11.2525
القوات	-11.2526
▁مقررا	-11.2529
فضي	-11.253
▁اضطراب	-11.2531
عرق	-11.2531
▁وضمان	-11.2532
▁التسامح	-11.2533
▁المتزايد	-11.2533
ra	-11.2534
▁طرحت	-11.2537
▁الساخن	-11.2537
▁الفنادق	-11.2537
▁المتمردون	-11.2537
▁للرياض	-11.2538
▁مؤهل	-11.2538
▁سياسيين	-11.2538
اشعة	-11.2539
▁ثنائية	-11.254
▁الجهادية	-11.254
▁المضادات	-11.2541
▁ابيض	-11.2544
فاصل	-11.2545
رخاء	-11.2546
▁المهارات	-11.2548
بورصة	-11.2551
وفين	-11.2552
جروح	-11.2558
▁وعسكري	-11.2559
كيكر	-11.256
▁ويحاول	-11.2561
▁البط	-11.2561
▁معارضين	-11.2562
▁اجبر	-11.2564
▁وبرلين	-11.2567
استعمال	-11.2569
الاس	-11.2569
▁حجب	-11.2572
▁حرص	-11.2573
▁لاعبيه	-11.2575
▁هار	-11.2581
▁الفصح	-11.2582
2015	-11.2583
▁مسكن	-11.2584
بالمقارنة	-11.2588
ثري	-11.2588
▁عادية	-11.2591
▁تاريخها	-11.2593
▁شكري	-11.2596
▁نفذها	-11.2599
▁وزعيم	-11.2604
▁اتفقا	-11.2606
▁رومينيغه	-11.2609
مؤامرة	-11.2609
▁الوساطة	-11.2609
▁النسائية	-11.2609
▁انظار	-11.2609
▁موكب	-11.261
▁معربا	-11.261
▁سوداء	-11.2611
▁الرائع	-11.2614
▁طارئة	-11.2615
▁نبا	-11.2615
اهتمام	-11.2615
لبنان	-11.2615
▁اقتصاديا	-11.2616
حمد	-11.2617
ريوس	-11.2617
▁المنتجة	-11.2617
▁بصفته	-11.262
▁ترحيلهم	-11.2621
▁وزنه	-11.2621
▁وتحقيق	-11.2621
▁موحدة	-11.2622
▁بيضمن	-11.2623
▁التدريبات	-11.2625
▁النقص	-11.2625
▁العمومية	-11.2626
▁ادرك	-11.2626
مذبحة	-11.2628
محكمة	-11.2632
▁الضابط	-11.2633
▁انتزع	-11.2633
▁المرتقبة	-11.2635
▁ليوم	-11.2635
▁بنتائج	-11.2636
▁التدابير	-11.2639
▁نحتاج	-11.264
#	-11.2641
▁وتظهر	-11.2642
▁استغرقت	-11.2642
تنفس	-11.2642
▁مخالف	-11.2644
▁والبحث	-11.2644
اردوغان	-11.2646
▁الفيضانات	-11.2646
▁الفاعل	-11.265
براءة	-11.2651
▁تقاتل	-11.2651
▁احتلت	-11.2652
▁الباكستاني	-11.2653
▁القصير	-11.2654
اجلاء	-11.2655
▁مصابا	-11.2656
▁لهؤلاء	-11.2656
خلايا	-11.2659
انقلاب	-11.266
▁الصلاة	-11.266
مليارات	-11.2665
▁توظيف	-11.2673
▁ونظرا	-11.2674
▁المجمع	-11.2674
▁82	-11.2674
▁وجعل	-11.2677
▁فلوريدا	-11.2681
▁كرزاي	-11.2681
▁فيلدرز	-11.2681
▁المواصلات	-11.2681
▁البي	-11.2681
▁شرارة	-11.2682
▁ايرادات	-11.2682
▁المحافظات	-11.2685
مسافات	-11.2686
▁تبنت	-11.2687
▁العقود	-11.2689
▁الدواء	-11.269
▁منخفضة	-11.2691
▁ضيفا	-11.2693
عقاقير	-11.2698
قرصنة	-11.2698
▁راسهم	-11.2699
تغذي	-11.2699
نور	-11.27
▁ستريت	-11.2701
44	-11.2702
▁وليد	-11.2703
▁لاعبو	-11.2704
▁فعليا	-11.2706
▁المتواجد	-11.2709
▁غالبيتهم	-11.2711
▁مجد	-11.2712
▁1.5	-11.2712
زيارة	-11.2715
مانشستر	-11.2715
ربين	-11.2717
▁براند	-11.2719
▁زلزال	-11.272
ؤيد	-11.2721
▁المحت	-11.2723
الضفة	-11.2724
▁لصالحه	-11.2724
▁القصة	-11.2726
▁الثقيل	-11.2726
▁لضم	-11.2727
▁احتفل	-11.2727
▁كونغ	-11.2728
مخاوف	-11.2733
اصدقاء	-11.2733
▁لاستئناف	-11.2734
تباين	-11.2735
برشلونة	-11.2735
سكر	-11.2737
66	-11.2737
▁مدرس	-11.2738
نوم	-11.2738
▁مسقط	-11.2742
▁تكليف	-11.2744
▁اللقاحات	-11.2744
▁والغاز	-11.2745
ترتب	-11.2747
▁حمام	-11.2748
بتكر	-11.2748
▁جرحي	-11.2751
استئناف	-11.2752
▁مفهوم	-11.2753
اصطدام	-11.2753
▁الدقائق	-11.2753
▁ببساطة	-11.2753
▁للاكراد	-11.2753
▁الباريسي	-11.2753
▁الماليزية	-11.2753
▁النخبة	-11.2754
▁وتجمع	-11.2756
طرة	-11.2757
▁كرئيس	-11.2758
▁اندرياس	-11.2759
▁اجبار	-11.2759
▁هاين	-11.276
▁بسكين	-11.276
تسمم	-11.2761
▁الاحصائيات	-11.2769
▁الانذار	-11.277
▁لتغيير	-11.2771
اطفال	-11.2772
لياقة	-11.2773
شدد	-11.2773
▁الضرر	-11.2774
▁سيعقد	-11.2775
▁واليوم	-11.2775
▁الفريد	-11.2776
▁واطلقت	-11.2776
شيل	-11.2777
▁شديدا	-11.278
▁اتفاقات	-11.2782
▁الابا	-11.2786
▁4-	-11.2788
▁المستهدف	-11.2789
▁تميم	-11.2791
▁التسع	-11.2794
فرنسا	-11.2795
بايرن	-11.2796
▁لعبة	-11.2799
▁المرتقب	-11.28
▁الايجابي	-11.28
▁القضائي	-11.28
▁يسود	-11.2801
بورج	-11.2801
شاشة	-11.2801
غيل	-11.2802
▁ورحب	-11.2806
لتقط	-11.2809
▁اغني	-11.281
▁ومش	-11.281
▁تطرح	-11.2813
تحقيق	-11.2813
▁فلوس	-11.2814
عيوب	-11.2817
راضي	-11.2817
▁تلوث	-11.2818
▁شتو	-11.282
▁مصداقية	-11.2822
▁العنيفة	-11.2823
▁تشغل	-11.2825
ديكتاتور	-11.2826
▁ايرلندا	-11.2826
▁فورمولا	-11.2826
▁عظيم	-11.2826
▁وانقرة	-11.2827
▁غرينتش	-11.2827
▁هيلاري	-11.2828
▁1998	-11.2829
▁الودية	-11.283
▁ريبري	-11.283
بالتحديد	-11.2833
▁الشريف	-11.2834
▁الوجود	-11.2836
▁خاضع	-11.2836
اعلام	-11.2837
▁كارلو	-11.2837
▁اغلبهم	-11.2838
▁واثق	-11.284
▁سجون	-11.284
▁والثاني	-11.2842
▁باكمله	-11.2844
▁التقت	-11.2844
▁الرياضيين	-11.2848
سلك	-11.2849
▁63	-11.286
العراق	-11.2861
مكاتب	-11.2864
جمعية	-11.2866
▁هونغ	-11.2866
▁متاحة	-11.2869
▁جيم	-11.2869
▁متورط	-11.2869
▁اقترحت	-11.2872
▁سرت	-11.2874
▁سنوي	-11.2874
▁وثيق	-11.2874
▁قوا	-11.2875
2014	-11.2876
▁ساسة	-11.2879
ريم	-11.2879
▁عميق	-11.2879
استقرار	-11.2879
▁هذ	-11.2881
نبورغ	-11.2882
▁خالية	-11.2883
▁قياسيا	-11.2884
▁التحليل	-11.2886
▁تتعامل	-11.2887
▁ينظم	-11.2887
المراة	-11.2889
▁المقاطعة	-11.289
▁160	-11.2891
قاص	-11.2891
▁ويمثل	-11.2893
▁يناقش	-11.2894
واتساب	-11.2896
▁واربعة	-11.2898
الاشتراك	-11.2899
▁اغاثة	-11.29
تضييق	-11.29
▁اجسام	-11.29
تنشيط	-11.29
▁هاينكس	-11.29
▁غوميز	-11.2901
▁تجربته	-11.2901
الريدز	-11.2901
صرامة	-11.2905
▁ترشحه	-11.2905
▁النبي	-11.2912
▁وتعزيز	-11.2912
▁بالتدخل	-11.2913
▁بالحكومة	-11.2915
▁موثوق	-11.2915
▁الاقصر	-11.2918
احراق	-11.292
▁والمؤسسات	-11.2921
▁منافسيه	-11.2922
▁السياسات	-11.2923
▁المغني	-11.2924
▁بديلة	-11.2926
▁التربية	-11.2927
▁للمجتمع	-11.2927
▁البلاستيكية	-11.2927
نجح	-11.2927
▁حصلوا	-11.2928
مريض	-11.2928
▁يستقبل	-11.2932
▁يونغ	-11.2934
الفيتو	-11.2936
تعتزم	-11.2937
▁ورقة	-11.2937
تعثر	-11.2937
ارتياح	-11.2937
▁وتشكيل	-11.294
▁مفتاح	-11.2942
ندل	-11.2943
▁الاراء	-11.2946
▁الفرد	-11.295
▁جنائية	-11.295
اقتحام	-11.2951
▁الصومالية	-11.2951
▁نفقات	-11.2959
ضباط	-11.2964
▁ابقاء	-11.2965
▁لاحظ	-11.2967
▁شير	-11.2969
تمهيد	-11.297
تضارب	-11.2973
▁رهائن	-11.2974
▁بالطاقة	-11.2974
حمض	-11.2974
عصابة	-11.2974
▁المحاصرة	-11.2974
▁اللوحي	-11.2974
▁الخضروات	-11.2975
▁الاشتباه	-11.2975
▁وجميع	-11.2978
▁يطالبون	-11.2979
▁الجمهوريين	-11.298
الحرية	-11.2982
▁ترشح	-11.2983
▁والعودة	-11.2983
▁سيبقي	-11.2983
▁الشاهد	-11.2986
▁احباط	-11.2988
▁والثالث	-11.2989
▁التسويق	-11.2989
▁دفن	-11.299
▁التغييرات	-11.2991
▁مرسوم	-11.2993
▁تمثيل	-11.2994
▁عيسي	-11.2995
▁تضمنت	-11.2995
▁تؤيد	-11.2998
▁حرم	-11.3003
▁النموذج	-11.3004
▁ايدت	-11.3006
▁غولن	-11.3007
▁غاري	-11.3008
▁وجيزة	-11.3014
▁بالمسؤولية	-11.3014
▁وغرب	-11.3017
▁الجهاد	-11.3023
▁المقدس	-11.3024
امريكي	-11.3026
▁مواطنه	-11.3029
▁اخذت	-11.3029
▁الاصدقاء	-11.303
▁صناعية	-11.3032
صباح	-11.3032
▁متابع	-11.3033
▁وتجنب	-11.3034
▁وتحديدا	-11.3036
▁ماير	-11.3038
▁التقاط	-11.3038
2016	-11.3039
▁بالاك	-11.304
▁لتطبيق	-11.3042
▁ثور	-11.3042
اثارة	-11.3044
▁الاحتجاز	-11.3047
▁ملغومة	-11.3048
▁البطولات	-11.3048
▁شرودر	-11.3048
▁مقبرة	-11.3048
▁مناقشات	-11.3049
▁المعقدة	-11.3049
▁ميليشيات	-11.305
▁القادر	-11.305
▁البيوت	-11.3051
خبيث	-11.3051
▁السيدات	-11.3051
▁جرعة	-11.3051
▁الغرفة	-11.3052
▁السيادة	-11.3055
▁اعدم	-11.3056
تعذر	-11.3056
▁وخرج	-11.3057
▁نادر	-11.3057
قرض	-11.3059
▁يتصدر	-11.3059
▁مركبة	-11.306
▁حض	-11.3062
▁ويقدر	-11.3064
▁الشائعات	-11.3064
▁مطلب	-11.3065
▁مشهد	-11.3066
بارك	-11.3067
▁القوا	-11.3067
▁ولايتي	-11.3067
▁الناشطين	-11.307
هدا	-11.307
▁مهندس	-11.307
▁الحلفاء	-11.3071
▁لمنتخب	-11.3074
يكمن	-11.3076
▁التوسع	-11.3077
▁التعليقات	-11.308
▁وتوقف	-11.3081
▁اطفالهم	-11.3081
▁قذائف	-11.3082
63	-11.3083
▁لمكتب	-11.3084
▁تعبر	-11.3091
▁احتجز	-11.3092
▁العمرية	-11.3092
▁يدير	-11.3093
▁شائع	-11.3093
▁87	-11.3093
▁الصاروخ	-11.3095
▁باعتبار	-11.3096
▁الصداع	-11.3096
▁تفعيل	-11.3101
▁الشاشة	-11.3105
▁ودون	-11.3107
تتبع	-11.3107
دفاع	-11.311
▁بيير	-11.3111
▁السرطانية	-11.3114
▁ناسا	-11.3114
ناظر	-11.3114
▁المساعد	-11.3116
▁القليل	-11.3116
▁مرشحا	-11.3117
▁اللاذقية	-11.3124
▁وخمسة	-11.3124
▁مؤثر	-11.3124
▁باعدام	-11.3124
▁والخدمات	-11.3124
▁والرياض	-11.3124
▁رفيق	-11.3124
▁ادراك	-11.3124
▁متواصلة	-11.3124
▁وامراض	-11.3125
▁وكندا	-11.3125
افراط	-11.3126
▁برمته	-11.3128
تحصن	-11.313
▁لجهود	-11.3131
ضحايا	-11.3131
ولاء	-11.3132
▁جزائري	-11.3133
خطاب	-11.3135
▁ومدير	-11.3138
▁حبس	-11.3141
▁قدوم	-11.3143
▁محاميه	-11.3143
▁هيرمان	-11.3143
▁وتضمن	-11.3144
ادوية	-11.3148
▁السكنية	-11.3149
▁نسم	-11.3149
▁وانضم	-11.315
صمت	-11.3151
▁لوران	-11.3156
▁الفلك	-11.3158
موجات	-11.3159
شاي	-11.316
▁انتهاكا	-11.3161
▁الحسابات	-11.3162
الله	-11.3162
تاجيل	-11.3163
▁قاض	-11.3166
▁وليست	-11.3169
▁المراهقين	-11.317
▁بمنح	-11.3171
▁ابنته	-11.3173
▁ساحق	-11.3174
▁الشرط	-11.3175
▁انساني	-11.3175
تسهل	-11.3177
لغة	-11.3177
▁والاجتماعية	-11.3177
▁الكندي	-11.3178
▁للرد	-11.3178
مسيرة	-11.318
▁يهودية	-11.318
▁يشكلون	-11.3181
▁العنصري	-11.3183
▁الصوتية	-11.3184
غالبية	-11.3186
▁تفاهم	-11.3189
▁وعقد	-11.3189
▁يعرفون	-11.319
▁فايز	-11.3195
رئيس	-11.3197
تصور	-11.3197
▁ماء	-11.3198
▁هازارد	-11.3199
▁ابوظبي	-11.3199
▁ليبرمان	-11.3199
▁لارسال	-11.32
▁المسلمون	-11.32
▁يستغرق	-11.32
▁درعا	-11.32
▁واوكرانيا	-11.3201
▁المحرقة	-11.3201
▁دوائر	-11.3201
▁تعذيب	-11.3201
▁يعكس	-11.3202
▁ماتيس	-11.3204
▁تخطيط	-11.3205
▁حميد	-11.3208
▁المساهمة	-11.321
▁بحالة	-11.3213
▁المقاعد	-11.3215
▁المشاعر	-11.3218
▁الاعتقالات	-11.3219
بصمات	-11.3219
▁سيحصل	-11.322
▁والتقي	-11.322
▁الجانبان	-11.3221
▁للمستشارة	-11.3222
▁والبالغ	-11.3226
▁الاستجابة	-11.3228
▁الفقيرة	-11.3228
▁لخفض	-11.3229
47	-11.323
جامعات	-11.323
▁تجمد	-11.3232
▁امكان	-11.3234
▁واستمر	-11.3234
▁كولر	-11.3235
▁فرضية	-11.3236
▁التوقيت	-11.3237
▁وتحدثت	-11.3237
▁اكدوا	-11.3237
▁الحادية	-11.3239
▁العلوي	-11.3239
▁التكنولوجي	-11.324
وفسكي	-11.3241
كوفيد	-11.3243
▁احتجاجية	-11.3243
▁مهرب	-11.3244
▁الحاق	-11.3245
▁بمسؤولي	-11.3246
▁زود	-11.3247
▁موطن	-11.325
العنصرية	-11.3253
54	-11.3258
▁الجري	-11.3258
▁كروز	-11.3262
▁مداهمة	-11.3263
▁الاقلاع	-11.3264
▁الفاصل	-11.3264
▁لحلف	-11.3265
▁الفعلي	-11.3271
56	-11.3274
▁عنصرية	-11.3275
▁البروفسور	-11.3276
▁كوفاتش	-11.3276
▁عريقات	-11.3276
▁مساجد	-11.3276
▁المدمر	-11.3276
▁الجزائي	-11.3276
▁لشخص	-11.3277
زوم	-11.3277
▁سياح	-11.3278
▁حركات	-11.3278
▁حيوان	-11.3279
نجر	-11.3281
▁المستقيل	-11.3285
▁هبط	-11.3285
▁الكلمات	-11.3285
تضخم	-11.3287
دليل	-11.329
▁نظيف	-11.329
▁حلقة	-11.3292
بدلا	-11.3294
▁ويوضح	-11.3296
▁1200	-11.3298
▁وقرر	-11.3298
قضت	-11.33
▁احادي	-11.33
▁والثانية	-11.3306
اقصي	-11.3307
▁يحس	-11.3308
▁الجمعيات	-11.3309
▁الحسن	-11.3316
قذائف	-11.3318
▁المدرج	-11.3318
اريد	-11.3318
حبوب	-11.3319
منذ	-11.332
▁لاهاي	-11.3321
▁شرائ	-11.3322
▁تجر	-11.3324
▁البلاستيك	-11.3324
▁الامداد	-11.3325
▁كرواتيا	-11.3325
▁وسم	-11.3326
احات	-11.3328
▁ميلاده	-11.3331
▁دبلوماسيين	-11.3333
▁ضخ	-11.3335
▁الصدمة	-11.3336
▁وجرحي	-11.3336
خيانة	-11.3338
▁74	-11.334
اكتشاف	-11.3341
جزيرة	-11.3341
حدائق	-11.3341
▁لتسهيل	-11.3341
▁لمونديال	-11.3342
▁قطارات	-11.3345
انتصار	-11.3348
▁المعادي	-11.3349
يعني	-11.335
▁بكفاءة	-11.3353
▁جورنال	-11.3353
▁قوائم	-11.3353
▁مؤلف	-11.3353
▁حتفه	-11.3353
مواصفات	-11.3353
▁رؤيته	-11.3353
▁المركبة	-11.3353
لحظ	-11.3353
▁الابتعاد	-11.3356
▁العدوان	-11.3356
نسبة	-11.3358
59	-11.3358
▁اعتذار	-11.3359
▁اوجه	-11.3359
▁والعسكري	-11.336
▁*	-11.3362
▁التنافس	-11.3364
▁كيلوغراما	-11.3364
▁مفاعل	-11.3364
▁مهددة	-11.3364
▁بتلك	-11.3365
▁تكفي	-11.3366
▁بطرق	-11.3373
▁نسبته	-11.3374
▁سيشارك	-11.3376
▁توسك	-11.3377
عصف	-11.3378
فقر	-11.3378
▁المغنية	-11.338
▁لوكاس	-11.3381
▁للضغط	-11.3382
▁كومي	-11.3384
▁الحية	-11.3386
▁مفتوحا	-11.3386
▁كينيا	-11.3387
▁الايدي	-11.3394
▁زيد	-11.3398
انتهي	-11.34
▁التزم	-11.3403
▁المتكررة	-11.3406
▁يختار	-11.3407
نزاع	-11.3409
الحرب	-11.3411
▁وانهم	-11.3417
▁بفعل	-11.3418
▁المكسيكي	-11.3419
▁وصوت	-11.3419
▁تلقائيا	-11.3419
▁يعارض	-11.3421
▁البث	-11.3421
▁سياسيون	-11.3427
▁صاروخية	-11.3427
▁نصح	-11.3427
▁متشددة	-11.3428
▁الاحتباس	-11.343
▁المطاعم	-11.343
▁ويعتزم	-11.343
▁المغاربة	-11.343
▁للنفط	-11.343
▁مجاورة	-11.343
▁يلتزم	-11.343
▁الجائحة	-11.343
▁الاشارات	-11.343
▁النامية	-11.343
▁وكوريا	-11.3431
▁الدراجات	-11.3431
▁دييغو	-11.3431
▁البصرة	-11.3431
▁القنب	-11.3432
تقويض	-11.3432
▁فرقة	-11.3434
▁طريقهم	-11.3435
▁نيل	-11.3436
قطار	-11.3441
▁روي	-11.3443
اثناء	-11.3443
سايت	-11.3444
▁اسرار	-11.3445
ارهابي	-11.3445
▁القراصنة	-11.3446
▁وقدمت	-11.3447
▁الاسوا	-11.3448
▁المقبول	-11.345
▁والمناطق	-11.345
▁يتفق	-11.3451
حاسب	-11.3452
▁الانتماء	-11.3454
▁التمارين	-11.3455
▁بالانتخابات	-11.3456
▁اغنية	-11.346
▁الاحترام	-11.3461
▁الكلمة	-11.3461
موسم	-11.3461
▁عاني	-11.3465
ثقافة	-11.347
▁خلص	-11.347
▁تقيم	-11.3472
▁تباين	-11.3473
تحدد	-11.3473
▁وتضيف	-11.3473
▁للمدرب	-11.3475
▁مارين	-11.3475
اتخذ	-11.3477
مسجد	-11.3477
▁تخصص	-11.3479
▁انعدام	-11.348
كنولوجيا	-11.348
▁المصور	-11.3482
تعاطي	-11.3483
▁اسلاميون	-11.3487
▁التنوع	-11.3488
خفضت	-11.3489
▁البريطانيين	-11.349
▁يتعامل	-11.3492
▁تفكر	-11.3494
انفصال	-11.3498
▁الدار	-11.3498
▁تنته	-11.35
سفينة	-11.3502
▁دستوري	-11.3504
▁اصيبت	-11.3506
▁هانس	-11.3506
▁بيكنباور	-11.3508
▁كولومبيا	-11.3508
▁للدستور	-11.3508
فورتمبرغ	-11.3508
هاشتاغ	-11.3508
▁المراحل	-11.3508
▁تسليح	-11.3508
▁اقدام	-11.3508
▁المنتقد	-11.3509
▁وباريس	-11.3509
▁مناصب	-11.3509
▁ومقاتلي	-11.351
▁اكاديمية	-11.351
76	-11.3511
مليئة	-11.3511
شفا	-11.3511
▁يوب	-11.3511
▁العابدين	-11.3512
▁القاصر	-11.3512
تجمد	-11.3513
▁عاصفة	-11.3514
لعودة	-11.3515
▁تعزز	-11.3517
اقالة	-11.3519
▁الشيخوخة	-11.3525
حسب	-11.3527
▁صانع	-11.3529
▁كرد	-11.3529
▁ايجابيا	-11.3529
▁عصابات	-11.3529
▁الساق	-11.353
▁ومدن	-11.3533
▁سيقوم	-11.3533
▁يوجه	-11.3537
▁التشيك	-11.3538
▁ويقدم	-11.354
▁الفرات	-11.354
▁خليجية	-11.3545
▁بحزب	-11.3547
▁الخبز	-11.3549
▁والمدن	-11.3551
يوتيوب	-11.3554
اخلاء	-11.3555
تغريدات	-11.3556
اضطراب	-11.3556
▁ديني	-11.356
▁يتلقي	-11.3563
▁اراض	-11.3565
سموم	-11.3566
اثنين	-11.3566
▁اسلام	-11.3567
▁عفو	-11.3567
▁ساري	-11.3568
▁الابن	-11.3575
اغلاق	-11.3575
▁ذكية	-11.3577
▁السلع	-11.3579
رغبة	-11.3582
نبرغ	-11.3584
▁استبدال	-11.3586
جلد	-11.3587
▁بيحسن	-11.3587
هولوكوست	-11.3587
▁الاعتقاد	-11.3587
▁بالحجارة	-11.3587
▁بتوفير	-11.3587
▁والنمسا	-11.3587
▁غامض	-11.3587
▁هادئ	-11.3587
▁توقيت	-11.3587
▁سلفه	-11.3588
▁مراعا	-11.3588
▁براي	-11.3589
▁يستضيف	-11.3589
توافد	-11.3591
▁العميد	-11.3592
▁يدين	-11.3592
2017	-11.3592
▁السبعة	-11.3593
▁مخصص	-11.3595
▁ستستمر	-11.3596
▁جولات	-11.3596
▁موظفين	-11.3598
توالي	-11.36
68	-11.3601
▁قداس	-11.3601
▁ستيفان	-11.3601
▁تاسس	-11.3603
▁التظاهرة	-11.3604
▁للاحتفال	-11.3604
▁الاشجار	-11.3606
▁التقنيات	-11.3618
مترو	-11.3621
▁مناخ	-11.3624
▁العائد	-11.3627
غاب	-11.3628
▁اياكس	-11.363
▁باولو	-11.3631
▁ديمقراطية	-11.3636
احتواء	-11.3636
▁جنرال	-11.3637
تلفزيون	-11.3638
نحت	-11.364
▁داعية	-11.3642
▁ملامح	-11.3642
▁اصر	-11.3642
▁الليبيين	-11.3644
▁تؤ	-11.3649
▁لحوم	-11.365
فراج	-11.3654
▁يتعلم	-11.3654
خاصة	-11.3654
▁اشعار	-11.3654
عدائية	-11.3655
▁مميزة	-11.3655
قيس	-11.3655
▁وحرية	-11.3656
▁وخلف	-11.366
▁ليلي	-11.366
▁تمرير	-11.3662
صحافي	-11.3662
شاشات	-11.3663
▁والارهاب	-11.3664
▁والشرق	-11.3666
▁البغدادي	-11.3666
▁تاشيرات	-11.3666
▁العروض	-11.3666
▁تايلاند	-11.3666
▁وافراد	-11.3667
▁والسودان	-11.3667
امتحان	-11.3667
▁السكك	-11.3667
▁اولوية	-11.3667
▁الرواية	-11.3667
▁متطورة	-11.3667
▁انتشال	-11.3668
▁السوشي	-11.3669
حارس	-11.3669
▁اماراتي	-11.367
▁وتدمير	-11.3671
▁رواية	-11.3671
▁معلنا	-11.3672
▁سيؤدي	-11.3673
▁جيروم	-11.3673
▁ضواحي	-11.3675
▁لتقليل	-11.3677
▁ستبقي	-11.3678
▁القاري	-11.3681
▁تعطيل	-11.3681
▁البيولوجية	-11.3683
تكفل	-11.3685
▁العادل	-11.3686
▁ادخل	-11.3688
▁خبيرة	-11.3689
▁انتحارية	-11.369
▁البسيطة	-11.3692
▁واصبحت	-11.3695
▁وانتشر	-11.3696
▁والثقافة	-11.3696
▁وتوفي	-11.3697
بشر	-11.3701
▁الاوراق	-11.3704
▁مهد	-11.3704
▁فماذ	-11.3704
▁ويساعد	-11.3704
▁الشم	-11.3705
التهديد	-11.3708
توخي	-11.3708
▁وعمليات	-11.3709
▁الاختبار	-11.371
▁للقلق	-11.371
▁وقود	-11.371
71	-11.3711
▁اسبوعيا	-11.3712
▁متشددون	-11.3712
التحالف	-11.3714
حجاب	-11.3714
▁الخطير	-11.3715
انستغرام	-11.3715
▁الافتتاح	-11.3718
▁سامة	-11.372
▁كام	-11.3723
محكوم	-11.3725
▁لفتح	-11.3728
ارهابية	-11.3728
▁يظل	-11.373
▁تتناول	-11.3733
▁ملائم	-11.3735
▁سهلا	-11.3736
▁تلفزيوني	-11.3736
كامب	-11.3736
▁يفيد	-11.3738
▁1000	-11.3741
خطوات	-11.3742
سؤال	-11.3744
▁الاغتصاب	-11.3746
▁يسعون	-11.3746
▁المنتشرة	-11.3746
▁بدعوي	-11.3746
انترفاكس	-11.3746
▁الصاعد	-11.3746
▁الناجح	-11.3746
▁اوسكار	-11.3747
▁اولمبياد	-11.3747
▁الاعمار	-11.3747
▁المتبقية	-11.3747
▁البدلاء	-11.3747
▁واخيرا	-11.3747
هضبة	-11.3747
▁نابولي	-11.3747
متلازمة	-11.3747
▁الادني	-11.3748
▁العائلي	-11.3748
▁قضاه	-11.3748
▁اوربان	-11.3749
▁وصيف	-11.3749
▁الانواع	-11.3749
▁الاجنبي	-11.375
▁القسري	-11.3751
تعافي	-11.3751
سبق	-11.3753
▁وصفتها	-11.3754
توفي	-11.3757
مدفوع	-11.3757
▁مترو	-11.3758
تشويه	-11.3758
▁سيصبح	-11.3759
▁نفذتها	-11.3759
ارهابيين	-11.3759
▁وبينهم	-11.376
▁كيليان	-11.376
اعطاء	-11.3761
سليط	-11.3761
مسالة	-11.3764
▁تمريرة	-11.3768
▁صاروخا	-11.3768
▁براغ	-11.3768
▁للابحاث	-11.377
▁انقذ	-11.3772
▁الامطار	-11.3775
ينغن	-11.3776
▁سجين	-11.3776
▁وتنص	-11.3776
▁لافتات	-11.3778
انجاب	-11.3778
▁بالشرطة	-11.378
▁كاميرات	-11.3785
▁نظيفين	-11.3788
▁القدرات	-11.3794
▁للحرب	-11.3796
▁مقار	-11.3796
▁التقاعد	-11.3796
▁يكتب	-11.3796
احيانا	-11.3798
62	-11.3801
▁مدمر	-11.3801
▁استثناء	-11.3805
▁رئيسيا	-11.3806
▁طعم	-11.3807
▁تصرفات	-11.3807
▁القرصنة	-11.3807
وسائل	-11.3809
حوار	-11.381
تؤدي	-11.3815
▁الزمني	-11.3817
▁التقييم	-11.3818
سوم	-11.3819
وقاية	-11.3821
▁والدولية	-11.3822
وظائف	-11.3823
▁تخل	-11.3826
▁تتزعمه	-11.3827
▁تكهنات	-11.3827
▁الجزئي	-11.3827
▁سنتيمتر	-11.3827
▁مارادونا	-11.3827
▁هتلر	-11.3827
▁المملوك	-11.3827
▁اللحظات	-11.3827
▁ديمتري	-11.3827
▁مكاسب	-11.3828
▁امتداد	-11.3829
نداء	-11.3833
▁الظهور	-11.3834
▁كده	-11.3837
▁بيضاء	-11.3839
▁73	-11.384
▁المزاعم	-11.384
▁موسيقية	-11.3841
قاضي	-11.3841
يتطلب	-11.3841
افلات	-11.385
▁تروي	-11.3851
▁وتطالب	-11.3852
▁مثيل	-11.3853
▁بالفساد	-11.3853
▁السوائل	-11.3855
نظيره	-11.3855
طوارئ	-11.3855
▁بثلاثية	-11.3855
▁يجوز	-11.3855
خرق	-11.3856
يتضمن	-11.3858
تاغس	-11.3859
▁صديقة	-11.3862
▁الاورام	-11.3863
▁بمصر	-11.3863
▁تعليمات	-11.3866
▁كليا	-11.3866
▁تحذر	-11.3868
مقاومة	-11.3874
▁الشبكات	-11.3875
▁تاهيل	-11.3876
▁ناي	-11.3878
▁التوازن	-11.3879
▁يقاتل	-11.388
لترويج	-11.3881
▁الاثر	-11.3881
64	-11.3883
▁هاجمت	-11.3889
▁الاثناء	-11.389
سلوكيات	-11.3894
▁بجد	-11.3894
▁ايطالية	-11.3897
▁مصابين	-11.3902
▁خيم	-11.3902
▁تاثيرات	-11.3904
توحد	-11.3904
شعور	-11.3905
استطلاع	-11.3906
▁تفكيك	-11.3906
▁الانجاز	-11.3908
▁فنزويلا	-11.3908
▁لشبونة	-11.3908
▁الطاولة	-11.3908
▁الدخان	-11.3909
▁الروماني	-11.3909
▁كلوزه	-11.3909
▁وينغز	-11.3909
▁تكثيف	-11.3909
▁حياتنا	-11.3909
▁ينتشر	-11.3909
▁العطلة	-11.391
▁يحيي	-11.391
▁وتزامن	-11.391
▁مريح	-11.391
▁الجنين	-11.3912
▁للناس	-11.3914
▁الشفاء	-11.3915
▁القس	-11.3919
▁برئيس	-11.3921
ميدالية	-11.3921
▁شريف	-11.3923
▁الامثل	-11.3924
▁الرفض	-11.3926
▁تتكون	-11.3929
▁صلات	-11.3929
▁وبدون	-11.3933
ضغوط	-11.3934
زبائن	-11.3935
ساحة	-11.3937
▁الادمان	-11.3937
▁ونفذ	-11.3938
▁الفردية	-11.3941
▁متاجر	-11.3941
▁الافعال	-11.3941
▁شكك	-11.3943
ستمتع	-11.3944
▁وباكستان	-11.3946
▁بالهجوم	-11.3948
▁حصار	-11.3949
خيار	-11.395
▁يجلس	-11.3952
هجرة	-11.3952
▁ارواح	-11.3952
▁التصريح	-11.3953
▁استدعي	-11.3954
▁رؤوس	-11.3955
▁للمسابقة	-11.3955
▁المجري	-11.3961
بالطبع	-11.3961
▁استخبارات	-11.3962
علامات	-11.3963
▁واجهت	-11.3964
▁يحتاجون	-11.3964
▁تنافس	-11.3965
▁الامكان	-11.3968
قصص	-11.397
▁يتحرك	-11.3971
رسوم	-11.3973
▁الدراسي	-11.3973
▁البيولوجي	-11.3973
▁برون	-11.398
▁وخارجها	-11.3987
ورث	-11.3987
▁برلماني	-11.3988
شباب	-11.3988
هؤلاء	-11.399
▁تحضير	-11.399
▁لدورتموند	-11.399
▁الاستراتيجي	-11.399
▁الكفاءات	-11.399
▁الداعية	-11.399
▁للبقاء	-11.399
▁يلزم	-11.3991
تاغ	-11.3992
▁بمرور	-11.3993
▁اسنان	-11.3995
▁اصرار	-11.4002
▁احمدي	-11.401
▁عادلة	-11.4012
▁الدب	-11.4013
▁بقطع	-11.4015
▁ملموس	-11.4016
▁ساعدت	-11.402
▁اودت	-11.402
ردود	-11.4022
مستهلك	-11.4022
▁مؤشرا	-11.4023
▁ازدياد	-11.4025
58	-11.403
▁برفض	-11.4031
▁الطلاق	-11.4032
▁بالتزامن	-11.4033
▁­	-11.4033
خصم	-11.4034
▁اورز	-11.4035
▁ورات	-11.4039
▁الحص	-11.4041
▁ووقعت	-11.4044
توحيد	-11.4047
▁نزوح	-11.4052
لمنظمات	-11.4052
▁فقال	-11.4052
▁تتحرك	-11.4058
▁حيوانات	-11.4058
طوي	-11.406
▁تيمو	-11.4067
بعثة	-11.4069
▁طوكيو	-11.4073
▁لاصحاب	-11.4073
▁المتوفرة	-11.4073
▁جسيمة	-11.4073
▁العقاب	-11.4073
▁مصنوع	-11.4073
▁اجتاح	-11.4073
▁نورنبرغ	-11.4073
▁الخيرية	-11.4074
▁الشريط	-11.4074
▁كثف	-11.4074
▁مزيك	-11.4074
يشتبه	-11.4074
▁الايمن	-11.4075
▁الكلور	-11.4075
صحيفة	-11.4076
83	-11.4077
▁الفارين	-11.4078
جلطة	-11.4078
▁الحرائق	-11.4078
استيراد	-11.4078
▁باغلاق	-11.408
▁الخيال	-11.4085
▁الموالي	-11.4085
▁مفصل	-11.4086
مضادات	-11.4088
300	-11.4089
رست	-11.4089
▁امتنع	-11.4089
▁لكونه	-11.4091
▁للجوء	-11.4092
ريق	-11.4096
▁الاشراف	-11.4098
▁وجدد	-11.4099
▁المقدسة	-11.4101
▁الموقوفين	-11.4102
▁قيل	-11.4103
▁لوكسمبورغ	-11.4103
▁انتصارات	-11.4104
▁ملعبه	-11.4106
▁الثنائي	-11.4108
▁الانتصارات	-11.411
▁الاستهلاك	-11.412
▁بوصفه	-11.4121
ستعد	-11.4125
▁بدعوة	-11.4127
▁واصلت	-11.4128
استجواب	-11.4128
▁الزبائن	-11.4129
طيران	-11.4129
رئاسة	-11.413
اوروبي	-11.413
▁وانتقدت	-11.4131
▁جيو	-11.4132
▁كونه	-11.4134
▁رمي	-11.4136
حيث	-11.4138
سبورت	-11.4138
▁بداخله	-11.4139
شمس	-11.414
ازمات	-11.4141
32	-11.4144
▁كيلوغرام	-11.4145
▁صفحتها	-11.4147
صدمات	-11.4148
▁جهادية	-11.4152
كرام	-11.4154
لازم	-11.4155
ميس	-11.4156
▁استرالي	-11.4156
بوليساريو	-11.4156
▁التساؤل	-11.4156
▁رقابة	-11.4156
▁مزدوج	-11.4156
▁المتفجرة	-11.4156
تعقيب	-11.4156
▁مراهق	-11.4156
اوروبا	-11.4157
▁الافارقة	-11.4157
▁الحركات	-11.4157
▁وحلفاء	-11.4158
▁انقاذهم	-11.4158
▁بعودة	-11.416
▁الحبيب	-11.4162
▁المنعقد	-11.4162
طلعات	-11.4163
▁هرمز	-11.4163
▁بتستخدم	-11.4165
▁مبادئ	-11.4165
▁راشد	-11.4166
▁صاروخي	-11.4166
▁التسوق	-11.4168
▁الزيت	-11.4168
▁وبان	-11.417
احرار	-11.417
▁الناتجة	-11.4173
▁المفاصل	-11.4173
▁بتوجيه	-11.4176
▁محوري	-11.4177
فلور	-11.4177
اهمال	-11.4182
▁الصعوبات	-11.4183
▁ارادت	-11.4183
تحلل	-11.4183
▁للوقاية	-11.4184
▁كونها	-11.4187
▁سلطت	-11.4189
▁شقة	-11.419
▁اصابع	-11.4191
حساسية	-11.4193
▁2-1	-11.4193
الحزب	-11.4194
فرصة	-11.4194
ثاني	-11.4195
▁الجراحة	-11.4197
▁يستغل	-11.4198
فتتح	-11.4199
▁الرحم	-11.4205
تسلق	-11.4205
▁اندريه	-11.421
▁وتحول	-11.421
▁الهوا	-11.4211
42	-11.4211
الهجمات	-11.4213
▁مدعومة	-11.4214
▁سليماني	-11.4215
▁لبرشلونة	-11.4218
un	-11.4219
بلاد	-11.422
▁اميركا	-11.4221
بوابة	-11.4226
نسق	-11.4235
▁مغني	-11.4236
▁83	-11.4239
▁مقترحات	-11.424
”	-11.424
▁المراقبون	-11.424
▁بودولسكي	-11.424
▁كاذبة	-11.424
▁موغيريني	-11.424
▁ماراثون	-11.424
▁مكتوب	-11.424
▁الفلبين	-11.4241
▁الميليشيات	-11.4241
▁الارمن	-11.4241
▁مضادات	-11.4241
▁المعدات	-11.4242
ندعو	-11.4242
▁جذري	-11.4242
سيكون	-11.4243
▁الواقي	-11.4243
▁القطط	-11.4246
st	-11.4248
صوفيا	-11.4249
▁تطرق	-11.425
▁فاعل	-11.425
▁زوار	-11.4252
▁اخبر	-11.4255
▁الاقمار	-11.4255
▁حازم	-11.4255
▁حصري	-11.4256
▁دوت	-11.4257
مدخن	-11.426
▁ذهبت	-11.4262
▁بالتحقيق	-11.4266
فاجات	-11.4266
▁التنفسي	-11.4268
▁الجانبية	-11.427
مصادر	-11.4274
▁الترويج	-11.4276
مثيل	-11.4278
▁لافضل	-11.4278
▁باسره	-11.4284
▁وتشكل	-11.4286
لمعالجة	-11.4289
▁ولعب	-11.4293
▁واصدرت	-11.4293
67	-11.4295
▁مهني	-11.4296
مجرم	-11.4297
▁كوس	-11.431
▁متكرر	-11.4314
▁مقاتلا	-11.4315
▁ووعد	-11.4316
▁الواجب	-11.4318
▁العشائر	-11.4325
▁القصوي	-11.4325
▁والمكسيك	-11.4325
▁متفجرات	-11.4325
▁المخلوع	-11.4325
▁الاليزيه	-11.4325
▁الاعصار	-11.4325
▁حطام	-11.4325
▁كهربا	-11.4326
▁عماد	-11.4326
▁وقائع	-11.4326
▁نينوي	-11.4327
▁الخطيب	-11.4329
ويس	-11.4329
▁الجميل	-11.4331
وكالات	-11.4332
تاقلم	-11.4333
بولي	-11.4334
▁الالية	-11.4334
▁المفاعل	-11.4334
▁الفدرالية	-11.4339
▁الفضل	-11.4339
▁والسلام	-11.4341
▁مساعدته	-11.4341
بالغ	-11.4341
▁يقترب	-11.4341
▁للمدينة	-11.4342
غامر	-11.4343
كنيسة	-11.4347
▁تعال	-11.4349
▁اسهل	-11.435
▁الجامعية	-11.4351
▁ويندوز	-11.4354
▁بثلاث	-11.4356
▁الكاميرا	-11.4357
▁التهدئة	-11.436
▁فضاء	-11.4369
▁والعدالة	-11.437
▁القاها	-11.4373
▁الانسجة	-11.4374
▁سدد	-11.4377
لتهدئة	-11.4377
▁بالسلاح	-11.4379
▁الشرعيين	-11.438
▁يتحقق	-11.4381
▁ينحدر	-11.4381
▁ذاتية	-11.4382
▁الغربيين	-11.4382
▁الدماء	-11.4385
الانتماء	-11.4385
▁والدته	-11.4386
▁عادات	-11.4389
تفسير	-11.4389
▁النشر	-11.4389
▁وعدت	-11.4392
غارد	-11.4392
▁الماس	-11.4394
▁كروية	-11.4395
توازن	-11.4396
▁الفدرالي	-11.4397
▁لاسر	-11.4398
▁سمعة	-11.4398
▁تتغير	-11.4401
جزائر	-11.4402
الشرق	-11.4403
السوري	-11.4404
▁متوقع	-11.4405
52	-11.4409
نبثق	-11.441
▁الانترنيت	-11.4411
▁بقميص	-11.4411
التعويض	-11.4411
▁باسلحة	-11.4411
▁قضاة	-11.4411
▁اجرامية	-11.4411
▁الختامي	-11.4411
▁انتباه	-11.4411
▁بالوقود	-11.4411
▁الصغار	-11.4411
▁محتجين	-11.4411
▁بجوار	-11.4412
▁مستدام	-11.4413
▁دارفور	-11.4413
ترسانة	-11.4414
▁جوبا	-11.4415
جماهير	-11.4417
▁يقام	-11.4417
▁باعتقال	-11.4418
فوض	-11.442
▁بروك	-11.4421
▁بقيت	-11.4421
▁تظل	-11.4424
مضاعفات	-11.4424
▁قرع	-11.4425
▁يونس	-11.4425
ضحي	-11.4426
▁900	-11.4429
▁ميلانو	-11.443
▁الاسطورة	-11.443
الاعتماد	-11.4431
▁حداد	-11.4432
▁احالة	-11.4432
▁يقبع	-11.444
▁المواليد	-11.444
▁المسلسل	-11.4441
▁عميقة	-11.4442
▁نشط	-11.4443
▁والاعلام	-11.4444
تساوي	-11.4445
▁دامية	-11.4447
▁مرشحين	-11.4448
▁المفقودة	-11.445
▁سبعين	-11.4451
▁الحزم	-11.4452
▁يحول	-11.4452
▁توصلوا	-11.4462
▁مقاتلون	-11.4463
▁مجمل	-11.4466
توغل	-11.4468
▁الناطقة	-11.4469
نباتات	-11.4469
▁ويريد	-11.4469
▁والقلق	-11.4469
وتشي	-11.4471
▁يتناولون	-11.4472
▁اعيد	-11.4472
69	-11.4473
▁البني	-11.4473
تصويت	-11.4477
شيش	-11.4478
▁زعم	-11.4478
▁القنابل	-11.4478
▁الجنائي	-11.4484
استياء	-11.4485
▁المبدا	-11.4485
▁دق	-11.4486
77	-11.4487
▁بصوت	-11.4488
انطباع	-11.4488
▁تسلل	-11.449
▁بالبشر	-11.449
لينغ	-11.4491
التخطيط	-11.4492
▁مركب	-11.4494
▁قادرين	-11.4496
▁دلوقتي	-11.4497
▁غوانتانامو	-11.4497
▁والبرازيل	-11.4497
▁الكواكب	-11.4497
▁الاقباط	-11.4497
▁ريتشارد	-11.4497
▁والاوعية	-11.4497
▁مخزون	-11.4497
▁اللاتينية	-11.4497
▁الناقلة	-11.4497
▁بجراح	-11.4497
▁تمييز	-11.4497
▁قنصلية	-11.4497
▁وامراة	-11.4499
▁المصنعة	-11.4499
▁يميل	-11.4502
▁داعم	-11.4503
▁يسهل	-11.4505
تسيير	-11.4506
صداع	-11.4508
موضة	-11.4511
▁السبل	-11.4511
ركو	-11.4511
فرنسي	-11.4513
▁واحترام	-11.4513
▁واعتمد	-11.4515
▁2500	-11.4516
تفادي	-11.4518
مضاعفة	-11.4519
▁المائية	-11.4522
▁تمرد	-11.4523
▁76	-11.4524
▁ويحمل	-11.4524
▁ديوان	-11.4526
▁وتلقي	-11.4526
▁وشهد	-11.4526
فوكس	-11.4527
▁والهجرة	-11.4528
▁ازمات	-11.4528
,2	-11.4529
▁وتواجه	-11.4529
▁عملاء	-11.4529
▁الجينية	-11.4529
▁الطائفية	-11.4531
▁المربع	-11.4532
▁صريح	-11.4533
▁ابنة	-11.4533
▁الفيسبوك	-11.4536
▁الكمية	-11.4537
▁وتساعد	-11.4538
لائي	-11.454
▁الجسدية	-11.454
▁للصراع	-11.4542
▁الحساب	-11.4542
▁تشيلي	-11.4542
▁والمشاركة	-11.4543
▁بالذات	-11.4543
▁القولون	-11.4547
حفل	-11.4548
▁العل	-11.4548
▁التنظيف	-11.4549
▁تتابع	-11.4552
▁لضغوط	-11.4554
ne	-11.4555
▁الخصم	-11.4555
▁للاقتصاد	-11.4556
▁جارية	-11.4558
▁ليغ	-11.4561
▁الصاروخي	-11.4562
▁الاشعة	-11.4563
▁بالفشل	-11.4566
مناقشة	-11.4568
▁المحرك	-11.4568
▁فرار	-11.4569
▁التاييد	-11.457
▁العيد	-11.4572
▁السرير	-11.4572
لمان	-11.4574
▁ضعيفة	-11.4574
كود	-11.4574
▁الراب	-11.4576
امارة	-11.4579
▁والصحة	-11.4579
ازدهار	-11.4584
▁الكولومبي	-11.4584
▁الملياردير	-11.4584
▁اندونيسيا	-11.4584
▁رصاص	-11.4584
▁هاميلتون	-11.4584
▁وينتظر	-11.4584
▁بتطوير	-11.4584
▁الصيام	-11.4584
▁موناكو	-11.4584
▁شهادات	-11.4584
▁نقطتين	-11.4584
▁للحدود	-11.4584
▁توطين	-11.4584
▁الانبعاثات	-11.4584
تورنادو	-11.4584
▁الاوقات	-11.4584
▁ذراع	-11.4585
▁مشابه	-11.4585
▁ارهابيين	-11.4585
▁افراز	-11.4586
انتظر	-11.4587
▁ينهي	-11.4589
▁بسلام	-11.4589
▁الدقة	-11.459
▁وعناصر	-11.4591
ارادة	-11.4592
▁وحدد	-11.4594
53	-11.4596
▁شراكة	-11.4596
▁ريكس	-11.4597
▁ارجا	-11.4597
▁التبادل	-11.4597
▁توفيت	-11.4599
01	-11.4601
▁جينات	-11.4601
▁مهددا	-11.4603
▁السكن	-11.4603
اسواق	-11.4603
رسائل	-11.4608
▁86	-11.4611
▁واتفق	-11.4612
▁جيب	-11.4617
▁قراصنة	-11.4621
▁95	-11.4624
▁كلود	-11.4628
▁توعد	-11.4628
اكد	-11.463
▁دراسته	-11.4631
▁الجهد	-11.4632
▁وتولي	-11.4632
▁طلباتهم	-11.4633
▁مجهولون	-11.4634
خلص	-11.4636
▁اعتمد	-11.4638
▁متطرفين	-11.464
▁الموضة	-11.4641
▁هاجموا	-11.4642
▁تنمو	-11.4642
▁واعتقلت	-11.4645
▁غطاء	-11.4645
عصابات	-11.4648
البنتاغون	-11.4648
العمل	-11.4649
ترحيب	-11.465
▁ببطء	-11.4651
▁سريان	-11.4652
▁النرويج	-11.4652
▁ونفت	-11.4653
▁مراد	-11.4655
▁المزمنة	-11.4657
▁مودي	-11.466
غسيل	-11.4664
▁ماتس	-11.4665
▁لبلد	-11.4665
▁دمر	-11.4669
▁شملهم	-11.467
▁للحركة	-11.467
غلادباخ	-11.4671
▁الاندونيسي	-11.4671
▁التنبؤ	-11.4671
▁بنفيكا	-11.4671
▁الاقدام	-11.4671
▁مختبر	-11.4672
▁الشهود	-11.4672
▁واحرز	-11.4672
▁والناشط	-11.4672
▁المدخنين	-11.4672
▁خامس	-11.4672
▁المعيشة	-11.4672
▁شرسة	-11.4672
▁للتكنولوجيا	-11.4672
▁بطائرات	-11.4673
البرلمان	-11.4673
▁المالكة	-11.4673
اشعال	-11.4673
▁ياباني	-11.4673
▁وانتهت	-11.4673
▁بتفجير	-11.4673
▁السامة	-11.4675
▁استانف	-11.4676
تقاعد	-11.4677
▁بالاساس	-11.4677
▁المفضلة	-11.4678
كتابة	-11.4679
▁رحيله	-11.4681
▁محليون	-11.4683
استقبال	-11.4688
▁لنفسه	-11.469
▁المواضيع	-11.469
▁الزوجين	-11.4692
▁المسائل	-11.4693
▁يقتل	-11.4694
تخطي	-11.4701
▁افريقي	-11.4705
▁الثقافات	-11.4707
el	-11.471
▁سلبيا	-11.4711
▁الطائفة	-11.4711
▁يخسر	-11.4711
▁يصوت	-11.4711
▁ويظهر	-11.4711
▁الستين	-11.4714
▁محاكم	-11.4714
▁نقلهم	-11.4714
▁عرقي	-11.4714
▁جونز	-11.4717
▁يعلق	-11.4718
ائك	-11.4719
▁ارادة	-11.4722
▁يمنية	-11.4722
▁لاصلاح	-11.4722
مجلس	-11.4725
▁قتالية	-11.4726
▁معتقلين	-11.4727
▁مركبات	-11.4728
▁العسل	-11.4734
▁المغادرة	-11.4738
محتجز	-11.4741
▁المكلفة	-11.4748
اذن	-11.4755
▁الصحراوي	-11.476
▁الطفولة	-11.476
▁ضلوع	-11.476
فولكسفاغن	-11.476
▁الغنوشي	-11.476
te	-11.476
▁شاهين	-11.476
▁يعالج	-11.476
▁المتقدمة	-11.4761
▁قلوب	-11.4762
▁مهدد	-11.4762
▁تنتقل	-11.4765
لتعريف	-11.4765
▁79	-11.4768
▁ينتظرون	-11.4769
▁القط	-11.4769
لمصلحة	-11.4771
▁الكون	-11.4772
تهميش	-11.4775
تليف	-11.4778
43	-11.4779
▁المتقاعد	-11.4779
▁المطعم	-11.4779
ستحيل	-11.478
▁450	-11.478
▁احتلال	-11.4787
▁واعتقل	-11.4788
▁وبث	-11.4791
ضيوف	-11.4795
▁ميس	-11.4796
صانع	-11.4796
مرتكب	-11.4796
▁النظافة	-11.4801
ؤهم	-11.4802
▁للتدخل	-11.4804
▁يقال	-11.4804
الحوار	-11.4807
▁الزهايمر	-11.4815
▁الشرف	-11.4815
مجتمع	-11.4815
▁رائعا	-11.4817
▁ايرباص	-11.4818
▁الانجاب	-11.4821
▁الدامية	-11.4824
▁سياستها	-11.4825
▁زمني	-11.4826
▁نادرا	-11.4826
تخصيب	-11.4827
تمر	-11.4831
▁فوكس	-11.4832
لاحياء	-11.4833
▁محسن	-11.4838
ضحية	-11.4839
▁بحقهم	-11.4839
▁اضطرت	-11.4845
▁تشت	-11.4845
▁مسبقة	-11.4849
▁بانتظار	-11.4849
▁العبارات	-11.4849
▁فادح	-11.4849
▁تخشي	-11.4849
▁وضوح	-11.4849
▁لفيروس	-11.4849
▁هرتا	-11.485
▁حصص	-11.485
موبايل	-11.485
▁ناقلة	-11.485
▁ومازال	-11.485
▁يتجه	-11.485
▁الحساسة	-11.4851
▁قيادته	-11.4852
الاتفاق	-11.4852
▁الاقليات	-11.4855
مطاردة	-11.4855
فونكه	-11.4857
▁مخدر	-11.4859
▁السكانية	-11.486
▁تترك	-11.486
▁ضمت	-11.4862
▁العيار	-11.4863
▁مسح	-11.4867
▁متفرج	-11.4868
▁ومواقع	-11.4868
▁التقديرات	-11.4868
▁بطلبات	-11.487
▁قرا	-11.4872
نغر	-11.4872
,4	-11.4872
▁باعداد	-11.4873
▁والروسي	-11.4874
ro	-11.4874
رابطة	-11.4875
بدت	-11.4875
قسط	-11.4876
ترامب	-11.4876
▁الاجور	-11.4879
▁بثته	-11.4881
▁سياحية	-11.4883
▁الراحة	-11.4884
▁نافي	-11.4885
▁تباع	-11.4886
46	-11.4888
▁القاه	-11.489
▁مفتوح	-11.489
▁تميز	-11.4891
▁معتاد	-11.4892
61	-11.4893
▁الدبلوماسيين	-11.4893
مدرسة	-11.4897
تحرر	-11.4899
▁ازدادت	-11.49
▁السينمائية	-11.4901
▁ودية	-11.4902
▁وعما	-11.4904
▁التقطت	-11.4905
▁حاج	-11.4911
▁الموجودين	-11.4913
▁مغربية	-11.4914
▁شوط	-11.4915
▁اغلق	-11.4916
اظهار	-11.4918
تفويض	-11.492
▁تبدي	-11.4924
▁لنتائج	-11.4925
فالتر	-11.4925
▁للوضع	-11.4929
,6	-11.4931
▁وعددهم	-11.4931
31	-11.4932
▁استثنائي	-11.4934
▁الداعمة	-11.4937
▁والنظام	-11.4938
▁النصر	-11.4939
▁بالبرازيل	-11.4939
▁بوخوم	-11.4939
▁المسموح	-11.4939
▁المعطيات	-11.4939
▁هزيمته	-11.4939
▁الاشكال	-11.4939
▁لتمويل	-11.4939
▁واكتشف	-11.4939
البلوغرانا	-11.4939
▁الابواب	-11.494
▁الادوات	-11.494
▁مرتكبي	-11.494
▁قفز	-11.494
▁رواتب	-11.494
▁السارين	-11.4941
▁متكامل	-11.4941
▁تنشط	-11.4943
الفريق	-11.4944
▁فيراري	-11.4945
وبو	-11.4945
لصوص	-11.4945
▁ترسل	-11.4947
▁المعالج	-11.4948
▁القران	-11.4948
ؤرخ	-11.495
▁بروتين	-11.4951
▁لخمس	-11.4952
▁بيخلق	-11.4954
▁الحملات	-11.4954
تنظيف	-11.4955
▁يتيم	-11.4958
مواقف	-11.4958
نويه	-11.4959
▁اشعر	-11.496
▁واعمال	-11.4961
قراط	-11.4961
هدنة	-11.4962
▁فالس	-11.4966
ياهو	-11.4966
▁يصر	-11.4966
▁بتاع	-11.4966
▁مصرعهم	-11.4973
فورت	-11.4974
▁تضاعف	-11.4974
▁يمثلون	-11.4976
▁ماكين	-11.4976
▁احتواء	-11.4976
▁الحمام	-11.4978
اذاعة	-11.4978
▁بيكر	-11.498
▁برين	-11.4981
اصيل	-11.4982
طير	-11.4983
▁تقليدية	-11.4984
▁المقدم	-11.4992
قصة	-11.4996
▁الفاشلة	-11.4997
▁دروس	-11.4999
▁بالغاز	-11.4999
▁الفيل	-11.5
▁تتراجع	-11.5001
تماشي	-11.5003
▁دقة	-11.5005
▁ومحمد	-11.501
التطرف	-11.501
me	-11.5012
خزن	-11.5014
▁فردا	-11.5015
▁تفضل	-11.5016
الخارجية	-11.5017
▁ولادة	-11.5018
▁الزوجية	-11.502
مناسب	-11.5022
▁السلفيين	-11.5026
▁صورته	-11.5026
السعودية	-11.5027
▁المزعوم	-11.503
▁الاشعاع	-11.503
▁هوليوود	-11.503
▁للقناة	-11.503
قذيفة	-11.503
▁الطراز	-11.503
▁غونتر	-11.503
▁مكالمة	-11.503
▁باللاجئين	-11.503
▁الابداع	-11.503
▁انتزاع	-11.503
تذكير	-11.5031
نصيحة	-11.5031
▁الدهس	-11.5031
▁المصلين	-11.5031
▁الثمين	-11.5031
▁جاكسون	-11.5031
▁تستبعد	-11.5032
▁حامد	-11.5033
سبر	-11.5033
▁انترنت	-11.5033
▁للتظاهر	-11.5033
▁بدائل	-11.5034
▁تضررا	-11.5035
▁يرسل	-11.5035
▁الحميد	-11.5036
is	-11.5037
لول	-11.5037
▁ورجل	-11.5039
▁العجز	-11.5041
لعلماء	-11.5043
تعاني	-11.5048
وثائق	-11.5049
▁حزام	-11.505
▁ميدانيا	-11.5053
تصاب	-11.5053
▁والاسلامي	-11.5053
ختلط	-11.5057
ستكمل	-11.5058
▁يقر	-11.5061
▁تتضح	-11.5063
▁وواصل	-11.5065
▁ولاعب	-11.5065
ti	-11.5068
انجليزي	-11.5069
تعايش	-11.507
رسون	-11.5072
غالي	-11.5078
▁الحاسمة	-11.5083
▁اطاح	-11.5083
▁مهدي	-11.5091
▁الحراس	-11.5093
الاسراع	-11.5095
▁زمنية	-11.5098
▁الحمد	-11.5101
▁النفطي	-11.5103
يؤثر	-11.5106
▁والعرب	-11.5107
▁تلت	-11.511
▁نشاطات	-11.5116
ستنادا	-11.5117
قايد	-11.5117
▁مجهولة	-11.5118
كويت	-11.512
▁1994	-11.5122
▁المسيح	-11.5122
▁ديمبلي	-11.5122
▁راخوي	-11.5122
▁تعقيدا	-11.5122
▁الفعاليات	-11.5122
▁زائد	-11.5122
▁الثوار	-11.5122
▁اللذان	-11.5122
▁متباينة	-11.5122
استقدام	-11.5122
▁انابيب	-11.5123
تسونامي	-11.5123
▁للسكان	-11.5123
▁الركبة	-11.5124
هولشتاين	-11.5124
▁النادر	-11.5124
تلعب	-11.5124
▁ارمينيا	-11.5125
▁بولتون	-11.5126
▁عالي	-11.5127
▁الصلة	-11.5127
▁يستخدمها	-11.5132
▁(..)	-11.5136
شبكات	-11.5141
▁يوليان	-11.5141
▁الجمال	-11.5142
▁بكتيريا	-11.5142
▁ومالي	-11.5143
تتضمن	-11.5143
▁كلاعب	-11.5144
▁جددت	-11.5146
شفرة	-11.5147
فرانس	-11.5149
▁بيتم	-11.5151
▁الجنسين	-11.5152
▁حساسية	-11.5153
▁الافتتاحية	-11.5155
▁وتامل	-11.5155
▁نفق	-11.5156
▁البوب	-11.5156
▁الكوارث	-11.5157
▁مزاد	-11.5157
▁اليونسكو	-11.5157
▁تعافي	-11.5158
▁ترتدي	-11.5158
▁خفيفة	-11.5158
طارد	-11.5163
▁مناهض	-11.5165
▁العاصفة	-11.5167
▁صرف	-11.517
خوذ	-11.5173
ثمرة	-11.5173
حتفل	-11.5174
▁لترامب	-11.5177
▁احتجزت	-11.5178
▁القرية	-11.5178
▁الضيوف	-11.5179
▁لانتخاب	-11.5179
▁واضطر	-11.5179
▁الجودة	-11.5181
▁توم	-11.5182
▁قديم	-11.5186
▁ماساة	-11.5187
▁بنود	-11.519
▁بيض	-11.5192
▁والسلطات	-11.5194
اسباب	-11.5195
▁واحت	-11.5196
▁ضحيتها	-11.5198
▁ووصلت	-11.5198
▁منفذي	-11.52
33	-11.5201
▁وحظر	-11.5206
▁البيئي	-11.5208
▁وجوه	-11.5211
▁سنغافورة	-11.5215
▁وطهران	-11.5215
▁ثقيلة	-11.5215
▁تثبيت	-11.5215
▁العشوائي	-11.5215
▁بوساطة	-11.5215
لخبراء	-11.5215
▁المؤشرات	-11.5215
▁والشركات	-11.5215
▁الاستحمام	-11.5215
▁المسجلة	-11.5215
▁العبرية	-11.5215
▁شغب	-11.5215
▁التكلفة	-11.5215
▁ضئيلة	-11.5216
▁رخصة	-11.5217
▁ادارته	-11.5218
▁الحجاج	-11.5218
▁جمعيات	-11.5224
▁افغان	-11.5227
▁متوقعة	-11.523
▁بثها	-11.5232
▁الصر	-11.5232
ينغر	-11.5233
روت	-11.5233
▁تعرضهم	-11.5239
▁للسياسة	-11.5239
▁جدي	-11.5241
عرقلة	-11.5247
ستسلم	-11.5247
ابحاث	-11.5248
▁لمقاتلي	-11.5251
▁المتزايدة	-11.5252
صير	-11.5256
▁المفضل	-11.5257
▁الابتكار	-11.5258
جفاف	-11.5261
▁ركن	-11.5262
▁احساس	-11.5263
▁اعماق	-11.5263
▁فيمكن	-11.5267
طاقات	-11.5271
▁الارز	-11.5272
منظور	-11.5278
▁تساقط	-11.5278
▁كاد	-11.5282
▁وارد	-11.5282
▁ميغ	-11.5283
▁رهن	-11.5284
▁صبر	-11.5284
▁لتقييم	-11.5291
استكمال	-11.5291
▁تدعمها	-11.5292
▁تطبق	-11.5292
▁المحاولة	-11.5294
عاطف	-11.5295
اهمية	-11.5298
بشرة	-11.5299
▁الطائفي	-11.5302
▁هدوء	-11.5303
▁خوان	-11.5304
▁العثماني	-11.5304
j	-11.5308
▁الاحتياجات	-11.5308
▁اليزابيث	-11.5308
▁الخزانة	-11.5308
▁المناهج	-11.5308
▁للصليب	-11.5308
▁المسابقات	-11.5308
▁تنتقد	-11.5308
لخضوع	-11.5308
تشكيك	-11.5308
▁التماير	-11.5308
▁اشعل	-11.5308
▁اقوال	-11.5308
▁محاور	-11.5308
▁بشعبية	-11.5309
▁تشريعية	-11.5309
▁عبارات	-11.5309
فرشاة	-11.5309
▁الدراجة	-11.5309
▁للسياح	-11.531
مجلة	-11.531
▁سوزان	-11.531
▁عاتق	-11.5311
▁الوفاء	-11.5311
▁يهتم	-11.5311
▁السياج	-11.5312
▁مونستر	-11.5314
▁هروب	-11.5315
سلطنة	-11.5315
انعاش	-11.5315
▁خزان	-11.5316
لافراج	-11.5317
▁حبيب	-11.5317
▁ومجلس	-11.5318
▁مقتنع	-11.5318
جيري	-11.532
▁واخرين	-11.5326
بغية	-11.5327
▁رافضا	-11.5328
▁بلادنا	-11.5336
▁قلل	-11.5336
▁والشباب	-11.5341
لقط	-11.5345
شيخ	-11.5347
مساواة	-11.5348
▁الاولمبي	-11.5349
▁يحاكم	-11.5353
▁للرجال	-11.5358
▁ناس	-11.5359
لانفتاح	-11.536
▁الهضم	-11.536
▁الذهب	-11.536
▁قلت	-11.536
شحن	-11.5363
▁جمهوري	-11.5364
▁ممتلكات	-11.5367
▁تبث	-11.5368
▁القطاعات	-11.5373
▁تمثال	-11.5376
▁ارهاب	-11.5379
▁ابادة	-11.5385
▁110	-11.5386
شتوتغارت	-11.5386
▁بخمسة	-11.5387
ماثل	-11.5391
▁معارضته	-11.5393
▁بكتير	-11.5398
▁الاداري	-11.5399
وهو	-11.5399
استفتاء	-11.5399
▁الروبوتات	-11.5401
▁السيناريو	-11.5402
▁مسموح	-11.5402
▁استطيع	-11.5402
▁السوفيتي	-11.5402
▁ضجة	-11.5402
رصاد	-11.5402
▁لتسوية	-11.5402
دايملر	-11.5403
▁المناقشات	-11.5403
▁ماليزيا	-11.5403
حوافز	-11.5403
▁استضافت	-11.5403
▁الاهرام	-11.5403
▁مادورو	-11.5403
▁ستافان	-11.5403
تسابق	-11.5404
▁فولكر	-11.5405
▁تعويضات	-11.5409
▁موضوعات	-11.5415
▁جاذبية	-11.5417
تدبير	-11.5419
اتمني	-11.542
▁المخصص	-11.5422
▁كورتس	-11.5424
▁عرقلة	-11.5425
▁لطرد	-11.5426
▁خاضها	-11.5427
تفاصيل	-11.5427
▁بحري	-11.5428
انهيار	-11.5434
نوبة	-11.5436
▁عادوا	-11.5439
قدرات	-11.544
▁اشتهر	-11.5441
▁كرر	-11.5442
▁المكونات	-11.5442
▁سرعا	-11.5443
▁مواضيع	-11.5443
▁ازداد	-11.5443
▁التصنيف	-11.5445
▁وتطبيق	-11.5446
السكتة	-11.5446
عظام	-11.5448
▁المصادقة	-11.5448
es	-11.5452
▁المعاناة	-11.5453
انسجة	-11.5455
▁الجلدية	-11.5463
شتهر	-11.5463
ذلك	-11.5465
▁مسؤولو	-11.5466
▁تصنف	-11.5468
▁لرفع	-11.5469
▁محتجزين	-11.5474
▁للاسف	-11.5475
▁تصفيات	-11.5476
▁للعلاقات	-11.5476
▁اقليمي	-11.5479
▁بحملة	-11.5479
تعد	-11.548
▁المؤيدين	-11.5483
▁ومؤسسات	-11.5485
▁السد	-11.5485
ليلة	-11.5485
▁اكون	-11.5488
▁الغريبة	-11.549
ساعة	-11.5491
,7	-11.5491
▁انتخابي	-11.5495
▁حذف	-11.5495
▁البعوض	-11.5498
▁يرتدون	-11.5498
▁التزلج	-11.5498
تجاعيد	-11.5498
تباحث	-11.5498
▁هامبورج	-11.5498
▁مواعيد	-11.5498
▁الصعود	-11.5498
▁ضار	-11.5498
▁الرافض	-11.5498
▁يحرز	-11.5498
▁مجريات	-11.5498
غثيان	-11.5499
▁والسويد	-11.5499
▁الفعالة	-11.5499
▁المسجون	-11.55
تداعي	-11.55
▁للبيع	-11.55
▁ايسن	-11.55
▁يحمي	-11.5501
▁يتميز	-11.5502
▁والاعتداء	-11.5503
▁واغلاق	-11.5504
▁رافع	-11.5505
▁طورت	-11.5509
جهادي	-11.5511
▁الاجرامية	-11.5514
▁سالم	-11.5514
▁الاجهاد	-11.5517
بكتيريا	-11.5523
▁سجناء	-11.5526
▁المبيعات	-11.5527
▁المهرجانات	-11.5529
▁المنصات	-11.553
▁التنقل	-11.5531
08	-11.5534
▁المعلق	-11.5536
▁بادر	-11.5536
لعثور	-11.5537
▁للاسر	-11.5537
▁متفوق	-11.5539
قوس	-11.554
▁لاقناع	-11.5541
▁تصد	-11.5547
▁اريك	-11.5548
▁ايصال	-11.5549
▁متواجد	-11.555
▁اعتقلوا	-11.5552
▁مداخل	-11.5553
▁الغرق	-11.5557
▁لعرض	-11.5562
▁وعبرت	-11.5562
تدني	-11.5564
▁تقارب	-11.5567
▁لنيل	-11.5573
لطالبي	-11.5575
اسطنبول	-11.5579
يحرم	-11.5582
▁السائل	-11.5583
▁وجدوا	-11.5589
▁احتشد	-11.5594
▁اقتراع	-11.5594
▁يناهز	-11.5594
▁الهادئ	-11.5594
▁المركبات	-11.5594
▁رائف	-11.5594
▁الجوانب	-11.5594
▁المضطرب	-11.5594
▁المتعددة	-11.5594
▁99	-11.5594
▁احلام	-11.5594
ستيقظ	-11.5594
▁واوردت	-11.5594
▁عقاب	-11.5595
▁المعنيين	-11.5596
▁مستعدون	-11.5597
▁الهيكل	-11.5597
▁اختتم	-11.5598
▁بحصوله	-11.5599
▁والهند	-11.5601
▁توريد	-11.5601
▁الوحشي	-11.5612
▁يتواصل	-11.5613
ؤسس	-11.5614
اردو	-11.5614
▁الارواح	-11.5619
▁الفشل	-11.5619
▁بكامل	-11.5619
,3	-11.5621
استهلاك	-11.5622
▁ويستخدم	-11.5624
استندت	-11.5626
▁المعاملة	-11.5627
▁ثوان	-11.5637
▁ابتكر	-11.564
▁للتعذيب	-11.5641
▁الافق	-11.5644
▁محاولتهم	-11.5649
▁وتوفر	-11.5652
تايم	-11.5655
▁حصان	-11.5664
▁العقاقير	-11.5667
▁الصفر	-11.5669
بتعتمد	-11.5669
▁مجهود	-11.5671
▁170	-11.5676
▁لمنح	-11.5676
▁بريكست	-11.568
▁للمجموعة	-11.5681
المسيحي	-11.5682
▁باهمية	-11.5686
تزال	-11.5688
▁الكيميائي	-11.5689
فيستفاليا	-11.5691
▁الحواجز	-11.5691
▁هتافات	-11.5691
▁يلدريم	-11.5691
▁الفيزياء	-11.5691
▁واستطاع	-11.5691
▁دونيتسك	-11.5691
▁الكمامات	-11.5691
▁لامراض	-11.5691
▁يرافق	-11.5691
▁الترفيه	-11.5691
▁المستثمرين	-11.5691
▁باهظ	-11.5691
غيورغ	-11.5691
▁ويعاني	-11.5691
▁اردني	-11.5692
▁ابراهيموفيتش	-11.5692
▁فيرنر	-11.5692
▁الخلفية	-11.5693
تفاوت	-11.5696
▁الباجي	-11.5698
▁تنمية	-11.5698
▁الفقري	-11.5702
▁زائر	-11.5703
▁الاحساس	-11.5707
▁يتكون	-11.5709
تشدد	-11.5713
اكياس	-11.5715
▁ادمان	-11.5715
▁وتصدر	-11.5717
عواقب	-11.572
قنبلة	-11.5721
شراكة	-11.5721
▁اعتمدت	-11.5721
▁درب	-11.5723
▁الدعوات	-11.5725
▁ستقوم	-11.5726
▁سيعود	-11.5728
▁معاناته	-11.5728
الهجوم	-11.5731
▁معارضي	-11.5732
na	-11.5734
▁العاجل	-11.5735
▁مظاهر	-11.5737
▁الفضيحة	-11.5738
▁مضطر	-11.5742
▁القنبلة	-11.5747
▁ناب	-11.5747
▁مبادرات	-11.575
▁قضو	-11.575
▁المتمثل	-11.5754
▁المصنع	-11.5755
▁والتغيير	-11.5757
▁باحثين	-11.576
▁مستحضرات	-11.576
▁الماية	-11.5763
▁لويز	-11.5766
▁السنغال	-11.5768
▁الانفلونزا	-11.5772
▁اخطار	-11.5774
▁غادروا	-11.5775
يرتفع	-11.5776
الدستور	-11.5777
تعمل	-11.5777
اولئك	-11.5778
▁بالدم	-11.5778
لذهاب	-11.5779
▁ابرم	-11.578
▁يحسم	-11.5782
▁الشاعر	-11.5784
▁النصفي	-11.5787
▁ضئيل	-11.5788
تفرج	-11.5788
▁1991	-11.5789
▁الموريتاني	-11.5789
▁غوندوغان	-11.5789
▁المطروحة	-11.5789
▁الدهنية	-11.5789
▁العبء	-11.5789
▁المحسوب	-11.5789
▁المتورطين	-11.5789
▁والمسلمين	-11.5789
▁الفيتامينات	-11.5789
▁الايسر	-11.579
الناتو	-11.579
▁والتكنولوجيا	-11.579
▁اختراع	-11.5791
▁عجلة	-11.5792
▁منشاة	-11.5792
قته	-11.5793
▁حقائب	-11.5794
▁الدوام	-11.5797
▁جوازات	-11.58
زميل	-11.5802
▁الخلفي	-11.5803
▁ورصد	-11.5803
▁بارد	-11.5803
▁قولهم	-11.5804
▁استانا	-11.5807
▁هاينز	-11.5807
▁وبايرن	-11.5807
▁الهادي	-11.5808
▁الاربعين	-11.5809
شخصية	-11.5809
▁مشارف	-11.581
▁عمود	-11.5811
▁بالبلاد	-11.5814
▁بتحليل	-11.5818
الدول	-11.5819
▁تلقو	-11.582
▁المتطوعين	-11.582
اقتراح	-11.5821
اصوات	-11.5824
▁النهر	-11.5825
▁العدو	-11.5825
▁امتدت	-11.5825
نقابات	-11.5825
▁سيساعد	-11.5826
▁انستغرام	-11.5828
▁الفاكهة	-11.5828
▁ويلز	-11.5829
لحاق	-11.5829
▁للاستخدام	-11.583
▁وكرر	-11.583
▁محاولته	-11.5833
▁التدريبية	-11.5833
▁بالانسحاب	-11.5834
▁تشدد	-11.5834
▁وتدريب	-11.5835
▁84	-11.5836
باتريك	-11.5837
انتهاء	-11.5838
▁عائلاتهم	-11.5841
▁للمركز	-11.5844
صفحات	-11.5846
لكرامة	-11.5847
سنواصل	-11.5848
▁واصدر	-11.5851
▁وتنفيذ	-11.5854
▁اثني	-11.5856
▁للنظر	-11.5857
▁تخوض	-11.5857
▁يتطلع	-11.5858
▁ممثلون	-11.5861
▁كوري	-11.5864
▁لمعلومات	-11.5865
▁بالاعتداء	-11.5866
▁منبج	-11.5867
▁للوزراء	-11.5872
*	-11.5876
ليفركوزن	-11.5876
▁السائدة	-11.5876
اعجاب	-11.5876
مضت	-11.5877
▁طفيف	-11.5883
لتربية	-11.5888
▁المنتظم	-11.5888
▁بكثرة	-11.5888
▁للباحثين	-11.5888
اكاذيب	-11.5888
▁مزعوم	-11.5888
تعريض	-11.5888
▁المستدامة	-11.5888
ذخائر	-11.5888
▁فنادق	-11.5888
▁مذهل	-11.5888
▁الشرايين	-11.5888
▁كهربائي	-11.5888
▁المتعثرة	-11.5888
▁المؤهل	-11.5888
▁تدوير	-11.5888
▁مالطا	-11.5889
▁اصدقائه	-11.5889
▁1995	-11.589
▁اعفاء	-11.589
▁دراجة	-11.5891
▁الهلال	-11.5892
▁الزائر	-11.5892
يهدد	-11.5892
▁والفصائل	-11.5893
▁وطبقا	-11.5894
▁الصفراء	-11.5895
▁الحلول	-11.5895
استشارة	-11.5895
▁قصور	-11.5895
▁لوزان	-11.5896
▁صائب	-11.5897
ندرج	-11.5898
▁قوارب	-11.5898
▁للطب	-11.5905
▁المستحيل	-11.5905
▁(33	-11.5905
ستجيب	-11.5906
▁الهروب	-11.5906
▁والبرلمان	-11.5909
▁تنصيب	-11.5911
مؤسسات	-11.5912
اصفة	-11.5912
▁والديمقراطية	-11.5913
▁الانتصار	-11.5914
▁نستطيع	-11.5915
معدل	-11.592
▁الهندسة	-11.5922
▁الصرف	-11.5923
▁البضائع	-11.5925
▁مدتها	-11.5927
نازحين	-11.5927
▁للمملكة	-11.5929
▁مريم	-11.593
▁سيبدا	-11.593
▁الدعاية	-11.5932
عاهد	-11.5933
▁بتدريب	-11.5935
▁متمردي	-11.5936
▁الشركاء	-11.5937
الليبرالي	-11.5939
استسلام	-11.5945
ضيع	-11.5947
السلام	-11.5947
▁صديقته	-11.5951
▁مخالفات	-11.5952
▁مطر	-11.5953
▁ترافق	-11.5957
▁تقييد	-11.5964
▁الكاثوليك	-11.5966
▁تجميع	-11.5968
روائح	-11.5968
الفلسطيني	-11.5971
ابداء	-11.5973
وثوق	-11.5973
ma	-11.5974
عاصمة	-11.5975
لحرس	-11.5976
ضواحي	-11.5978
رعي	-11.5981
▁لمقتل	-11.5981
ادلي	-11.5987
▁المتفجرات	-11.5988
▁الكوميدي	-11.5988
▁الاجسام	-11.5988
▁تعريف	-11.5988
▁دانييل	-11.5988
▁جعفر	-11.5988
▁والمياه	-11.599
▁مسبق	-11.599
بندقية	-11.599
▁استطاعت	-11.5991
▁لليمين	-11.5992
بريطانيا	-11.5992
▁باردو	-11.5992
▁الكونغو	-11.5995
▁افتراضي	-11.5995
▁راموس	-11.5995
▁القبول	-11.5996
هدايا	-11.5997
▁سرب	-11.5997
▁تطبيع	-11.5998
▁كلوني	-11.6001
▁احاط	-11.6002
▁الناجين	-11.6004
يويفا	-11.6006
▁واستقرار	-11.6007
سيارتين	-11.6008
وقال	-11.6009
مغامرة	-11.601
▁الامال	-11.6011
▁كارلوس	-11.6012
يتصدر	-11.6015
▁وتحليل	-11.6015
▁المزاد	-11.6016
▁وتستخدم	-11.6019
▁الجوائز	-11.6021
▁فاعلية	-11.6022
▁الفجوة	-11.6024
▁ارتكبها	-11.6026
▁واستراليا	-11.6026
▁امضي	-11.6028
▁وافريقيا	-11.6028
فزع	-11.6029
راقص	-11.603
▁المادية	-11.6031
▁مسمي	-11.6038
كائنات	-11.6038
▁ستقدم	-11.6046
▁سحق	-11.6047
ريتش	-11.6047
اكثار	-11.6048
▁لمطالب	-11.6049
▁يتراجع	-11.6052
▁استخراج	-11.6053
▁بالحزب	-11.6054
مثير	-11.6055
سخر	-11.6056
هرمون	-11.606
▁متاكد	-11.606
▁معارضون	-11.6064
▁اتفاقيات	-11.6065
▁للفيفا	-11.6066
▁ممارسات	-11.6067
▁وقائي	-11.6068
▁القراءة	-11.6068
▁مزايا	-11.607
بامكان	-11.6071
▁اغلي	-11.6074
▁بالامكان	-11.6076
73	-11.6077
تطبيع	-11.6079
تقسيم	-11.6081
▁والامنية	-11.6081
دولف	-11.6082
▁عداد	-11.6083
قوارب	-11.6086
▁فلن	-11.6088
▁اختصاص	-11.6089
▁الكومبيوتر	-11.6089
▁المرزوقي	-11.6089
▁بكثافة	-11.6089
▁تشارلز	-11.6089
▁بانفسهم	-11.6089
▁كوشنر	-11.6089
▁لتسليم	-11.6089
▁للامراض	-11.6089
استئصال	-11.6089
دردشة	-11.6089
▁لميركل	-11.6089
▁الجبرية	-11.6089
▁مبتكرة	-11.6089
▁التشيلي	-11.6089
الغارديان	-11.6089
▁دبلن	-11.6089
▁برمج	-11.609
▁للبلد	-11.609
▁للملك	-11.609
▁المنامة	-11.609
▁اعتذر	-11.609
▁تغذية	-11.609
▁القديس	-11.6091
اصرار	-11.6092
▁منطقتي	-11.6092
▁عصبي	-11.6092
▁المتعلق	-11.6094
▁لوحات	-11.6094
▁بتعزيز	-11.6094
▁منطقي	-11.61
▁التسلح	-11.6101
▁هاما	-11.6101
نبيه	-11.6103
▁بديع	-11.6107
▁المهتم	-11.6107
▁يشجع	-11.6107
▁كارتر	-11.611
▁رعاياها	-11.611
كوادر	-11.6111
وبل	-11.6112
▁سيواجه	-11.6118
▁كيلي	-11.6119
▁والقتل	-11.6122
▁التفاهم	-11.6131
▁كيلو	-11.6136
▁انضمت	-11.614
التنسيق	-11.6141
▁اندرويد	-11.6148
▁الانهيار	-11.6148
▁بالضبط	-11.6151
▁النيجر	-11.6153
▁وتدعم	-11.6154
▁تعقب	-11.6155
▁بالصحة	-11.616
▁تشنه	-11.6161
▁جذور	-11.6163
رباب	-11.6166
مفتش	-11.617
اوصت	-11.6171
مرافق	-11.6173
▁تسو	-11.6179
نخب	-11.618
▁لواشنطن	-11.6184
▁ملكية	-11.6185
▁الكاميرون	-11.6189
▁الكهربا	-11.619
لاستيقاظ	-11.6191
▁احتياطي	-11.6191
▁تصاريح	-11.6191
▁مداهمات	-11.6191
▁مخابرات	-11.6191
▁الجيزة	-11.6191
[...]
